/* SPDX-License-Identifier: GPL-2.0 */
/*
 * Copyright (c) 2022 MediaTek Inc.
 *
 * Author: Ming-Hsuan Chiang <ming-hsuan.chiang@mediatek.com>
 *
 */

char fdvt_kernel_bias_loop70_0_frame01_7sp[] = {
0x12,
0x03,
0x1e,
0x00,
0xfc,
0x03,
0x08,
0xf2,
0x0a,
0x19,
0xfa,
0xf3,
0x0f,
0xf4,
0x01,
0x08,
0xf9,
0xfd,
0x02,
0x04,
0xfd,
0xfc,
0x0b,
0xf2,
0xf4,
0xf3,
0xfe,
0xf5,
0x08,
0xf6,
0x07,
0x03,
0x0c,
0x08,
0x1a,
0x0a,
0x0d,
0xf9,
0xf5,
0xfa,
0x01,
0xf8,
0xfe,
0xff,
0xfc,
0x1a,
0xff,
0x08,
0x16,
0x14,
0x08,
0xfb,
0xff,
0x0f,
0xfe,
0x09,
0x00,
0xff,
0xed,
0x07,
0xea,
0x03,
0x08,
0xfc,
0xf6,
0xf7,
0xff,
0xe5,
0xe5,
0xfa,
0xf2,
0xf8,
0xf9,
0xf9,
0xff,
0xf2,
0x12,
0x08,
0x02,
0xf8,
0xfc,
0x01,
0x01,
0x05,
0x00,
0xfb,
0x04,
0xfa,
0x04,
0xfe,
0x04,
0x04,
0x0f,
0x07,
0x0b,
0x06,
0x07,
0x08,
0x01,
0x05,
0x07,
0x09,
0x04,
0xff,
0x05,
0x00,
0x04,
0x10,
0xf7,
0xd9,
0x07,
0x00,
0xff,
0x09,
0xf9,
0xf3,
0xfe,
0xfb,
0x06,
0xfc,
0xec,
0x0b,
0x07,
0xfb,
0x11,
0x0a,
0xfd,
0x05,
0x0f,
0x00,
0x0b,
0x02,
0x03,
0x02,
0x11,
0xf6,
0x19,
0x02,
0x14,
0xfe,
0xed,
0xfe,
0xfe,
0x09,
0xff,
0x14,
0xfe,
0x0b,
0xf6,
0x15,
0x00,
0xfb,
0xf6,
0x14,
0x03,
0x0f,
0x15,
0x09,
0xf7,
0xf7,
0xfc,
0x15,
0x0f,
0x07,
0xfb,
0xfc,
0x01,
0x0f,
0x04,
0xf9,
0xfe,
0xf8,
0x07,
0x0a,
0xf9,
0x15,
0x09,
0x05,
0xf0,
0xed,
0x0b,
0xfc,
0x00,
0xff,
0xff,
0xf6,
0x0a,
0x0f,
0x09,
0xf7,
0xf3,
0x00,
0x02,
0x16,
0x0f,
0xf4,
0xfc,
0x05,
0xf7,
0x07,
0xf1,
0xf3,
0xf9,
0x04,
0x14,
0x06,
0xfb,
0xfc,
0x0c,
0xf8,
0x03,
0xfc,
0x1d,
0xf1,
0x09,
0xf7,
0x08,
0x00,
0x1a,
0xfb,
0xed,
0xe4,
0x03,
0x23,
0x04,
0x06,
0xfd,
0xfe,
0x02,
0x0b,
0x06,
0x09,
0x04,
0xf0,
0x04,
0x0b,
0xfa,
0x0c,
0xef,
0x14,
0xdf,
0xf3,
0x0b,
0xe3,
0x08,
0xfc,
0x0f,
0x1a,
0x1a,
0xf3,
0x02,
0x18,
0xe8,
0x20,
0x03,
0xec,
0x05,
0xf9,
0x1e,
0xef,
0x11,
0x08,
0x02,
0x0e,
0x03,
0x0d,
0x0b,
0x17,
0xff,
0x0d,
0x00,
0x03,
0xec,
0xfe,
0xfe,
0x0d,
0x04,
0xf8,
0x07,
0x0d,
0x0b,
0x0b,
0x0a,
0xfd,
0xf7,
0xee,
0x12,
0xfc,
0x1a,
0x0e,
0x03,
0x28,
0x06,
0x00,
0x11,
0x06,
0x09,
0xfa,
0xf0,
0x00,
0x01,
0xdd,
0x05,
0xf8,
0xf6,
0x13,
0x03,
0xfa,
0x03,
0xfa,
0xf4,
0xf7,
0xfa,
0x08,
0x01,
0x01,
0x0b,
0xf5,
0x0a,
0xfa,
0xf2,
0x04,
0x02,
0x04,
0x01,
0x05,
0x11,
0x0e,
0x01,
0x26,
0xfe,
0x0e,
0x0d,
0xff,
0xee,
0x09,
0x03,
0xf3,
0x04,
0xf1,
0xfb,
0x04,
0xfe,
0xfe,
0x02,
0x01,
0x0a,
0x03,
0xff,
0x14,
0xff,
0xfa,
0xf9,
0xfd,
0x04,
0xff,
0x19,
0x02,
0xfe,
0xfa,
0x0b,
0xf4,
0xff,
0xfa,
0x01,
0x0f,
0x0e,
0x0b,
0xfc,
0x13,
0xfe,
0x01,
0xf8,
0x03,
0x02,
0xf6,
0x0c,
0x08,
0xf9,
0x00,
0xf7,
0x1b,
0xfa,
0x03,
0x13,
0xfb,
0xf7,
0xe6,
0xfd,
0xf3,
0x09,
0x02,
0xf5,
0xf2,
0x10,
0x0d,
0xfa,
0x04,
0x0d,
0x14,
0x05,
0x10,
0xe8,
0x03,
0xf1,
0xf9,
0xf9,
0x00,
0x14,
0xfe,
0xf7,
0x1e,
0x0d,
0x02,
0xf7,
0x07,
0xf9,
0xf5,
0x11,
0xfd,
0xf5,
0xfd,
0x03,
0x01,
0x08,
0x12,
0xfe,
0x03,
0x01,
0x0d,
0xf0,
0x01,
0x11,
0xff,
0x08,
0xf7,
0xe8,
0x14,
0xf3,
0xfe,
0xf8,
0x02,
0xf7,
0xe8,
0xfc,
0xfb,
0x0c,
0xf8,
0xed,
0x07,
0xf5,
0x07,
0xf0,
0x0a,
0xf4,
0xf5,
0x0f,
0xf3,
0xef,
0x00,
0xfe,
0xf0,
0x07,
0x0e,
0x0f,
0x01,
0xff,
0x04,
0x1a,
0x0d,
0xfc,
0x1b,
0x0d,
0xfa,
0xfc,
0x03,
0x04,
0x02,
0xfb,
0x03,
0xf8,
0xf9,
0xf6,
0xed,
0x02,
0xf4,
0xf4,
0x11,
0xf2,
0xfc,
0xfc,
0xf6,
0x12,
0xef,
0x04,
0xfa,
0xfd,
0x01,
0xed,
0xfd,
0xff,
0x0d,
0x00,
0x05,
0x05,
0x04,
0xf0,
0xfe,
0xfd,
0x10,
0x05,
0xf5,
0xf3,
0x08,
0xff,
0x07,
0x03,
0xf9,
0xfa,
0xfc,
0x04,
0xfb,
0xf9,
0xfa,
0xfb,
0x0f,
0x10,
0xfb,
0xf2,
0x00,
0xfc,
0x10,
0x07,
0x11,
0x0d,
0xfd,
0x0e,
0x04,
0x00,
0x01,
0xfb,
0x10,
0x04,
0x0d,
0xfe,
0x01,
0xfa,
0x0a,
0xfc,
0xfc,
0xf4,
0x08,
0x0e,
0xf8,
0xff,
0x09,
0xfd,
0xfb,
0x15,
0x02,
0x08,
0x04,
0xfb,
0x07,
0x0c,
0xda,
0xfe,
0xf3,
0x10,
0xfa,
0xf0,
0xf3,
0xe9,
0x11,
0xf9,
0xfb,
0x02,
0xff,
0xf4,
0xff,
0xdf,
0x0d,
0xe5,
0xf8,
0x02,
0x0f,
0xf1,
0x0d,
0x01,
0x0b,
0xf8,
0xf5,
0x01,
0xf9,
0xfe,
0xf8,
0xf9,
0x15,
0xf9,
0x08,
0xfa,
0xf7,
0x05,
0xfb,
0x0f,
0xfd,
0xfe,
0xfd,
0xf2,
0xf3,
0xe8,
0xf2,
0x05,
0xe4,
0x0a,
0x01,
0x05,
0x05,
0x00,
0xdd,
0xff,
0xed,
0x0b,
0xf6,
0x02,
0x10,
0xfc,
0xf8,
0xfa,
0x0c,
0xfd,
0xe7,
0x03,
0xec,
0x06,
0xe6,
0x19,
0x06,
0x0c,
0xfa,
0x03,
0xfc,
0xeb,
0xf6,
0x0d,
0xf7,
0xff,
0xff,
0xf9,
0xfa,
0xf8,
0xf9,
0xf7,
0xfc,
0x00,
0x08,
0xf9,
0xf6,
0x06,
0xf5,
0xf9,
0xfb,
0xfb,
0x0a,
0xf2,
0xfa,
0x01,
0x08,
0x08,
0x05,
0x0b,
0xfe,
0xee,
0xf8,
0x0e,
0x05,
0x07,
0x04,
0x0b,
0x02,
0xfe,
0x04,
0x04,
0xf7,
0xf4,
0x06,
0xfc,
0x13,
0xf5,
0xf5,
0xf8,
0x03,
0x16,
0x07,
0x0a,
0x00,
0x10,
0xfc,
0xf5,
0xf8,
0xef,
0x02,
0xee,
0xf7,
0x14,
0xfc,
0xf6,
0x0b,
0xf1,
0xfe,
0x08,
0xfd,
0x02,
0xf7,
0x00,
0xfa,
0xfb,
0x08,
0x0b,
0xec,
0xf7,
0xf9,
0x01,
0xff,
0xf7,
0xe1,
0x07,
0x05,
0xf6,
0x01,
0xf1,
0xf3,
0xfb,
0xfb,
0x0a,
0x1b,
0xf7,
0x1d,
0xfc,
0x0a,
0xf3,
0xfd,
0x04,
0xfd,
0xf6,
0xf5,
0x0e,
0x04,
0xf3,
0xfc,
0x08,
0xf7,
0xde,
0x05,
0xea,
0xd7,
0x15,
0xee,
0x03,
0xf1,
0xfc,
0x26,
0x00,
0x39,
0x09,
0x03,
0xf9,
0x09,
0x0a,
0x0d,
0x01,
0xd7,
0xfd,
0xf6,
0xfb,
0xfd,
0x12,
0xf5,
0x05,
0xf5,
0xfb,
0xf1,
0x15,
0xf3,
0xfd,
0xf9,
0x06,
0xfd,
0xf9,
0xee,
0xf3,
0x0b,
0x1f,
0xf8,
0x17,
0xed,
0x0c,
0xfe,
0x0b,
0xf5,
0xfb,
0x00,
0xf8,
0xeb,
0x07,
0x13,
0x07,
0x08,
0x13,
0x05,
0xf4,
0xf3,
0xfc,
0x09,
0xf5,
0xf4,
0x05,
0x22,
0xff,
0x05,
0x0b,
0xfc,
0xf9,
0x22,
0xef,
0xfe,
0xfc,
0x06,
0xf8,
0xf3,
0xfd,
0xf7,
0xf8,
0xfd,
0xf9,
0xe3,
0xf0,
0xf7,
0x02,
0xfd,
0xf3,
0x19,
0xee,
0x04,
0xff,
0x05,
0xfa,
0x0a,
0x08,
0xfb,
0xfb,
0xf4,
0x04,
0x13,
0x02,
0xfe,
0x02,
0x06,
0x11,
0x08,
0xff,
0xfd,
0xff,
0xf9,
0xee,
0xf0,
0x06,
0x19,
0xea,
0xff,
0x14,
0xfa,
0x05,
0x10,
0xf6,
0xf0,
0xff,
0xff,
0x02,
0x09,
0x01,
0xfb,
0x1c,
0xfb,
0x0a,
0xf3,
0xf9,
0xfc,
0x06,
0xef,
0x03,
0x08,
0xf5,
0x0c,
0xf3,
0xfd,
0xfc,
0xfe,
0x1b,
0xf3,
0xf6,
0xef,
0x10,
0xfb,
0xf8,
0xf4,
0x01,
0x02,
0x19,
0xfc,
0xed,
0x1d,
0xf1,
0x10,
0xfb,
0xfc,
0xf7,
0xed,
0x00,
0xf4,
0xf6,
0x0d,
0xfe,
0xf1,
0xe7,
0xf2,
0xfe,
0xfe,
0x00,
0xff,
0x09,
0x01,
0x05,
0x05,
0x1d,
0x14,
0xfd,
0xf8,
0xf2,
0xfe,
0xf5,
0xef,
0xfd,
0xf9,
0x0a,
0xf2,
0x06,
0xf8,
0x07,
0xf7,
0xf5,
0xff,
0xfc,
0x15,
0xf7,
0xf6,
0xf0,
0xf1,
0x11,
0xf5,
0x0f,
0x05,
0xfc,
0x07,
0xf2,
0xfd,
0x11,
0xfe,
0xff,
0x09,
0x05,
0xf8,
0xfc,
0x0e,
0x11,
0x03,
0xed,
0x00,
0x04,
0xf3,
0x0b,
0xfe,
0xf3,
0xf3,
0xed,
0xfd,
0xf3,
0xfa,
0xf7,
0xec,
0x04,
0xf0,
0xfe,
0x07,
0x0e,
0xf9,
0x04,
0x36,
0x03,
0x1a,
0xe2,
0x08,
0x08,
0xf3,
0x02,
0x13,
0x08,
0x0e,
0xf5,
0x00,
0x0d,
0xf8,
0xf7,
0x0c,
0xff,
0x05,
0xf4,
0xf6,
0x04,
0x00,
0x07,
0xfe,
0x17,
0x0e,
0xee,
0xed,
0x13,
0x2b,
0x07,
0x15,
0x1d,
0x01,
0xed,
0xfe,
0x11,
0xf9,
0x0a,
0xce,
0x00,
0xf7};
