/* SPDX-License-Identifier: GPL-2.0 */
/*
 * Copyright (c) 2022 MediaTek Inc.
 *
 * Author: Ming-Hsuan Chiang <ming-hsuan.chiang@mediatek.com>
 *
 */

char fdvt_kernel_bias_loop29_0_frame01_7sp[] = {
0x27,
0xe7,
0xd8,
0x24,
0xf1,
0xdc,
0x2f,
0x03,
0xf5,
0x27,
0x14,
0x15,
0x14,
0xfb,
0xfd,
0xf4,
0x08,
0x19,
0x10,
0xf1,
0xfd,
0xeb,
0xe4,
0xff,
0xed,
0xed,
0xfc,
0xef,
0xf4,
0x40,
0x03,
0x37,
0x04,
0x09,
0x02,
0xf5,
0x05,
0x08,
0x00,
0x0d,
0xcf,
0xf8,
0x1e,
0xdd,
0x07,
0x2a,
0xe9,
0x0b,
0xc8,
0xdc,
0x00,
0xf0,
0xec,
0xf1,
0xe4,
0xdf,
0xea,
0x04,
0x0a,
0x1a,
0x2a,
0x2a,
0x02,
0x14,
0xf9,
0xf0,
0xf7,
0xf2,
0xf3,
0xf2,
0xf3,
0x28,
0xfc,
0xfd,
0x0f,
0xde,
0xc3,
0x15,
0xfd,
0x03,
0xd5,
0xe3,
0xff,
0x00,
0xfc,
0x03,
0xf7,
0xfc,
0x00,
0xfd,
0x04,
0xe2,
0xe5,
0xf7,
0xd8,
0xd9,
0xce,
0x87,
0xeb,
0x16,
0xff,
0x2b,
0x06,
0x06,
0x05,
0x06,
0x08,
0x0a,
0x04,
0x02,
0x05,
0xfe,
0x0f,
0xeb,
0xce,
0xf4,
0x01,
0xfa,
0x0b,
0x14,
0x12,
0x1e,
0x02,
0x0e,
0x28,
0xec,
0x00,
0x13,
0x14,
0xe5,
0x06,
0x0f,
0xd9,
0xfb,
0x12,
0x40,
0xf9,
0xf3,
0x0b,
0xe9,
0xef,
0xf7,
0x00,
0x04,
0x0b,
0xfc,
0xf7,
0x04,
0xf4,
0xf7,
0x10,
0x0a,
0x05,
0x0e,
0x12,
0x10,
0x10,
0xfe,
0x02,
0xf4,
0x0e,
0x0d,
0x02,
0x19,
0xf1,
0xfa,
0x03,
0xf4,
0xf4,
0xf5,
0xec,
0xe4,
0xec,
0x05,
0x01,
0x04,
0xff,
0xfb,
0xfe,
0x04,
0x01,
0xfa,
0x00,
0xfe,
0xeb,
0xfb,
0x04,
0xf1,
0x04,
0x0c,
0x07,
0x0d,
0xf2,
0xf5,
0x03,
0x1a,
0x09,
0x0c,
0x08,
0xf7,
0xfb,
0x0c,
0x0d,
0x0a,
0xe8,
0x04,
0xe1,
0xf9,
0xfb,
0x0a,
0x19,
0x0e,
0x02,
0x0f,
0x00,
0xf7,
0x0f,
0x06,
0x02,
0x16,
0x0f,
0xf0,
0x0e,
0x0b,
0x25,
0x2a,
0xa8,
0x13,
0x25,
0x2e,
0xc4,
0xaa,
0x30,
0x2d,
0x22,
0xf3,
0x2e,
0xd0,
0x33,
0xfb};
