/* SPDX-License-Identifier: GPL-2.0 */
/*
 * Copyright (c) 2022 MediaTek Inc.
 *
 * Author: Ming-Hsuan Chiang <ming-hsuan.chiang@mediatek.com>
 *
 */

char fdvt_kernel_bias_loop15_0_frame01_7sp[] = {
0x00,
0x00,
0xe6,
0xfb,
0x1c,
0xf0,
0xfa,
0x24,
0x1d,
0xf0,
0xdb,
0xf9,
0xed,
0x04,
0x0c,
0xf5,
0xf3,
0xfa,
0x07,
0xff,
0xf0,
0x02,
0xea,
0xf1,
0x00,
0xe5,
0xf9,
0xe1,
0xe2,
0xee,
0x0e,
0x03,
0x0a,
0xff,
0xfc,
0x08,
0xfa,
0x0e,
0xf7,
0xff,
0xfc,
0x07,
0xfa,
0x12,
0x1c,
0x0b,
0xf4,
0xee,
0xff,
0x0a,
0xfc,
0x03,
0x0a,
0x17,
0xfa,
0x08,
0xf9,
0xeb,
0xf6,
0x04,
0xf1,
0x03,
0xfc,
0xcf,
0x23,
0x0c,
0x01,
0x09,
0xf7,
0x06,
0xfc,
0xf5,
0xe7,
0xfd,
0x0e,
0x15,
0x13,
0xed,
0x1b,
0x14,
0x0e,
0x07,
0x10,
0x05,
0xf8,
0x17,
0x10,
0x03,
0x00,
0xfd,
0x11,
0x06,
0x02,
0x0a,
0xf3,
0x0b,
0xf5,
0xf4,
0xee,
0x03,
0xfd,
0x08,
0xdf,
0xfb,
0xeb,
0x08,
0xfe,
0xd7,
0xf6,
0xe7,
0xe5,
0xf1,
0xed,
0xbf,
0xed,
0xde,
0xe5,
0xfb,
0xed,
0x06,
0x10,
0xf2,
0xf2,
0xe5,
0x03,
0x13,
0x03,
0x10,
0xff,
0xfd,
0x17,
0xfe,
0xdf,
0x0f,
0xe6,
0xe3,
0x16,
0xf0,
0xff,
0xf1,
0xf2,
0x12,
0xfb,
0x05,
0xf9,
0x05,
0x02,
0xf7,
0x01,
0x00,
0x12,
0x05,
0x1f,
0x0b,
0xf7,
0x04,
0x00,
0xe5,
0x06,
0x14,
0xfe,
0xeb,
0x09,
0xf2,
0xf2,
0xf1,
0x05,
0xf5,
0xf8,
0x06,
0x08,
0xfe,
0xf5,
0xf9,
0x07,
0x18,
0xfc,
0xea,
0xf2,
0xf2,
0xfb,
0xfe,
0xfd,
0x17,
0x01,
0x08,
0xf5,
0x10,
0x27,
0x0e,
0x06,
0x14,
0x0f,
0x04,
0x04,
0xfa,
0x0a,
0xff,
0xf4,
0x22,
0x13,
0xf5,
0x1b,
0xec,
0x03,
0x15,
0xfd,
0xf0,
0x01,
0x02,
0xf1,
0x04,
0x03,
0xe8,
0xf1,
0x10,
0x19,
0xf2,
0x09,
0x1a,
0xe7,
0x02,
0xf1,
0xe5,
0xf3,
0xeb,
0xe0,
0x06,
0xf5,
0x04,
0xde,
0xf8,
0xef,
0xed,
0xff,
0x08,
0xed,
0x0d,
0xea,
0x01,
0x00,
0x0e,
0xeb,
0x0b,
0x12,
0x08,
0x18,
0xfd,
0x02,
0xf9,
0x00,
0x28,
0xfe,
0x03,
0x08,
0x29,
0x0c,
0xfc,
0xe8,
0x0b,
0xf6,
0xf1,
0xf7,
0xf4,
0xff,
0x1e,
0xdc,
0xf3,
0x12,
0x0e,
0xf8,
0x0e,
0xe8,
0xf7,
0xea,
0xfe,
0x03,
0x08,
0xfc,
0x01,
0x02,
0x01,
0xea,
0xfd,
0xf4,
0xe9,
0x0e,
0x0c,
0xfe,
0xf9,
0x05,
0xf5,
0xf1,
0xf5,
0xf7,
0xdd,
0xe8,
0x09,
0xf6,
0xf6,
0x00,
0x09,
0x11,
0xfe,
0xeb,
0xee,
0x03,
0x08,
0x11,
0x09,
0x05,
0x09,
0xfa,
0x0b,
0xfe,
0xfa,
0xfc,
0x09,
0xf8,
0xf6,
0x0a,
0x12,
0xed,
0xfc,
0x0e,
0x0e,
0x02,
0x15,
0x0d,
0xf6,
0x0f,
0xf3,
0x03,
0xf1,
0xfa,
0x01,
0x05,
0xf4,
0xeb,
0x02,
0x0a,
0xf8,
0xf9,
0xf5,
0x04,
0xfb,
0x02,
0xec,
0x04,
0x01,
0xfe,
0x0b,
0xf5,
0x0e,
0x1d,
0x08,
0x0f,
0xfe,
0x12,
0x06,
0xff,
0x0a,
0x18,
0x03,
0xf2,
0xf7,
0xfe,
0xe6,
0xf3,
0xff,
0x03,
0x0a,
0xfd,
0xf7,
0x00,
0xf5,
0xe2,
0x03,
0x03,
0x04,
0xec,
0xfe,
0xe7,
0xf9,
0x02,
0xfa,
0x0f,
0x05,
0xed,
0xeb,
0x05,
0x02,
0xf7,
0xfa,
0x1a,
0xf1,
0x06,
0x05,
0xff,
0x14,
0xf4,
0x14,
0x01,
0xff,
0x24,
0x11,
0xef,
0xea,
0xf9,
0x00,
0x05,
0x02,
0xfe,
0x11,
0xf4,
0xe1,
0x0e,
0x0d,
0x14,
0xf8,
0x13,
0x01,
0x0b,
0xf5,
0x06,
0xff,
0xfb,
0x03,
0x00,
0xf6,
0xfe,
0xfb,
0x02,
0xf5,
0x05,
0xfe,
0x0f,
0x08,
0x00,
0xf4,
0x00,
0x02,
0x03,
0x10,
0xec,
0xf2,
0x03,
0xff,
0xf6,
0x1c,
0xf6,
0x04,
0xff,
0xfd,
0x0b,
0x07,
0xf3,
0x1c,
0xfb,
0x03,
0x0e,
0xeb,
0x0f,
0xfa,
0x03,
0x04,
0xfd,
0x02,
0xf2,
0xe6,
0xf4,
0x0e,
0xe1,
0x0a,
0x1e,
0x08,
0x14,
0xf9,
0xf8,
0x00,
0x2c,
0xfc,
0xe6,
0x03,
0x05,
0x07,
0xec,
0xf0,
0xd8,
0xf1,
0xfa,
0x04,
0xfd,
0xe3,
0x19,
0xe8,
0x1d,
0x07,
0x00,
0x0d,
0xf4,
0xff,
0x03,
0x00,
0xf7,
0x05,
0xfd,
0xed,
0x00,
0x05,
0xf6,
0xfd,
0xf2,
0x20,
0xee,
0x23,
0xf7,
0xfb,
0xf9,
0xfd,
0x0c,
0xda,
0x30,
0x42,
0xf3,
0xe8,
0xf5,
0x00,
0x2a,
0x11,
0x4a,
0x37,
0xff,
0xef,
0xf4,
0x22,
0x2c,
0xe7,
0xf0,
0xe5,
0xda,
0x24,
0x11,
0xe5,
0x2a,
0xf9,
0xf7,
0x23,
0xd2,
0xd3,
0xf0,
0xfb,
0xde,
0x0f,
0xca,
0xf4,
0xe1,
0x0d,
0xfa,
0x14,
0x26,
0xe3,
0x02,
0x06,
0x0b,
0xeb,
0x0f,
0xfc,
0xeb,
0x04,
0x4e,
0xf6,
0xf9,
0xe1,
0x37,
0xfd,
0xf8,
0xfb,
0xe1,
0x1b,
0xd4,
0xfc,
0x02,
0xf9,
0xec,
0xb6,
0xf8,
0xee,
0xe4,
0xc2,
0x26,
0x26,
0xed,
0x1e,
0x1a,
0x21,
0x10,
0xf3,
0x22,
0xe4,
0x55,
0x4c,
0x04,
0x22,
0x18,
0xe3,
0xee,
0x09,
0xe8,
0xc0,
0x20,
0xe9,
0x02,
0xee,
0x11,
0xea,
0xfe,
0x04,
0xed,
0x37,
0x0a,
0xd5,
0x23,
0x17,
0xf3,
0xee,
0xcc,
0x2a,
0x2c,
0xef,
0x07,
0xe5,
0xe2,
0x3f,
0xf0,
0xf1,
0xf4,
0x1b,
0xef,
0xf9,
0xe5,
0xe9,
0xea,
0x10,
0xee,
0xfe,
0xf0,
0x0e,
0xdf,
0x08,
0xf8,
0x0d,
0x0c,
0xf8,
0xee,
0x04,
0xf5,
0x10,
0x0a,
0x0c,
0x19,
0xe0,
0xdd,
0xf1,
0xf6,
0xe2,
0x16,
0x08,
0xf6,
0xe6,
0xf0,
0x20,
0xe2,
0xda,
0x13,
0x13,
0xf2,
0xdb,
0xdf,
0xc4,
0x27,
0xe3,
0x07,
0x16,
0xf0,
0x05,
0xe3,
0xec,
0xf9,
0xd9,
0x20,
0xf7,
0xf3,
0x07,
0xce,
0xfe,
0xf4,
0xda,
0xfb,
0xf4,
0xc4,
0xdd,
0xeb,
0x22,
0x05,
0xe8,
0x0e,
0x11,
0x25,
0xe9,
0xf2,
0x03,
0xd6,
0x42,
0xf1,
0xcc,
0x48,
0xdc,
0xd5,
0x01,
0xee,
0xeb,
0x07,
0x00,
0x37,
0x03,
0x19,
0x26,
0xfe,
0xf3,
0x02,
0xf7,
0xf9,
0xe3,
0xf4,
0x10,
0xf9,
0x3e,
0x19,
0x0f,
0xec,
0xf0,
0xda,
0xe7,
0x06,
0xe8,
0x08,
0xfe,
0xfa,
0x28,
0xda,
0x16,
0x00,
0xfa,
0x23,
0x0e,
0xcc,
0x19,
0xf6,
0x4c,
0xff,
0xf5,
0xc7,
0xfb,
0xef,
0x20,
0x01,
0x03,
0x03,
0xf2,
0x13,
0xf3,
0xf5,
0x04,
0x00,
0x04,
0xf1,
0xf4,
0xf4,
0x28,
0xee,
0xd3,
0xfc,
0xfe,
0x21,
0xf9,
0xfb,
0x0d,
0xf1,
0xf0,
0xe7,
0xfb,
0xe1,
0x10,
0xf7,
0xff,
0xfc,
0x09,
0xe8,
0x05,
0x00,
0xfe,
0x0e,
0xf1,
0x21,
0x09,
0xfb,
0xd0,
0x08,
0xf7,
0x05,
0xfc,
0x11,
0xf5,
0xf2,
0xdd,
0xdd,
0xf1,
0x03,
0x0e,
0xe4,
0x0c,
0xfe,
0x26,
0xf3,
0x02,
0xfe,
0xf4,
0x19,
0xf3,
0x10,
0x03,
0x00,
0xf3,
0x01,
0xfd,
0xfc,
0xe4,
0xfd,
0xec,
0xee,
0xe6,
0xf7,
0xfa,
0xf4,
0xfb,
0x02,
0xfe,
0x23,
0xf9,
0xe6,
0xf0,
0xfb,
0xe6,
0xde,
0xf9,
0x0b,
0x06,
0xf7,
0x01,
0xfc,
0x11,
0xf4,
0xff,
0x17,
0xf2,
0xeb,
0xfe,
0xe2,
0xf3,
0xfb,
0x05,
0xf5,
0xf9,
0x0c,
0xf4,
0xf5,
0xee,
0xf1,
0xf6,
0x1f,
0x12,
0xe9,
0xed,
0xec,
0xf5,
0xed,
0x18,
0x2a,
0xf9,
0xd2,
0xf0,
0x1a,
0xf7,
0x01,
0xe3,
0x0a,
0xf4,
0x11,
0xf7,
0x13,
0x09,
0xff,
0x2c,
0x07,
0xfe,
0x06,
0x10,
0x05,
0xf3,
0x18,
0xf1,
0x0e,
0x12,
0xf7,
0x09,
0x0a,
0xf5,
0x00,
0x17,
0x0c,
0x05,
0x03,
0x01,
0xfc,
0x13,
0x02,
0x05,
0x07,
0x10,
0x0c,
0xfa,
0x01,
0x1a,
0x13,
0x0e,
0x08,
0x0b,
0x07,
0xd8,
0xed,
0x10,
0xf5,
0xf7,
0xf4,
0xf5,
0x07,
0x20,
0x0a,
0x20,
0xfb,
0xec,
0xfe,
0xf5,
0xff,
0xf6,
0x06,
0x0a,
0xea,
0xe3,
0x15,
0x0c,
0xec,
0x19,
0xef,
0xff,
0xc6,
0x17,
0xf9,
0xf9,
0xff,
0x0f,
0xf8,
0x02,
0xfd,
0xff,
0xf5,
0xf8,
0x04,
0x21,
0x07,
0xfe,
0xc8,
0xf1,
0xda,
0x01,
0xf2,
0xd7,
0x06,
0xe6,
0x1d,
0xf4,
0xff,
0xf5,
0x08,
0xfd,
0x08,
0xec,
0xc8,
0x22,
0xed,
0xee,
0x02,
0xf8,
0xfa,
0xea,
0x0d,
0x0d,
0x03,
0xe9,
0x02,
0xf1,
0xf4,
0xed,
0xad,
0x15,
0x0e,
0xec,
0x17,
0x23,
0x12,
0x04,
0xfb,
0x1a,
0xe6,
0x15,
0xfe,
0xd7,
0x09,
0x1a,
0x5e,
0x02,
0xfc,
0xee,
0xf7,
0xf7,
0xee,
0x1f,
0x10,
0xfc,
0x04,
0x05,
0x01,
0xec,
0x1f,
0xf4,
0x0e,
0x00,
0x09,
0xff,
0xfd,
0xeb,
0x03,
0x0c,
0x01,
0x15,
0xf3,
0x0d,
0x03,
0xe8,
0xff,
0xfd,
0xca,
0x08,
0x0d,
0x04,
0x00,
0xf0,
0xf9,
0xf1,
0x16,
0x02,
0xf9,
0x0c,
0xf8,
0x02,
0x00,
0xfb,
0xf0,
0x0a,
0x04,
0xe3,
0x02,
0xfb,
0xed,
0xf8,
0x08,
0xf3,
0xff,
0xff,
0xe9,
0x1b,
0xfe,
0x07,
0xf3,
0x0b,
0xf7,
0x04,
0x08,
0x10,
0xff,
0x09,
0x0d,
0x0d,
0x12,
0x0b,
0xe8,
0xf8,
0x08,
0x07,
0xdf,
0xf9,
0xf4,
0x04,
0x17,
0x0d,
0x01,
0x07,
0x02,
0x07,
0xf6,
0xfc,
0x0f,
0x0d,
0x0c,
0xfa,
0xeb,
0xf3,
0x0d,
0x10,
0xf9,
0x08,
0x08,
0xff,
0xfa,
0xff,
0x06,
0x07,
0xf8,
0x0a,
0xf5,
0xfb,
0xf8,
0xf2,
0x0f,
0xf4,
0xfd,
0x15,
0x01,
0x09,
0x00,
0x06,
0xed,
0xed,
0xf3,
0x00,
0xf5,
0xef,
0x00,
0xdb,
0x04,
0x09,
0xf7,
0xf8,
0x08,
0x02,
0xfe,
0xfb,
0xf9,
0xfc,
0x0b,
0x1d,
0x00,
0xf8,
0x01,
0x03,
0xfa,
0x02,
0xfa,
0x0b,
0xf7,
0xf1,
0xff,
0x00,
0xfe,
0x07,
0x08,
0xeb,
0xfe,
0xf8,
0xe2,
0x1f,
0x0f,
0x06,
0xfa,
0x00,
0x0b,
0x0d,
0x01,
0xfa,
0x0f,
0x0d,
0xfb,
0x05,
0x05,
0xfe,
0xfc,
0x08,
0x06,
0xfb,
0xfb,
0x09,
0x02,
0xf8,
0xf6,
0x03,
0xf9,
0x00,
0x1d,
0xee,
0x11,
0xd7,
0x0e,
0x13,
0xfb,
0xf7,
0xec,
0xff,
0x05,
0x11,
0xea,
0x03,
0xee,
0x18,
0x1b,
0x08,
0xf0,
0x0f,
0xf7,
0x03,
0x16,
0xf9,
0xf6,
0x11,
0xf0,
0xff,
0xeb,
0xfe,
0x15,
0xfe,
0xf5,
0xf3,
0xe6,
0xe9,
0x09,
0x13,
0xfc,
0x0c,
0x01,
0xf0,
0xe4,
0xfb,
0x21,
0xf1,
0x06,
0xed,
0x00,
0xfe,
0x05,
0x00,
0x0f,
0xea,
0x04,
0xf4,
0x05,
0xe2,
0x09,
0x0b,
0xfc,
0x11,
0xff,
0xee,
0xe1,
0x24,
0x2f,
0xfd,
0x0c,
0x15,
0x33,
0x19,
0xd9,
0x0f,
0x14,
0x02,
0x11,
0x2d,
0xf9,
0x37,
0xda,
0xef,
0x4b,
0x1a,
0x05,
0x30,
0x22,
0xe6,
0x21,
0xf1,
0x05,
0x07,
0xea,
0x08,
0xd7,
0xec,
0xfb,
0xb7,
0xf3,
0x21,
0xdf,
0xed,
0xe8,
0x07,
0xf6,
0xcd,
0xd7,
0x1b,
0xeb,
0x21,
0xee,
0xf5,
0xfc,
0x2f,
0xef,
0x01,
0x0f,
0xf8,
0xde,
0x28,
0x0c,
0x05,
0x11,
0xe9,
0x49,
0xdf,
0x12,
0xc6,
0xf0,
0x24,
0xfa,
0xf5,
0x0a,
0xfb,
0x1b,
0xe0,
0x00,
0xea,
0x52,
0x0c,
0x07,
0x04,
0x02,
0xcd,
0xed,
0x2f,
0xef,
0xda,
0xfe,
0xf0,
0xfd,
0xe7,
0xce,
0xf5,
0xd2,
0x05,
0xf5,
0xf0,
0x0f,
0xe9,
0xd8,
0x0d,
0xe2,
0xfe,
0xb8,
0xeb,
0xdd,
0xff,
0x27,
0xf7,
0xfe,
0xe0,
0xde,
0xe6,
0x28,
0x10,
0x0b,
0xee,
0xee,
0xe5,
0x29,
0xf3,
0xde,
0xfd,
0x11,
0x2b,
0x2c,
0x32,
0xea,
0xec,
0xc2,
0xda,
0xeb,
0xec,
0x14,
0x29,
0xff,
0xdc,
0x06,
0x08,
0xc2,
0x04,
0xe4,
0x13,
0x02,
0x13,
0x24,
0xf4,
0xfc,
0xde,
0xf5,
0x03,
0x20,
0xd5,
0x01,
0xf8,
0xf3,
0x39,
0x05,
0x07,
0xef,
0xe7,
0xe8,
0xe5,
0xd2,
0x1d,
0x2a,
0x03,
0xda,
0xe5,
0x11,
0x30,
0xde,
0xfc,
0xec,
0x0a,
0xfc,
0x0f,
0x27,
0x00,
0xdb,
0xf2,
0xf2,
0x04,
0x04,
0xfa,
0xd3,
0xfa,
0x0a,
0xf5,
0xe8,
0x32,
0xd3,
0x02,
0x0e,
0x0a,
0x05,
0x24,
0xec,
0xe8,
0x0e,
0xf5,
0x04,
0xf3,
0x1f,
0x2d,
0x41,
0x0e,
0xf4,
0xdf,
0x34,
0xda,
0xf8,
0xdd,
0xfc,
0xeb,
0x10,
0x20,
0xf4,
0x1a,
0x1b,
0xe9,
0xf0,
0x1e,
0xf1,
0xea,
0x04,
0xea,
0x12,
0xe2,
0x28,
0x0e,
0xb6,
0x02,
0x40,
0xc6,
0xfc,
0xe7,
0xe5,
0xe2,
0xdb,
0x00,
0xec,
0x1e,
0xf7,
0xfd,
0x20,
0xdd,
0xd6,
0x12,
0x3b,
0x34,
0xfd,
0xf6,
0x08,
0x11,
0xea,
0xed,
0x3f,
0x07,
0xe5,
0xd7,
0xf6,
0x21,
0x01,
0xf7,
0xf5,
0x16,
0x1e,
0xdb,
0x1e,
0x09,
0x1a,
0xfc};
