/* SPDX-License-Identifier: GPL-2.0 */
/*
 * Copyright (c) 2022 MediaTek Inc.
 *
 * Author: Ming-Hsuan Chiang <ming-hsuan.chiang@mediatek.com>
 *
 */

char fdvt_kernel_bias_loop18_0_frame01_7sp[] = {
0x07,
0xfd,
0x0a,
0xf3,
0x04,
0x04,
0xfb,
0x08,
0xfa,
0x02,
0x02,
0xfe,
0x01,
0x05,
0x06,
0x07,
0xfa,
0x05,
0x02,
0xff,
0xfe,
0xfa,
0xfd,
0xf9,
0xfd,
0x02,
0x09,
0x03,
0xff,
0x00,
0xff,
0x01,
0xeb,
0xf8,
0xf8,
0xff,
0x06,
0xfd,
0xf7,
0x03,
0x17,
0x00,
0xfb,
0x0e,
0x01,
0x00,
0xef,
0xff,
0x20,
0x06,
0x05,
0x07,
0xf9,
0xf0,
0xfd,
0xf3,
0xfc,
0xef,
0xf4,
0xf8,
0xf5,
0xf7,
0x07,
0xf8,
0x0b,
0x03,
0x21,
0xfe,
0x02,
0x1b,
0x15,
0x0a,
0xd3,
0xf2,
0x0d,
0xf1,
0xf8,
0x0a,
0x08,
0x0c,
0x07,
0x0a,
0x13,
0x03,
0xf8,
0x12,
0x16,
0xfd,
0xfc,
0x06,
0xfc,
0x0f,
0xfe,
0x07,
0x16,
0x0d,
0x1f,
0x2d,
0xb6,
0x20,
0xc3,
0xce,
0xd1,
0xd7,
0x25,
0xca,
0xc4,
0x1f,
0xd4,
0xdb,
0xf1,
0xdf,
0x0b,
0xf4,
0xf8,
0x0a,
0xfb,
0x06,
0x07,
0x03,
0x12,
0xf9,
0x13,
0x11,
0x19,
0xf8,
0x18,
0x0e,
0x01,
0xf8,
0xf6,
0xf2,
0xfc,
0xf9,
0xf9,
0xfd,
0x08,
0xff,
0x03,
0xfd,
0xfb,
0x00,
0xfb,
0xfd,
0xfe,
0x02,
0x03,
0xf8,
0xf9,
0xfb,
0x02,
0xf0,
0xfb,
0xfa,
0xf9,
0xf5,
0x00,
0x05,
0xfc,
0xfe,
0x0a,
0xfe,
0xf8,
0x0c,
0xf7,
0xfb,
0xff,
0x09,
0x05,
0x00,
0xf9,
0xef,
0x00,
0xfe,
0xf2,
0x02,
0x06,
0xfb,
0xfb,
0xf7,
0xff,
0xf1,
0xf8,
0x0d,
0x0d,
0x0a,
0x04,
0xfc,
0xfc,
0xfb,
0xf1,
0x02,
0x02,
0xf7,
0xe5,
0x07,
0x06,
0xef,
0xfc,
0xf6,
0x00,
0xf2,
0x03,
0xf6,
0xfb,
0xfe,
0x07,
0xfc,
0x1c,
0x20,
0xe8,
0x0f,
0xe0,
0xe3,
0xe7,
0xde,
0x27,
0xdd,
0xdd,
0x1f,
0xe7,
0x01,
0x0c,
0xdf,
0xf4,
0xfd,
0x01,
0xf6,
0x01,
0xe9,
0xfd,
0xf6,
0x00,
0x00,
0x00,
0x02,
0x03,
0x03,
0xf9,
0xfe,
0xf7,
0x09,
0xfa,
0x01,
0x01,
0xf8,
0x0f,
0xfb,
0x01,
0x00,
0xf8,
0x06,
0x01,
0x00,
0x0b,
0xf6,
0x05,
0xf8,
0x13,
0xec,
0xf7,
0x12,
0x01,
0x02,
0x14,
0x12,
0xe7,
0xfd,
0x02,
0xfb,
0x0c,
0x08,
0xf8,
0xff,
0xf7,
0x14,
0x05,
0x02,
0xf7,
0xfb,
0x01,
0xfb,
0xf6,
0xf4,
0x01,
0x06,
0x04,
0x02,
0x05,
0xff,
0x01,
0x01,
0xfb,
0xff,
0x00,
0xff,
0x03,
0xf2,
0x04,
0x00,
0x05,
0xfb,
0x09,
0xf7,
0x03,
0x04,
0xfb,
0xfe,
0xfe,
0xf8,
0xf7,
0x0a,
0xf6,
0xff,
0xf7,
0xfb,
0xfc,
0xfd,
0x00,
0x08,
0xf4,
0xfd,
0xe2,
0x0b,
0xff,
0xf0,
0xf2,
0x03,
0x0c,
0x02,
0x06,
0xfc,
0xfc,
0xfc,
0xf5,
0x04,
0x0e,
0x04,
0x10,
0xf8,
0xf8,
0x0a,
0xef,
0x0b,
0x01,
0xfe,
0x0b,
0xf8,
0xfa,
0xfa,
0xf7,
0xff,
0xf9,
0xf4,
0xe7,
0xfc,
0x00,
0x1d,
0x02,
0xff,
0xff,
0xfd,
0xfd,
0xfa,
0x02,
0xfc,
0xf1,
0xf8,
0xf1,
0x08,
0x05,
0xf8,
0x06,
0x0a,
0xf4,
0xf2,
0x0f,
0x0a,
0x08,
0xef,
0x01,
0xff,
0xfa,
0x09,
0x0c,
0x08,
0x08,
0x04,
0x00,
0xf5,
0xf9,
0xfb,
0xfb,
0x00,
0xf8,
0xfb,
0xfb,
0xfd,
0x14,
0xff,
0x01,
0x06,
0x0a,
0xfe,
0xfc,
0xe1,
0xf9,
0xfc,
0xed,
0x03,
0x01,
0x0d,
0xff,
0x00,
0xf2,
0xfd,
0xfd,
0x0b,
0x03,
0x03,
0xfd,
0x05,
0x03,
0x03,
0x02,
0x01,
0x04,
0xfd,
0xfe,
0x02,
0x07,
0x01,
0xf7,
0x08,
0xff,
0xfe,
0xff,
0xfe,
0xfd,
0xf6,
0x04,
0xff,
0xfd,
0x08,
0x00,
0xfd,
0x03,
0x01,
0x16,
0xf7,
0xff,
0x0a,
0xfc,
0x01,
0x09,
0x05,
0xfe,
0xff,
0x01,
0xf9,
0x07,
0x00,
0xff,
0x00,
0x12,
0x04,
0x00,
0xf6,
0xfb,
0xee,
0x08,
0xfc,
0xf9,
0xfd,
0xf7,
0x05,
0xfe,
0xff,
0xfd,
0xfd,
0x26,
0x1c,
0x06,
0x15,
0xdb,
0xf9,
0xe6,
0xe7,
0x0a,
0xe6,
0xe4,
0x17,
0xde,
0xf4,
0xfb,
0xe2,
0xfd,
0x0a,
0x02,
0x04,
0xfb,
0x01,
0xf4,
0x06,
0x08,
0x06,
0x07,
0xf9,
0x02,
0x01,
0xfa,
0xff,
0xfd,
0xf7,
0x01,
0x01,
0x00,
0x0b,
0xfd,
0x03,
0xfd,
0x02,
0xfe,
0x08,
0x01,
0x01,
0x05,
0xfa,
0x0d,
0x06,
0x03,
0x16,
0xdd,
0xfb,
0x02,
0x05,
0x10,
0xf8,
0x22,
0x1b,
0xf4,
0xf5,
0xf3,
0xe7,
0x01,
0xfd,
0xfa,
0x0b,
0x10,
0x03,
0xf7,
0x0f,
0x01,
0x12,
0xfc,
0xf6,
0xfc,
0x07,
0x05,
0x00,
0xfc,
0xf4,
0xea,
0xf1,
0xfe,
0xfa,
0x03,
0xfb,
0xf9,
0xfb,
0xff,
0xf5,
0x07,
0xfd,
0x13,
0xfd,
0x15,
0x03,
0xf0,
0x0c,
0xee,
0xfd,
0x0a,
0xfa,
0x11,
0xe8,
0x00,
0x1d,
0xf6,
0xfb,
0x0f,
0xe8,
0xf8,
0xff,
0xf7,
0xf8,
0xfe,
0x14,
0xfe,
0x07,
0xfa,
0x0a,
0x04,
0xe7,
0xfe,
0xff,
0x00,
0x0d,
0xfc,
0x09,
0x06,
0xfd,
0x03,
0x10,
0xf5,
0xfa,
0x07,
0x06,
0x0a,
0xf7,
0xf9,
0xfd,
0x05,
0xff,
0x07,
0x05,
0x1a,
0x03,
0x00,
0xf1,
0xe6,
0xf9,
0xff,
0x00,
0x07,
0xfc,
0xfc,
0xf4,
0xf1,
0x0f,
0x0b,
0x0c,
0x04,
0xf9,
0x0b,
0xf1,
0x01,
0xf7,
0x13,
0x1d,
0x0f,
0x07,
0x03,
0xff,
0x0a,
0x07,
0xf4,
0xfc,
0x0e,
0xf7,
0xfb,
0xfc,
0x06,
0x07,
0xfd,
0x02,
0xf5,
0xed,
0xfa,
0x07,
0x08,
0x11,
0xf4,
0xfa,
0xfc,
0x03,
0xff,
0xef,
0xf8,
0xf9,
0xfa,
0x01,
0xfe,
0x02,
0x05,
0xfd,
0x04,
0xf9,
0xfc,
0xfa,
0xf6,
0x0f,
0x07,
0xf1,
0xff,
0x0a,
0xf4,
0x04,
0xe9,
0xe7,
0x07,
0x06,
0xf7,
0x13,
0x23,
0x1f,
0xcf,
0x1c,
0xe5,
0xd5,
0xcd,
0xd2,
0x26,
0xcd,
0xf2,
0x23,
0xdf,
0xf6,
0xe1,
0xe4,
0xfd,
0x08,
0xf7,
0x07,
0xfe,
0xf6,
0x04,
0x05,
0xfc,
0x01,
0xf8,
0xf9,
0x00,
0xf8,
0xfd,
0x01,
0x03,
0x14,
0xc8,
0x20,
0xd3,
0xd4,
0xf5,
0xf3,
0x31,
0xee,
0xd3,
0x24,
0xe3,
0xf1,
0xea,
0xdd,
0x08,
0xff,
0x01,
0x0a,
0x01,
0xfd,
0xfe,
0x06,
0x17,
0xff,
0x03,
0x14,
0x07,
0x01,
0x07,
0xf2,
0xf9,
0xfd,
0xf4,
0xe3,
0x07,
0xfa,
0xf4,
0xed,
0xe7,
0x05,
0x0b,
0x00,
0xfd,
0xeb,
0xb4,
0xf3,
0xf6,
0xf2,
0x02,
0x2b,
0x15,
0xee,
0x09,
0xe9,
0xfb,
0x19,
0xec,
0xeb,
0x08,
0xdd,
0xd3,
0xed,
0x14,
0x0a,
0xe2,
0x14,
0x1f,
0x18,
0xdc,
0xe8,
0x08,
0x0f,
0x0a,
0x02,
0x02,
0xea,
0xe6,
0x02,
0xfa,
0x13,
0x05,
0xe7,
0x22,
0x0f,
0x14,
0x0a,
0xd6,
0x01,
0xf4,
0xfc,
0x04,
0xf4,
0xde,
0x14,
0x1e,
0x08,
0x2b,
0x26,
0x0c,
0xe3,
0xed,
0x21,
0xfe,
0x15,
0x29,
0x2e,
0xfb,
0xe7,
0x14,
0xeb,
0xeb,
0xed,
0x0d,
0xe8,
0xe7,
0x0d,
0x02,
0x04,
0xf6,
0xe8,
0x19,
0x18,
0x29,
0xee,
0x24,
0x04,
0xf5,
0xf7,
0xf8,
0x27,
0xe4,
0x12,
0x07,
0xfe,
0xe5,
0xf5,
0x10,
0x15,
0xe1,
0xe2,
0xea,
0xfd,
0xfb,
0xf3,
0x1a,
0xe4,
0x19,
0x09,
0x16,
0x0f,
0xe9,
0x0b,
0x04,
0x01,
0xed,
0xf0,
0xf7,
0x04,
0xd3,
0xf6,
0xf1,
0xe6,
0xb5,
0x05,
0x0f,
0x07,
0xf5,
0xfe,
0xee,
0x01,
0xe8,
0xf6,
0x03,
0x1e,
0xfa,
0xf3,
0x07,
0xf5,
0xee,
0xf0,
0xd9,
0xf6,
0x04,
0x03,
0x0e,
0x15,
0xec,
0x1a,
0xe3,
0xf9,
0xfc,
0x07,
0x0d,
0x02,
0xfe,
0xe0,
0x08,
0xf6,
0x1e,
0xef,
0x07,
0x2c,
0xfb,
0xf3,
0xf2,
0x12,
0xeb,
0xf7,
0x12,
0xf2,
0xe4,
0x1f,
0x1a,
0x24,
0x0c,
0x04,
0xee,
0x0c,
0xf1,
0xe3,
0x00,
0x08,
0xe5,
0x0a,
0xef,
0xfc,
0xf3,
0x02,
0x2c,
0xef,
0xf0,
0xe4,
0xe9,
0xed,
0x10,
0xf7,
0xa9,
0x31,
0x00,
0xfb,
0x0f,
0x01,
0xf3,
0x0f,
0x15,
0xf1,
0x17,
0xfa,
0x07,
0x15,
0xfc,
0x01,
0x01,
0x05,
0xf8,
0x05,
0xe9,
0xeb,
0x08,
0x09,
0x0e,
0x0d,
0xdd,
0xe2,
0xfe,
0xeb,
0x12,
0xe0,
0xf1,
0x11,
0xf5,
0x08,
0x19,
0x03,
0xcc,
0xf9,
0x08,
0xf4,
0x18,
0x02,
0x0b,
0xe0,
0xf4,
0x10,
0xf0,
0x07,
0xf3,
0x00,
0x05,
0xf6,
0xee,
0x01,
0xf5,
0xf3,
0x09,
0x03,
0xfd,
0x00,
0x03,
0xff,
0xf8,
0x02,
0xf6,
0xfb,
0xff,
0x09,
0xfe,
0x09,
0xff,
0x0c,
0xf0,
0x07,
0xfa,
0x05,
0x03,
0x06,
0x03,
0x03,
0xff,
0xfd,
0xfe,
0x03,
0x06,
0xfd,
0x03,
0xfa,
0xe2,
0x02,
0xfd,
0xef,
0x01,
0xfe,
0x07,
0xfe,
0x0f,
0xec,
0x03,
0x02,
0x03,
0xf9,
0x13,
0xec,
0x0b,
0xfb,
0xfa,
0x17,
0x00,
0x0e,
0xf5,
0x0f,
0xf3,
0xef,
0xfe,
0x0e,
0x12,
0x11,
0x0a,
0x0f,
0x0f,
0x06,
0x0c,
0xf8,
0x05,
0x03,
0xf3,
0xff,
0x08,
0x06,
0xff,
0x01,
0x0e,
0xfd,
0xf7,
0x06,
0xfd,
0xfc,
0x04,
0x05,
0xfe,
0xfd,
0x06,
0x06,
0x1c,
0xeb,
0xce,
0xc7,
0xb9,
0xdb,
0x20,
0xda,
0xd6,
0xd1,
0xc9,
0x1b,
0xd3,
0x1d,
0xfd,
0x33,
0x04,
0xfc,
0xeb,
0xff,
0x02,
0xf8,
0xf8,
0x0a,
0x15,
0xf7,
0xed,
0xf7,
0x03,
0xfb,
0x10,
0x0d,
0x05,
0xfd,
0x11,
0x03,
0x00,
0xfe,
0x03,
0xef,
0xfc,
0xfd,
0x08,
0x06,
0xff,
0x03,
0xf8,
0xfd,
0x02,
0xff,
0xfc,
0xf5,
0xf6,
0x00,
0xfd,
0xf3,
0xff,
0xff,
0xfd,
0x04,
0xf5,
0x0f,
0x0e,
0xff,
0x0f,
0x09,
0xff,
0xff,
0xf5,
0xf5,
0x03,
0x05,
0xfc,
0xff,
0xf8,
0x00,
0xfd,
0xfb,
0x0a,
0x05,
0xf3,
0xf1,
0x1b,
0x02,
0x1c,
0xfe,
0x08,
0xf8,
0xf7,
0xfe,
0x00,
0x05,
0xfe,
0xfb,
0xf5,
0x01,
0xf9,
0x06,
0x08,
0xfa,
0x0b,
0xf9,
0xfa,
0xfd,
0x0e,
0x04,
0x05,
0xfd,
0xff,
0xfe,
0xff,
0x01,
0x1c,
0xef,
0xe3,
0xe3,
0xeb,
0xdd,
0x27,
0xdc,
0xf6,
0xdf,
0xe2,
0x24,
0xe0,
0x15,
0x05,
0x10,
0xf2,
0x01,
0x02,
0x00,
0x0c,
0xfc,
0xf4,
0xfe,
0x06,
0x02,
0xfe,
0x00,
0x03,
0xf2,
0x08,
0x01,
0xfc,
0x03,
0x02,
0x04,
0x01,
0x08,
0xff,
0x05,
0xfd,
0x00,
0xff,
0x11,
0x01,
0x05,
0xf9,
0xf5,
0xff,
0xfe,
0x07,
0x0a,
0x0d,
0xfa,
0xfa,
0x00,
0x04,
0x07,
0x02,
0x03,
0x01,
0x06,
0xf3,
0xf5,
0xfb,
0x05,
0xf6,
0x01,
0xf3,
0xfd,
0xfa,
0xf2,
0xf7,
0x01,
0x00,
0xfd,
0x02,
0xfa,
0x07,
0x06,
0x06,
0x07,
0xf8,
0xfd,
0xff,
0x01,
0xff,
0x00,
0xf1,
0x01,
0xf8,
0xfa,
0xff,
0x04,
0x0c,
0x00,
0xf1,
0x08,
0x0b,
0xfb,
0xf9,
0x0c,
0xff,
0x0c,
0x0a,
0x05,
0x05,
0x17,
0x01,
0x0a,
0xf3,
0x07,
0x13,
0x06,
0x12,
0xfe,
0x06,
0x0f,
0xfb,
0xdb,
0xf0,
0xff,
0x07,
0xf7,
0xfe,
0x00,
0x00,
0x04,
0xf4,
0xfa,
0x09,
0x00,
0x06,
0x04,
0xff,
0x07,
0xf9,
0xfe,
0x04,
0x01,
0xfd,
0x06,
0x00,
0x0b,
0x00,
0x08,
0x04,
0xfb,
0x03,
0xfc,
0x03,
0x05,
0xef,
0xfe,
0x01,
0x18,
0xfc,
0xf7,
0xff,
0x01,
0x01,
0xf9,
0xf3,
0xec,
0x08,
0xf8,
0x0a,
0xdf,
0x09,
0xf8,
0x0b,
0x17,
0xfe,
0xfc,
0xf0,
0x03,
0x09,
0xfe,
0xf3,
0xfe,
0x05,
0x04,
0xff,
0xf9,
0xf6,
0xfe,
0xfc,
0x02,
0x00,
0xfd,
0xfa,
0xfe,
0xfc,
0xfb,
0xf5,
0x06,
0xfd,
0xfa,
0xfb,
0x10,
0xf6,
0x01,
0xf8,
0x05,
0x02,
0xf9,
0xfd,
0xfe,
0x04,
0xfd,
0xff,
0xff,
0x0b,
0x01,
0xfe,
0xff,
0x08,
0xff,
0x07,
0xff,
0xff,
0x0c,
0xfd,
0x03,
0x09,
0x08,
0x07,
0xf9,
0x07,
0x04,
0xfd,
0x13,
0x0a,
0xff,
0xfe,
0x05,
0xf9,
0x03,
0xff,
0x03,
0xfe,
0x02,
0x03,
0x0b,
0xf8,
0xfb,
0xff,
0xed,
0x05,
0x08,
0xf8,
0xfa,
0x06,
0x00,
0xfd,
0xfc,
0xfe,
0xff,
0x07,
0xf4,
0xf0,
0xfd,
0x05,
0x04,
0x1c,
0xfb,
0xfd,
0x13,
0xfc,
0x04,
0xf7,
0x05,
0x10,
0xf7,
0xdb,
0xdc,
0xd5,
0xe8,
0x24,
0xf5,
0xfd,
0xe1,
0xec,
0x34,
0xeb,
0x0f,
0xf7,
0x24,
0xee,
0xff,
0xfb,
0x09,
0x0b,
0x01,
0xf3,
0xf5,
0x00,
0x06,
0xf9,
0x0c,
0x00,
0x0e,
0x0b,
0xfc,
0x05,
0xf7,
0xfd,
0x00,
0xfe,
0xf9,
0xfa,
0xfe,
0x02,
0xff,
0x0b,
0xfd,
0x09,
0x08,
0xfa,
0x00,
0x07,
0xe8,
0x07,
0x04,
0xf1,
0xfc,
0x16,
0x01,
0xfa,
0x05,
0xf0,
0x1c,
0xf0,
0x13,
0xec,
0xf9,
0xf4,
0xf1,
0x01,
0xff,
0xf8,
0xfd,
0x0f,
0xff,
0xf2,
0xfe,
0xef,
0x0c,
0xfc,
0xfb,
0xfa,
0xfd,
0xf5,
0x01,
0x09,
0x00,
0x08,
0xfc,
0xff,
0xed,
0xf3,
0x03,
0xfd,
0xf2,
0x04,
0x03,
0x02,
0xf8,
0x29,
0xf3,
0x03,
0x0b,
0xf2,
0xf6,
0x13,
0x05,
0x08,
0xf8,
0xf6,
0x04,
0xe9,
0x12,
0xfe,
0x11,
0xf8,
0xfd,
0x0c,
0xfb,
0x05,
0xef,
0xf4,
0xf5,
0xf0,
0xff,
0x08,
0xf1,
0xff,
0x05,
0x04,
0x00,
0x00,
0xf9,
0xf8,
0x08,
0xfc,
0xff,
0x07,
0x0e,
0xf7,
0x0c,
0xed,
0xfe,
0x03,
0xfe,
0xf7,
0x00,
0xf1,
0x02,
0x0d,
0xf9,
0x03,
0xf6,
0xff,
0xfe,
0x01,
0x02,
0xfc,
0x14,
0x02,
0xe4,
0xe5,
0xfc,
0x04,
0xf6,
0x0e,
0x0b,
0x35,
0x09,
0x0f,
0xeb,
0xfd,
0x09,
0x0f,
0xeb,
0x07,
0x0a,
0x08,
0xfa,
0xf1,
0x06,
0x0b,
0xfe,
0xf5,
0x04,
0xf4,
0xf4,
0xf1,
0xf7,
0x05,
0xfc,
0xf8,
0xf9,
0xfd,
0xfe,
0xf7,
0x05,
0x0e,
0x05,
0xfe,
0x04,
0x01,
0x09,
0x0a,
0x0d,
0xf4,
0xf6,
0xf9,
0x0e,
0xfa,
0x05,
0x05,
0x08,
0x02,
0xeb,
0x00,
0xf6,
0xfd,
0x00,
0xf4,
0xf7,
0x05,
0xf0,
0x01,
0xf3,
0x0c,
0x0a,
0x4b,
0xe9,
0xe6,
0xd3,
0xc1,
0xe2,
0x14,
0xe7,
0xde,
0xe4,
0x0c,
0x0d,
0xdc,
0x29,
0xfc,
0x3c,
0xff,
0x07,
0x03,
0xfc,
0xfb,
0xfd,
0x05,
0xf1,
0xf7,
0x02,
0x00,
0x00,
0xff,
0x03,
0xfc,
0xf9,
0x07,
0xef,
0xdd,
0xd2,
0xf0,
0xdf,
0x04,
0xd4,
0xd0,
0xe7,
0xe7,
0x57,
0xcc,
0x1d,
0x13,
0x03,
0xfb,
0xf7,
0x04,
0x17,
0xf8,
0xf6,
0x08,
0x02,
0x1b,
0x06,
0xff,
0x04,
0x00,
0x0f,
0xfa,
0x00,
0xfc,
0xd3,
0xfc,
0x09,
0x13,
0xf6,
0x0e,
0xda,
0xf5,
0x15,
0x0c,
0x02,
0x0d,
0xee,
0xb6,
0xf5,
0x26,
0xe1,
0x1a,
0x01,
0x26,
0xfc,
0x36,
0xfa,
0xfc,
0x14,
0xa6,
0xe7,
0xd4,
0x01,
0xd7,
0x0d,
0xd7,
0xf9,
0xfc,
0xfb,
0xe4,
0x1f,
0xfb,
0x0c,
0x1e,
0x05,
0x11,
0xfa,
0x08,
0x24,
0xf5,
0xf1,
0xf6,
0xf0,
0xed,
0x09,
0x03,
0x05,
0xf0,
0xe2,
0xe7,
0x01,
0xf6,
0xf2,
0x05,
0xf9,
0x12,
0xec,
0x16,
0xf3,
0xf4,
0x04,
0x27,
0x0d,
0x1d,
0x14,
0x0d,
0xe5,
0xd2,
0x16,
0xfa,
0xfc,
0xc6,
0xe6,
0xda,
0xf2,
0x1e,
0xf2,
0x0e,
0x07,
0xf6,
0x0d,
0x0e,
0x0b,
0xf8,
0x08,
0x09,
0xfc,
0x02,
0x12,
0xfa,
0xdf,
0x0b,
0xf6,
0xeb,
0xff,
0x0b,
0x06,
0x06,
0xf6,
0xfc,
0xf6,
0xf8,
0xf9,
0xf0,
0x30,
0x0a,
0xf8,
0xe7,
0x08,
0x0d,
0x03,
0x11,
0x10,
0xf5,
0x03,
0xe8,
0xf6,
0xeb,
0xfa,
0x06,
0xe9,
0xf2,
0xf6,
0x05,
0xeb,
0xed,
0xfa,
0xd9,
0xfc,
0xea,
0xf9,
0xff,
0xf1,
0xfd,
0xfc,
0xfd,
0xf8,
0xf4,
0xf7,
0xe6,
0x06,
0x11,
0x0a,
0x04,
0x05,
0xd3,
0xfe,
0x09,
0x19,
0xfe,
0xe9,
0xf5,
0xf5,
0xf7,
0xdf,
0x21,
0xf7,
0x19,
0xfa,
0xf8,
0x0e,
0xcb,
0x06,
0x02,
0xf8,
0x02,
0xfd,
0xe6,
0x0a,
0x08,
0xf0,
0x0b,
0x05,
0x02,
0xfc,
0x00,
0xe4,
0xfc,
0x07,
0x14,
0xf5,
0x09,
0xf5,
0xf4,
0x03,
0xf1,
0xe1,
0x0d,
0xf5,
0xd5,
0x07,
0xe1,
0xfe,
0xd9,
0x02,
0xd9,
0xd5,
0xef,
0xfd,
0xdf,
0x0d,
0x08,
0xf7,
0xf7,
0x0a,
0x04,
0x33,
0x02,
0x07,
0x06,
0x08,
0x0e,
0x10,
0x08,
0xef,
0xf0,
0x10,
0xe6,
0xec,
0x26,
0xfb,
0xe9,
0x06,
0x02,
0xe9,
0xf4,
0x17,
0xff,
0xd5,
0x09,
0xf2,
0x10,
0xfa,
0xf2,
0x12,
0xdc,
0x0a,
0x01,
0xfa,
0x0c,
0xf9,
0x04,
0x0f,
0xeb,
0x17,
0x05,
0xf4,
0x1b,
0x14,
0xf6,
0xef,
0xf3,
0x10,
0x09,
0xfd,
0xf8,
0x00,
0x00,
0x02,
0xfd,
0xf9,
0x08,
0x01,
0xfa,
0xfe,
0x04,
0xf2,
0x01,
0xfe,
0x01,
0x05,
0xff,
0x0a,
0xff,
0xfe,
0x08,
0x03,
0x0b,
0x0b,
0x0a,
0xfa,
0xfe,
0x05,
0xff,
0xff,
0x02,
0x01,
0xfe,
0xf3,
0xf7,
0xf6,
0xf8,
0xf9,
0xff,
0xec,
0xf1,
0xfa,
0x10,
0xfc,
0x03,
0xeb,
0x17,
0x0c,
0xf8,
0x16,
0x01,
0xfb,
0xef,
0xe8,
0x07,
0xf4,
0xec,
0x01,
0x06,
0x10,
0x05,
0x06,
0xf2,
0xfc,
0xfa,
0x01,
0x06,
0x0b,
0x0b,
0xf8,
0xf4,
0x09,
0xfe,
0x04,
0x01,
0xef,
0x00,
0xf6,
0x06,
0xf8,
0xfb,
0xef,
0x02,
0x07,
0x13,
0x05,
0x05,
0xfd,
0x07,
0x09,
0x4c,
0xd9,
0x2a,
0xcf,
0x21,
0x34,
0xdc,
0x1b,
0xc3,
0xc9,
0xc9,
0xc3,
0x1b,
0xdd,
0xe2,
0xe4,
0x0b,
0xe1,
0x0c,
0x0b,
0xff,
0x0d,
0x08,
0xff,
0x04,
0xf7,
0xfd,
0xe9,
0xf8,
0xf4,
0xf4,
0xfc,
0xfd,
0x08,
0xf7,
0x02,
0xe7,
0x02,
0xff,
0xfb,
0x01,
0xfc,
0xfa,
0x01,
0x03,
0xf4,
0xfc,
0x04,
0xf0,
0xff,
0x07,
0xfc,
0x0d,
0xf9,
0x01,
0x03,
0x03,
0xf6,
0xf9,
0xfb,
0xfd,
0xfb,
0xfa,
0x04,
0x08,
0xf5,
0x02,
0xff,
0x07,
0x06,
0x0a,
0xf2,
0x01,
0xfe,
0xfc,
0xfe,
0xfd,
0x01,
0x04,
0x03,
0x04,
0x00,
0x04,
0x0f,
0xf3,
0x07,
0x02,
0x07,
0x01,
0xfb,
0x05,
0x02,
0xf9,
0xf9,
0xf8,
0xfb,
0xed,
0xfb,
0x18,
0xfe,
0xeb,
0xf0,
0x05,
0x03,
0xfc,
0xfc,
0x06,
0x02,
0x06,
0xfe,
0x01,
0x02,
0x26,
0xe3,
0x22,
0xf1,
0x1d,
0x2f,
0xe2,
0x08,
0xd1,
0xe5,
0xe7,
0xe2,
0x1a,
0xf0,
0xe2,
0xf8,
0xfd,
0xfe,
0xff,
0xf9,
0x0f,
0x02,
0x00,
0x03,
0x07,
0x0b,
0x09,
0x0b,
0x01,
0xf5,
0xf4,
0x04,
0xfe,
0xfe,
0xf0,
0x06,
0x0a,
0xfc,
0xf3,
0xfd,
0xf9,
0x0e,
0xfb,
0x07,
0xfc,
0xfc,
0xfb,
0xf7,
0xfc,
0xf8,
0xed,
0xf0,
0xf4,
0x0d,
0xf2,
0xf2,
0x00,
0x00,
0x02,
0xf2,
0xf4,
0xeb,
0xf7,
0x0d,
0x06,
0x01,
0x0b,
0x00,
0xf9,
0xff,
0xfa,
0xff,
0x03,
0x07,
0xf8,
0xfe,
0xfd,
0xfb,
0x03,
0x02,
0xfd,
0xff,
0xff,
0xf3,
0x07,
0x04,
0x03,
0x00,
0xfa,
0xf8,
0xf9,
0xfc,
0x0a,
0x04,
0x03,
0xf7,
0x01,
0xfb,
0xf6,
0x0b,
0x07,
0xff,
0xfb,
0x0a,
0x03,
0xfb,
0x06,
0x01,
0x01,
0xf9,
0x08,
0xfb,
0x05,
0xfd,
0x11,
0x06,
0xf5,
0xff,
0x14,
0x02,
0x0b,
0x02,
0x07,
0x08,
0x03,
0xf4,
0xff,
0x02,
0xf0,
0x00,
0xee,
0x04,
0x01,
0x01,
0xf1,
0x03,
0xfd,
0xfa,
0xea,
0xff,
0xfd,
0x02,
0xfc,
0xf9,
0xfe,
0x03,
0xf4,
0xe5,
0xf7,
0xfc,
0xfb,
0x02,
0xfd,
0x03,
0x00,
0x07,
0x0d,
0x0a,
0x06,
0xff,
0x11,
0xf1,
0xfe,
0x13,
0x0c,
0x01,
0x27,
0x10,
0x01,
0xfc,
0xf7,
0xfb,
0x01,
0xf7,
0x0a,
0xfd,
0x01,
0x01,
0xf5,
0x00,
0x0b,
0x08,
0x06,
0x05,
0xfe,
0xfc,
0xfe,
0xff,
0xff,
0xfd,
0x01,
0xfa,
0x06,
0xfe,
0xfd,
0xfd,
0x01,
0x08,
0xfc,
0x06,
0xfc,
0xfa,
0xff,
0xff,
0x01,
0x05,
0xfa,
0xfd,
0x00,
0xfd,
0x09,
0xfb,
0x03,
0x06,
0xfc,
0xfd,
0x06,
0x00,
0x0b,
0x00,
0xfe,
0x04,
0x01,
0x02,
0x05,
0xf7,
0xfa,
0xf8,
0x01,
0xff,
0xfc,
0x12,
0x00,
0xfb,
0xfc,
0x02,
0x07,
0x03,
0xfc,
0xfe,
0x06,
0x0d,
0x00,
0x03,
0xfa,
0x0d,
0x06,
0x01,
0xfb,
0x04,
0xfb,
0xf9,
0xfa,
0xfd,
0xf4,
0x02,
0xfe,
0x03,
0xf2,
0xff,
0xfc,
0xff,
0xf8,
0xff,
0x02,
0xfb,
0xf9,
0x03,
0xfb,
0xf1,
0x08,
0xff,
0x0b,
0xf6,
0x02,
0xe6,
0x23,
0x1d,
0xdb,
0x2d,
0xd7,
0xda,
0xef,
0xdf,
0x14,
0xec,
0xf2,
0xed,
0xf9,
0x0e,
0x1b,
0xfe,
0x00,
0x01,
0xe9,
0xf1,
0x06,
0x00,
0x01,
0xf8,
0xf2,
0xf0,
0xfe,
0xfc,
0x0c,
0x0f,
0xfe,
0x0e,
0xfd,
0xf7,
0xf2,
0xfd,
0xf5,
0x03,
0x00,
0x06,
0x02,
0xfd,
0xff,
0xf8,
0xf5,
0xe2,
0x25,
0x02,
0x0b,
0xfa,
0x05,
0x24,
0xf4,
0xf3,
0xf3,
0xfe,
0x1a,
0xf1,
0x12,
0xe9,
0xf8,
0x13,
0xf8,
0x08,
0x0d,
0x15,
0x08,
0x01,
0x06,
0x0b,
0xfb,
0x0d,
0xf6,
0xf8,
0xf0,
0xfb,
0xfd,
0xf8,
0xfd,
0x03,
0xfd,
0x00,
0x05,
0x03,
0xf3,
0xfd,
0x01,
0xf9,
0x05,
0xfe,
0x04,
0xf9,
0x08,
0xfc,
0x04,
0xef,
0x01,
0x1c,
0xfe,
0x17,
0x13,
0x0c,
0xf9,
0xf8,
0x11,
0x00,
0xf8,
0xf7,
0xf5,
0xf7,
0xf2,
0x00,
0x00,
0x0b,
0xee,
0xfb,
0xf5,
0x01,
0x01,
0x02,
0xfa,
0x02,
0xfb,
0x04,
0xf7,
0xf7,
0x00,
0x15,
0x0a,
0x04,
0xf2,
0xfe,
0xeb,
0x0e,
0x00,
0xf5,
0x05,
0x08,
0xf7,
0x04,
0x08,
0xd2,
0x04,
0x1d,
0x0e,
0x04,
0x00,
0x06,
0x00,
0x03,
0x05,
0xf4,
0xea,
0xf5,
0xfe,
0xf8,
0x0e,
0x00,
0xf9,
0x08,
0xe4,
0x07,
0xfa,
0xef,
0xfb,
0xf2,
0xe8,
0x0c,
0x00,
0x0a,
0xfc,
0x03,
0xf4,
0xe7,
0xfd,
0xf0,
0x00,
0xe5,
0xe1,
0xf9,
0xf7,
0xee,
0xfd,
0x00,
0xf8,
0x05,
0x0d,
0xfe,
0x03,
0x03,
0xfd,
0x01,
0x00,
0xea,
0x03,
0xfc,
0x07,
0xf9,
0xf8,
0x00,
0x03,
0x00,
0x04,
0x00,
0xed,
0xeb,
0xfb,
0x0a,
0x03,
0x04,
0x28,
0xfd,
0xfe,
0xff,
0xf6,
0x05,
0x05,
0xf7,
0xfc,
0xfd,
0x24,
0xd9,
0x24,
0xf0,
0x22,
0x20,
0xe6,
0x2b,
0xcd,
0xdf,
0xd6,
0xdb,
0x12,
0xe4,
0xf8,
0xe0,
0xf4,
0xf4,
0x06,
0xfb,
0x00,
0xfd,
0xf0,
0xfc,
0xfe,
0x00,
0xf9,
0x05,
0xfc,
0xf9,
0x01,
0xfa,
0x32,
0xf5,
0x38,
0xdc,
0x19,
0x06,
0xc9,
0x05,
0xc9,
0xe8,
0xf6,
0xea,
0x17,
0xcc,
0xec,
0xe6,
0x02,
0x03,
0x04,
0x00,
0x02,
0x09,
0xf1,
0x05,
0x06,
0xfb,
0xfa,
0x01,
0x0b,
0xfa,
0xf5,
0xf7,
0xe5,
0xeb,
0xf9,
0x10,
0x0e,
0x03,
0xd4,
0x01,
0x0c,
0xfb,
0xec,
0x23,
0xd4,
0xef,
0x01,
0xff,
0x0b,
0xd8,
0xf3,
0x09,
0xfb,
0x09,
0x0e,
0x01,
0x0f,
0xf3,
0xc1,
0xeb,
0xfb,
0xfd,
0xe6,
0xdc,
0x0d,
0x05,
0xf7,
0xf8,
0x05,
0x09,
0xf9,
0xf0,
0x03,
0x16,
0xf1,
0x0b,
0xff,
0x09,
0xfb,
0xf6,
0xf0,
0xf9,
0x0a,
0xe9,
0x0b,
0xf1,
0x0d,
0xe7,
0x16,
0xfb,
0x13,
0x09,
0xfe,
0xdd,
0xfe,
0xe7,
0xfa,
0xf8,
0x19,
0x03,
0x20,
0xfe,
0x27,
0x1d,
0xea,
0xf7,
0xe9,
0xea,
0x02,
0x09,
0xeb,
0xd5,
0xe8,
0x09,
0xf4,
0xf8,
0xef,
0xf3,
0xe9,
0xf8,
0xf6,
0x19,
0xfe,
0x06,
0x03,
0x02,
0x04,
0xf0,
0xe7,
0xf1,
0x03,
0xe0,
0xfd,
0x0b,
0xe1,
0x06,
0x01,
0xf5,
0xf2,
0xf0,
0x05,
0xef,
0x02,
0xd4,
0xf1,
0xf6,
0xf0,
0xe3,
0x05,
0x08,
0x0d,
0xee,
0x1b,
0xe8,
0xde,
0xf7,
0x0e,
0x0e,
0xf4,
0x22,
0xfe,
0x13,
0xf8,
0xf6,
0xfe,
0xd6,
0xed,
0xec,
0xde,
0xf0,
0x18,
0x01,
0xfe,
0xf5,
0x08,
0xfe,
0x06,
0xf1,
0x04,
0x0c,
0x02,
0x0d,
0x03,
0xf8,
0xf6,
0xf8,
0xfd,
0xf3,
0xfb,
0x08,
0xea,
0x1f,
0xff,
0x07,
0x05,
0x10,
0x0d,
0x0b,
0xfe,
0xf4,
0x07,
0x14,
0xfc,
0xee,
0xff,
0xf7,
0xe1,
0x04,
0xd2,
0xf8,
0xfc,
0xcf,
0xef,
0xed,
0xe2,
0x01,
0xfc,
0xcf,
0x0f,
0xd9,
0x13,
0xfd,
0xf2,
0xda,
0x05,
0xc7,
0xec,
0xeb,
0xe4,
0x19,
0xdb,
0xdf,
0xe8,
0xfe,
0x0e,
0x17,
0xfc,
0x09,
0xe8,
0xeb,
0x0c,
0x04,
0x06,
0xfc,
0xf3,
0x03,
0x09,
0x08,
0x13,
0x19,
0x02,
0x04,
0x16,
0xef,
0xf3,
0x09,
0xfd,
0xe1,
0x02,
0xf0,
0xf6,
0xeb,
0xf3,
0xf2,
0xff,
0xf9,
0xe2,
0x0c,
0xff,
0xe5,
0x0f,
0xe6,
0x11,
0xee,
0x13,
0x04,
0x1b,
0xf7,
0xe3,
0xe5,
0x09,
0xf7,
0x00,
0x06,
0x0b,
0x18,
0xfc,
0x17,
0x0b,
0x03,
0x03,
0x09,
0x07,
0xff,
0xee,
0xfd,
0xf3,
0x02,
0xff,
0xfd,
0xf7,
0xfd,
0xfb,
0x05,
0xf4,
0xf8,
0xff,
0x0d,
0x04,
0x06,
0x0c,
0xfb,
0x07,
0x01,
0x00,
0x02,
0x02,
0x04,
0x04,
0x04,
0xf3,
0x03,
0x02,
0xd9,
0x01,
0x00,
0xfe,
0x02,
0xe8,
0xfc,
0xf2,
0x05,
0x03,
0xfd,
0xf0,
0xf9,
0xf7,
0xfe,
0x12,
0x09,
0xf4,
0xf9,
0x03,
0x11,
0x14,
0xfb,
0x0d,
0x00,
0x0d,
0xf5,
0x04,
0x12,
0x00,
0x05,
0xfb,
0x11,
0x07,
0x07,
0x11,
0x02,
0x11,
0xfa,
0x13,
0xf8,
0x05,
0x0b,
0x1b,
0xf8,
0x16,
0x06,
0xfb,
0x0a,
0x0a,
0xfe,
0x04,
0xfe,
0x09,
0x01,
0x0f,
0x01,
0x02,
0x01,
0x02,
0xf8,
0xd0,
0xbf,
0x2a,
0x37,
0xbf,
0xd7,
0xb4,
0x2c,
0x22,
0xe1,
0xd3,
0x20,
0x1c,
0xd6,
0xe4,
0x17,
0x04,
0x00,
0x01,
0x0b,
0x04,
0xec,
0xf9,
0x00,
0x0d,
0x04,
0xf3,
0x0d,
0xf9,
0xff,
0xf6,
0x05,
0xff,
0x01,
0x02,
0x17,
0xfa,
0x04,
0xf6,
0xfd,
0x10,
0xff,
0xfe,
0xfe,
0xfe,
0x06,
0x0d,
0x03,
0x08,
0x05,
0x03,
0xfe,
0x04,
0x06,
0x17,
0xfd,
0x0d,
0xfe,
0xff,
0x0f,
0xfd,
0xf8,
0x00,
0x15,
0x01,
0xfa,
0x03,
0x0b,
0xee,
0xfb,
0x07,
0x00,
0x12,
0x00,
0x05,
0x00,
0xfc,
0xfe,
0x08,
0x02,
0xf7,
0x01,
0x01,
0xf6,
0xf3,
0x02,
0x15,
0xf4,
0xf4,
0xff,
0xfe,
0xfb,
0xfb,
0x02,
0x01,
0x00,
0xf3,
0x07,
0xfd,
0xfa,
0xed,
0x01,
0xfc,
0x01,
0x14,
0x03,
0x03,
0xf7,
0xff,
0xfd,
0x0b,
0x0e,
0xe1,
0xe7,
0x15,
0x2f,
0xe4,
0xd8,
0xcf,
0x1f,
0x13,
0xe3,
0xf3,
0x33,
0x15,
0xe2,
0xeb,
0x13,
0xf0,
0x02,
0x05,
0xf5,
0xfb,
0xff,
0x1f,
0x0b,
0xf9,
0xfe,
0xfb,
0xf7,
0x04,
0x0a,
0xfe,
0x0f,
0x0e,
0x05,
0xfc,
0x0d,
0x19,
0xf1,
0xfe,
0x0e,
0x06,
0xfa,
0x07,
0xfc,
0x08,
0x06,
0x00,
0xfe,
0x11,
0x02,
0x03,
0xf3,
0x09,
0xfc,
0xf8,
0xfd,
0xf6,
0x00,
0x07,
0x04,
0xfe,
0xfb,
0xfe,
0xf2,
0xff,
0x00,
0x04,
0xf1,
0xfb,
0x05,
0x19,
0xfd,
0x04,
0x00,
0xff,
0xf6,
0xfe,
0xf9,
0x04,
0x05,
0xff,
0x01,
0xfa,
0xf5,
0xfd,
0xfc,
0xf5,
0x05,
0xff,
0x03,
0xff,
0x03,
0x00,
0xfb,
0x01,
0x02,
0xf4,
0x03,
0xfa,
0x19,
0xf5,
0x08,
0x02,
0x08,
0xf6,
0xfd,
0xf4,
0x00,
0x0b,
0x08,
0x0a,
0xfa,
0xf3,
0x04,
0xfb,
0x0a,
0xf1,
0x01,
0xf9,
0x0b,
0xed,
0xf9,
0x00,
0xfc,
0x02,
0x03,
0xff,
0xef,
0xec,
0xfd,
0x05,
0xe8,
0xf0,
0x03,
0x10,
0xfe,
0x0d,
0x05,
0x12,
0x03,
0xfe,
0xff,
0xfe,
0x12,
0xfd,
0x02,
0xff,
0xf6,
0xfc,
0xfa,
0xfa,
0x03,
0xff,
0x02,
0x00,
0x05,
0x04,
0x04,
0xf7,
0xff,
0xf4,
0x0d,
0x06,
0xfa,
0xfd,
0xfc,
0x1e,
0xfb,
0xed,
0xf2,
0xfc,
0xf6,
0xfb,
0xf8,
0x02,
0xfe,
0x03,
0xfe,
0xfa,
0x11,
0xfd,
0xff,
0x06,
0x00,
0x03,
0xfc,
0xff,
0xff,
0xfa,
0xfe,
0x03,
0x05,
0xfd,
0xf9,
0x07,
0xf3,
0x00,
0xf5,
0xf9,
0x02,
0x00,
0x01,
0x07,
0x04,
0x05,
0x05,
0xff,
0x0f,
0xfe,
0x05,
0x05,
0xee,
0xff,
0xfe,
0x00,
0x01,
0xfe,
0xfc,
0xfe,
0xff,
0x04,
0x07,
0x02,
0x00,
0x0d,
0x07,
0xf5,
0xfd,
0x0d,
0x05,
0x0d,
0xff,
0x00,
0xff,
0xf6,
0x01,
0x04,
0x02,
0xfe,
0xef,
0x09,
0xfd,
0x00,
0xf7,
0x04,
0x04,
0xf7,
0xfc,
0x00,
0x02,
0xfe,
0xff,
0xff,
0x00,
0x0c,
0xf8,
0xff,
0x00,
0xf5,
0x01,
0xf7,
0xfd,
0xfd,
0xfe,
0x0f,
0x02,
0xff,
0x03,
0x04,
0x04,
0x07,
0x08,
0xf1,
0xde,
0x14,
0x1f,
0xe8,
0xe2,
0xcc,
0x20,
0x0f,
0xe6,
0xf3,
0x0d,
0x14,
0xe3,
0x00,
0x13,
0xe7,
0xfa,
0xfd,
0xe4,
0x05,
0x07,
0xfa,
0xfe,
0x03,
0x04,
0xfc,
0x08,
0x01,
0xff,
0xf4,
0x04,
0xf7,
0xfa,
0xfd,
0xe9,
0x02,
0x02,
0xef,
0x07,
0xf7,
0xfd,
0x0a,
0xfc,
0x02,
0x02,
0xf2,
0xf9,
0xef,
0xec,
0x08,
0x0b,
0xf6,
0x07,
0x0a,
0x05,
0x14,
0xf5,
0x05,
0x0b,
0x0e,
0xf8,
0xf1,
0x06,
0x0a,
0xfb,
0x01,
0x07,
0xf6,
0x08,
0xff,
0xfd,
0xfb,
0xfe,
0x0b,
0xf7,
0xff,
0x10,
0x09,
0x01,
0xfd,
0xfa,
0xfe,
0xff,
0x06,
0xfc,
0x00,
0x01,
0xfd,
0x04,
0x03,
0xfd,
0xfd,
0xfe,
0xf4,
0xf1,
0xf8,
0xfe,
0x0a,
0xf3,
0x03,
0xff,
0xf8,
0x18,
0x0b,
0xf3,
0xf8,
0x14,
0x15,
0xfd,
0xff,
0x0e,
0x03,
0xfe,
0x0c,
0xfe,
0xfd,
0xfa,
0xee,
0xf9,
0xf3,
0xfa,
0xf6,
0xf6,
0xfe,
0x05,
0xf5,
0xff,
0xeb,
0x0e,
0x08,
0x03,
0x05,
0x12,
0xfb,
0xfd,
0x01,
0xf6,
0x0a,
0xfa,
0xf5,
0xfe,
0x04,
0x08,
0x01,
0x0b,
0x07,
0x11,
0x06,
0xe9,
0x17,
0xfa,
0x05,
0xfb,
0x03,
0xf9,
0xf2,
0xfb,
0xe9,
0x10,
0x00,
0xf1,
0x08,
0x03,
0xfb,
0x02,
0x13,
0xfe,
0xfe,
0x02,
0x00,
0xf6,
0x09,
0x02,
0xf7,
0xfe,
0xff,
0x06,
0xfe,
0x05,
0x04,
0xf2,
0x02,
0xf3,
0xfc,
0xfb,
0xf8,
0xfb,
0xfd,
0xe7,
0x02,
0xea,
0x09,
0x00,
0xfd,
0x05,
0xfe,
0x01,
0x05,
0x04,
0x03,
0x0a,
0x01,
0xf7,
0xf9,
0xf9,
0x00,
0xfe,
0xf8,
0xf5,
0x07,
0xf6,
0xdf,
0x06,
0x0c,
0xf6,
0x01,
0xfa,
0x07,
0xf8,
0x04,
0x01,
0x08,
0xec,
0xf5,
0x02,
0x17,
0x13,
0xf4,
0xe8,
0x04,
0x25,
0x24,
0xe3,
0xcd,
0x2a,
0x19,
0xde,
0xe4,
0x40,
0xf8,
0xfd,
0x06,
0x00,
0x0a,
0x01,
0x07,
0xfd,
0xfd,
0x01,
0xf8,
0x03,
0xfe,
0xfb,
0xf9,
0x07,
0xe5,
0xe5,
0x1a,
0x1b,
0xe5,
0xdb,
0xed,
0x17,
0x20,
0xdc,
0xdf,
0x27,
0x17,
0xe9,
0xf8,
0xf9,
0x05,
0xf4,
0xf4,
0xfd,
0x06,
0x0a,
0xfe,
0x09,
0x03,
0xfe,
0xfc,
0xff,
0x11,
0xf9,
0x05,
0xfa,
0xef,
0xeb,
0xf1,
0x17,
0x07,
0xeb,
0x10,
0x00,
0xe8,
0x0c,
0xfb,
0x0f,
0xe8,
0xfc,
0x05,
0xe0,
0xe5,
0xf2,
0x14,
0x0f,
0xff,
0x15,
0x0c,
0x0a,
0x16,
0xf5,
0xf7,
0xfc,
0x04,
0x06,
0xf4,
0x14,
0xf7,
0x18,
0xfe,
0xf7,
0xe8,
0xfa,
0xef,
0xf4,
0x08,
0xf5,
0xe9,
0xda,
0xcd,
0xdd,
0xc4,
0xf6,
0xe2,
0xf9,
0xf6,
0x12,
0xc0,
0xfe,
0xfd,
0xfe,
0x16,
0xef,
0xfe,
0x0a,
0x01,
0xfd,
0xf8,
0xd7,
0x16,
0xeb,
0xed,
0x2f,
0xdc,
0xe8,
0x1d,
0xff,
0x20,
0xd7,
0x13,
0xde,
0x07,
0x16,
0xe4,
0x09,
0xf8,
0xf7,
0xf2,
0x03,
0xf9,
0x0c,
0x14,
0x05,
0x0d,
0xf5,
0xed,
0x02,
0xfd,
0xfb,
0xf9,
0x07,
0xe6,
0xf6,
0x26,
0x12,
0x0a,
0x01,
0x1e,
0x02,
0x18,
0x0f,
0xda,
0xf8,
0x02,
0xfc,
0xf5,
0x15,
0xe0,
0xff,
0xf1,
0xee,
0xde,
0xff,
0x2c,
0x0b,
0x13,
0xf2,
0x00,
0xf8,
0x03,
0x07,
0xf8,
0xe2,
0xfa,
0xfb,
0xf4,
0xf2,
0x1a,
0x00,
0xdf,
0xf8,
0xd2,
0xfb,
0xf9,
0x06,
0xef,
0xf1,
0xe6,
0xf2,
0x07,
0x04,
0xf9,
0x11,
0xfe,
0x08,
0x01,
0x4c,
0x0b,
0x09,
0x09,
0xfa,
0x0c,
0xe5,
0x0b,
0x0a,
0xf7,
0xff,
0xff,
0x12,
0xf7,
0x12,
0x16,
0xde,
0x09,
0xff,
0x05,
0xf4,
0x07,
0x21,
0x08,
0x0a,
0xfa,
0xef,
0x11,
0x08,
0xf6,
0xea,
0x12,
0xfd,
0xf1,
0xed,
0xfe,
0x08,
0xf4,
0xe7,
0x00,
0xf3,
0xec,
0x1c,
0xfb,
0xe0,
0xfd,
0xee,
0xd7,
0x03,
0xfe,
0x14,
0x0c,
0xfb,
0x18,
0xfa,
0xf7,
0xd6,
0x04,
0xf8,
0xf6,
0xf3,
0x01,
0xe1,
0x11,
0xe7,
0xfd,
0xff,
0x01,
0x0b,
0xf5,
0x1c,
0xf0,
0xfa,
0xe4,
0x0d,
0xfd,
0xf0,
0xf3,
0x06,
0xf9,
0xf6,
0xf5,
0x0d,
0x04,
0x01,
0xfb,
0xfc,
0x00,
0xe1,
0xd8,
0x19,
0xfe,
0x0d,
0x02,
0x0b,
0xf3,
0xfe,
0xce,
0xf8,
0xd4,
0xeb,
0xfe,
0x07,
0xfe,
0x00,
0x0a,
0x00,
0x07,
0x05,
0x11,
0x13,
0x1d,
0x26,
0x0b,
0xfc,
0x04,
0x06,
0x21,
0x29,
0x3c,
0x0c,
0x07,
0x37,
0xf9,
0x25,
0xf9,
0x15,
0x0b,
0x37,
0x0e,
0x2b,
0x15,
0x29,
0x10,
0x26,
0x4c,
0x06};
