/* SPDX-License-Identifier: GPL-2.0 */
/*
 * Copyright (c) 2022 MediaTek Inc.
 *
 * Author: Ming-Hsuan Chiang <ming-hsuan.chiang@mediatek.com>
 *
 */

char fdvt_kernel_bias_loop41_1_frame01_7sp[] = {
0x0d,
0x02,
0x0f,
0xf3,
0x13,
0xfb,
0x01,
0xed,
0x15,
0x03,
0xea,
0x06,
0x10,
0xfb,
0x06,
0xfb,
0x08,
0xf5,
0xfb,
0x0b,
0x0b,
0xf4,
0x02,
0x10,
0xf6,
0x06,
0x07,
0xfe,
0x00,
0xf2,
0x0e,
0xf5,
0xf0,
0xf2,
0xf4,
0x01,
0x00,
0xff,
0xe9,
0x00,
0x04,
0xff,
0x15,
0x08,
0x14,
0x19,
0x09,
0x0b,
0xee,
0xfd,
0xfb,
0x0a,
0xf8,
0xd4,
0x08,
0x00,
0xf4,
0x02,
0xff,
0xfb,
0xfc,
0x50,
0x05,
0xf0,
0x10,
0x07,
0x06,
0xef,
0xf3,
0xf9,
0xfa,
0xfd,
0x23,
0xff,
0xf7,
0xf7,
0xf6,
0xf0,
0x0c,
0xf6,
0xff,
0xf2,
0x0b,
0x00,
0xf4,
0x0a,
0x10,
0x12,
0x0c,
0x13,
0xf9,
0x10,
0xf6,
0x1a,
0xf5,
0xf8,
0xf4,
0xfd,
0xef,
0xf6,
0x19,
0x0a,
0xf4,
0x10,
0xfa,
0xfc,
0xfd,
0xf3,
0x07,
0xff,
0xfe,
0xf9,
0x16,
0x02,
0xec,
0x06,
0xf5,
0x00,
0xfc,
0x07,
0x0b,
0x03,
0x1b,
0xfe,
0x0c,
0x11,
0xf7,
0x00,
0xfd,
0x08,
0xf6,
0xf0,
0xef,
0x03,
0x0b,
0xf6,
0xf5,
0x05,
0xee,
0xf7,
0x0a,
0x05,
0x08,
0xfa,
0xf3,
0x0d,
0x00,
0x03,
0x01,
0xf4,
0xf9,
0xfd,
0x01,
0x00,
0xf2,
0x06,
0xfd,
0x12,
0x04,
0xf3,
0x08,
0xff,
0x09,
0xf9,
0xee,
0xeb,
0xf8,
0x1a,
0x06,
0x06,
0xfb,
0x08,
0xf7,
0x00,
0x05,
0x11,
0x05,
0xfa,
0xfe,
0xe8,
0xef,
0xff,
0x14,
0x06,
0xf9,
0xee,
0xea,
0x00,
0xe5,
0xf4,
0xfc,
0x10,
0x15,
0x06,
0xfe,
0x08,
0x10,
0x06,
0x09,
0xf7,
0xf3,
0xff,
0xf6,
0x14,
0xf5,
0x07,
0xfa,
0xef,
0x0e,
0xfa,
0x00,
0x04,
0xef,
0x12,
0xec,
0xf2,
0xfe,
0x14,
0x02,
0xfa,
0xf2,
0x08,
0x05,
0xf8,
0x08,
0xf7,
0xf5,
0xee,
0x0e,
0xf7,
0x05,
0xff,
0x01,
0x0e,
0x00,
0x02,
0x00,
0x02,
0x00,
0xfc,
0xf8,
0xff,
0x0f,
0x03,
0xef,
0xf7,
0xf6,
0x25,
0x04,
0x0d,
0xf3,
0xed,
0x00,
0x61,
0xfd,
0xd4,
0xf8,
0x06,
0xf3,
0x0e,
0xf3,
0xfe,
0xf4,
0xed,
0xf8,
0x12,
0x11,
0x03,
0x0a,
0x07,
0x0e,
0x02,
0xfd,
0xed,
0x0e,
0xfc,
0x0d,
0x1d,
0xf8,
0xff,
0xf5,
0xef,
0xf4,
0x03,
0xff,
0xff,
0xf9,
0x15,
0x04,
0xf8,
0xff,
0x12,
0x05,
0x01,
0x04,
0xf6,
0xf0,
0xfc,
0x08,
0x02,
0x07,
0x03,
0xfe,
0x05,
0xf6,
0x02,
0x01,
0x0d,
0x15,
0x12,
0x01,
0xf8,
0x01,
0x08,
0xf4,
0x0f,
0x08,
0x0d,
0x04,
0xfa,
0xfd,
0x01,
0xef,
0xe1,
0xf9,
0xf0,
0x0b,
0xff,
0xe1,
0xfe,
0xfa,
0xe0,
0x0b,
0xef,
0xf6,
0x02,
0xfb,
0xfa,
0xf0,
0x0f,
0xf7,
0x00,
0x09,
0xde,
0xfe,
0x01,
0xeb,
0xfd,
0x04,
0xd2,
0x00,
0x05,
0xf6,
0x03,
0x08,
0x0a,
0xf8,
0x05,
0xfd,
0xfb,
0x0e,
0xf3,
0x05,
0xf1,
0xf3,
0x14,
0xf9,
0xf9,
0x03,
0x0e,
0xfd,
0x01,
0x09,
0x05,
0xf4,
0x07,
0xfd,
0xf3,
0x12,
0x03,
0xf8,
0x05,
0xfe,
0xfe,
0x0c,
0x02,
0x02,
0xf1,
0xfb,
0x00,
0x1b,
0x20,
0xf2,
0x01,
0x16,
0xf8,
0xf3,
0x16,
0x02,
0xec,
0xf9,
0x01,
0x05,
0x27,
0xf5,
0x01,
0xf1,
0x0a,
0x03,
0x04,
0x03,
0x03,
0x01,
0x0f,
0x04,
0x0b,
0x07,
0x02,
0xf6,
0x06,
0x1a,
0x0a,
0x0a,
0xfd,
0x14,
0xe4,
0xf9,
0xec,
0xf9,
0x09,
0xff,
0x05,
0x12,
0xf4,
0xf5,
0xf0,
0x01,
0xfe,
0x08,
0xf5,
0x07,
0xf6,
0xf5,
0x07,
0x0e,
0x02,
0xfe,
0x02,
0x09,
0x09,
0xf7,
0xf6,
0xf9,
0x0a,
0xfe,
0xff,
0x00,
0xee,
0xf7,
0x00,
0xff,
0x0d,
0x08,
0x0b,
0xfb,
0x07,
0xe7,
0x04,
0xfd,
0x0f,
0x03,
0x0a,
0x00,
0x06,
0x03,
0xf3,
0x02,
0xf6,
0xfd,
0xf8,
0xfe,
0x0a,
0x09,
0x02,
0xf9,
0xfe,
0xff,
0xef,
0xf1,
0x0f,
0xf2,
0xfe,
0xf7,
0x0f,
0xfd,
0x08,
0x02,
0x12,
0x01,
0x01,
0x05,
0x14,
0xfa,
0xf7,
0x0b,
0x03,
0x04,
0x00,
0xfa,
0x13,
0xfd,
0x02,
0xee,
0xf0,
0xff,
0x1c,
0xf5,
0x0d,
0x08,
0x06,
0x0b,
0xec,
0x0d,
0xe5,
0x0d,
0xfa,
0x08,
0xfe,
0x03,
0x14,
0x10,
0xf0,
0xf5,
0x0c,
0x14,
0xe8,
0xf6,
0x04,
0x0e,
0xfd,
0xf6,
0xf5,
0x00,
0xfb,
0xfb,
0x07,
0x07,
0x08,
0xfc,
0x0a,
0x01,
0xfc,
0xfa,
0xfa,
0x05,
0xf5,
0xfc,
0x10,
0x0c,
0xf3,
0xef,
0x10,
0x0d,
0x05,
0xfe,
0x35,
0xf6,
0xfe,
0xf4,
0xf1,
0x10,
0x1e,
0xfb,
0x17,
0x02,
0xee,
0x00,
0x0a,
0x02,
0x02,
0xff,
0xf0,
0xed,
0xf9,
0xfe,
0x16,
0x0e,
0xef,
0x16,
0x16,
0x07,
0x0c,
0xf8,
0xf9,
0xfb,
0x14,
0xf2,
0x12,
0x08,
0xfa,
0xf9,
0xf8,
0x04,
0xf6,
0x0c,
0x01,
0x1b,
0x0c,
0xff,
0x05,
0xf7,
0xf5,
0x0f,
0x06,
0x16,
0xfc,
0x04,
0xfe,
0xf6,
0x0c,
0x02,
0x04,
0x05,
0x06,
0x0e,
0xf1,
0x0b,
0x06,
0xf3,
0x03,
0xfa,
0x01,
0xf0,
0x00,
0x09,
0x0e,
0x02,
0xfe,
0x00,
0xf8,
0xec,
0x0b,
0x03,
0x05,
0xfe,
0xf5,
0xfc,
0x06,
0x0c,
0xfd,
0xf3,
0xf0,
0xf1,
0xf9,
0xf5,
0x03,
0x06,
0xee,
0x13,
0x17,
0xff,
0x06,
0xf8,
0x04,
0x07,
0x0c,
0x0a,
0xf7,
0x06,
0xff,
0xf9,
0x01,
0xfe,
0xfe,
0x03,
0xf9,
0x06,
0x07,
0xfd,
0xf1,
0x0a,
0xf7,
0xee,
0x18,
0x05,
0xfb,
0xff,
0x06,
0x06,
0x0e,
0x02,
0x26,
0xee,
0x07,
0xfd,
0xf8,
0x0e,
0x04,
0xf9,
0xe8,
0xf5,
0x14,
0xf9,
0xfe,
0x0e,
0x18,
0x04,
0x25,
0xfb,
0xf0,
0xfd,
0x07,
0x01,
0xfc,
0x03,
0xfc,
0x15,
0xf1,
0x11,
0x0f,
0xf3,
0x06,
0x04,
0xff,
0xfb,
0x1a,
0x06,
0xff,
0x0d,
0xf4,
0x0e,
0xf9,
0x0e,
0xff,
0xe4,
0xff,
0x00,
0xf7,
0x05,
0x01,
0xfd,
0xff,
0xe8,
0xfc,
0x0a,
0xfe,
0x03,
0x19,
0xe5,
0x02,
0x08,
0x0b,
0x04,
0xf8,
0xf3,
0xef,
0xda,
0x16,
0x09,
0x1b,
0x03,
0x0a,
0x06,
0x54,
0x10,
0x0e,
0x09,
0xd5,
0x05,
0xff,
0xea,
0x0c,
0xfc,
0xec,
0xfd,
0xf5,
0xfa,
0xe9,
0x28,
0xf7,
0xe7,
0x0d,
0xff,
0xf1,
0xec,
0xfd,
0x08,
0x03,
0xf2,
0xfa,
0xfc,
0xfd,
0xf9,
0xfe,
0x04,
0x22,
0x0f,
0xfa,
0x02,
0xf5,
0xf4,
0x0b,
0x04,
0x07,
0x0e,
0xfe,
0x01,
0x02,
0x0b,
0x2f,
0x0d,
0xf8,
0x06,
0xff,
0xfd,
0x04,
0x14,
0xf7,
0xff,
0x0a,
0xf9,
0xf8,
0x06,
0x0a,
0x01,
0xfa,
0x05,
0x03,
0xe4,
0x11,
0xf2,
0x14,
0xf1,
0x03,
0xf3,
0x02,
0xf1,
0xf7,
0xe7,
0xea,
0x01,
0xf9,
0xf4,
0xf4,
0x03,
0x0c,
0xf1,
0x02,
0xf5,
0xfb,
0x03,
0x18,
0xfe,
0xd7,
0xe8,
0xe8,
0xff,
0xfc,
0xe7,
0xe8,
0xf2,
0xed,
0x04,
0x00,
0xf6,
0x01,
0xf5,
0x00,
0xff,
0x06,
0x10,
0x03,
0xf9,
0x06,
0x00,
0x0f,
0xf5,
0xf7,
0x00,
0x2d,
0x01,
0xf3,
0x0f,
0x07,
0xfe,
0x15,
0xf8,
0x11,
0xf4,
0x0d,
0xf7,
0x03,
0xf8,
0x20,
0x01,
0xf6,
0xf5,
0x02,
0xf1,
0x13,
0xf8,
0xef,
0x17,
0xfb,
0x06,
0x00,
0x09,
0x0d,
0xf4,
0xee,
0xf8,
0x0f,
0x08,
0x0c,
0xf9,
0x0e,
0xf2,
0x10,
0xf7,
0x0c,
0xf7,
0x03,
0xff,
0xff,
0x04,
0x06,
0x08,
0x0c,
0xfa,
0x0f,
0x0d,
0x0a,
0xf5,
0x07,
0xf4,
0x00,
0xfe,
0xfd,
0xf0,
0xfe,
0xed,
0xfb,
0x1e,
0x05,
0x13,
0x04,
0xfa,
0x07,
0x06,
0xfa,
0x03,
0x0e,
0xf7,
0xff,
0x0a,
0xfc,
0x16,
0x05,
0x05,
0x05,
0x02,
0x04,
0xe4,
0xf7,
0xfe,
0x2f,
0xfa,
0xf6,
0x0e,
0x01,
0x08,
0x02,
0x05,
0xef,
0x06,
0x0c,
0xea,
0x05,
0x01,
0xf7,
0xf3,
0xed,
0xf2,
0x11,
0x0b,
0x05,
0x0d,
0xf2,
0xfb,
0x0e,
0x03,
0x0e,
0x07,
0xf5,
0xf8,
0x13,
0xee,
0x09,
0xfd,
0x0b,
0x09,
0x02,
0xfb,
0xfc,
0x01,
0xfa,
0x01,
0x00,
0x0c,
0x02,
0x04,
0x02,
0xff,
0xfb,
0x0d,
0xf8,
0x05,
0x08,
0x04,
0xf6,
0xf7,
0xf2,
0xf7,
0xf5,
0x31,
0x19,
0x26,
0xf6,
0x22,
0xed,
0xfd,
0x0d,
0x19,
0x0a,
0xff,
0x18,
0x40,
0x0d,
0xf1,
0x08};
