/* SPDX-License-Identifier: GPL-2.0 */
/*
 * Copyright (c) 2022 MediaTek Inc.
 *
 * Author: Ming-Hsuan Chiang <ming-hsuan.chiang@mediatek.com>
 *
 */

char fdvt_kernel_bias_loop56_0_frame01_7sp[] = {
0xbf,
0x02,
0xee,
0xfa,
0xf7,
0xf1,
0xeb,
0xf1,
0xfc,
0xff,
0xf8,
0x00,
0xf6,
0x02,
0xee,
0xe5,
0xc9,
0xee,
0xf3,
0xff,
0xf7,
0x06,
0x0f,
0xf1,
0xe0,
0xec,
0xf6,
0xfa,
0xfa,
0x08,
0x08,
0xf3,
0x17,
0x00,
0x05,
0xfe,
0xfe,
0xf6,
0xea,
0xf5,
0xe2,
0xfc,
0x06,
0xfb,
0xfd,
0xfb,
0xea,
0xef,
0x0e,
0xf2,
0xf8,
0xe1,
0xfc,
0xfb,
0x03,
0x06,
0x06,
0xf3,
0xfc,
0xdf,
0xfe,
0xfa,
0x0d,
0x01,
0x3b,
0x13,
0xfe,
0xfe,
0xee,
0xf2,
0xfd,
0xeb,
0x28,
0x16,
0x05,
0xf7,
0xed,
0xe8,
0xfe,
0xdc,
0x0f,
0x27,
0x00,
0x09,
0xd4,
0xd8,
0xef,
0xdf,
0x1a,
0x24,
0xfa,
0x0b,
0xcf,
0xdb,
0xeb,
0xe8,
0xf5,
0xf9,
0xfc,
0x01,
0xf0,
0x00,
0x00,
0xf5,
0xe2,
0xf3,
0xf8,
0xee,
0xf9,
0x12,
0x0a,
0xf1,
0xe4,
0xf3,
0x03,
0xf0,
0xe9,
0x04,
0xfb,
0xf9,
0xd0,
0xf7,
0xff,
0xf6,
0xf1,
0x05,
0xf6,
0xfd,
0xf1,
0xe4,
0x04,
0xfd,
0xe0,
0x20,
0x11,
0xdb,
0xf0,
0xdb,
0xfe,
0xf5,
0xdf,
0x22,
0x16,
0xe5,
0x0f,
0xf0,
0xf7,
0xf3,
0xf7,
0xff,
0x0c,
0xec,
0x1e,
0xf7,
0xfc,
0xe5,
0xfa,
0x03,
0x0a,
0xee,
0x09,
0xed,
0xef,
0xee,
0x03,
0xfa,
0x15,
0x1b,
0x05,
0xec,
0xee,
0xf1,
0x0a,
0xf7,
0x21,
0x11,
0xf1,
0xfd,
0xf2,
0xfa,
0x00,
0xf8,
0xff,
0xff,
0xe7,
0x05,
0xf6,
0xfe,
0xf2,
0xfe,
0xf6,
0x0b,
0xdd,
0x00,
0xe3,
0xf3,
0xf5,
0xdc,
0xe6,
0xf7,
0xe0,
0xfa,
0xdc,
0xf0,
0xf8,
0xdd,
0xec,
0xf0,
0xff,
0xfb,
0xfc,
0x03,
0x01,
0xfd,
0xfb,
0xfe,
0x00,
0xfd,
0xfa,
0x01,
0x02,
0xfd,
0xfc,
0xfe,
0xe5,
0x06,
0x02,
0xff,
0x24,
0xe8,
0xf2,
0xdf,
0xe3,
0x00,
0x04,
0xff,
0x1e,
0xe8,
0x07,
0xd6,
0xc0,
0xdf,
0xf9,
0xdd,
0xd8,
0xea,
0xdd,
0xe4,
0xc0,
0xe2,
0xfe,
0xe3,
0xd7,
0xec,
0xe1,
0xec,
0x0b,
0x06,
0xfd,
0xf3,
0xf8,
0xeb,
0x10,
0xf3,
0xc9,
0xfd,
0x06,
0xe6,
0xf8,
0xf5,
0x10,
0xe5,
0x10,
0xfd,
0x0b,
0x03,
0xee,
0xf0,
0x0d,
0xf1,
0x07,
0xfc,
0x04,
0x03,
0xea,
0xfd,
0x0b,
0xed,
0x10,
0xf5,
0xf6,
0xe9,
0x00,
0xec,
0xed,
0x2a,
0xbe,
0xf9,
0xf6,
0xec,
0xff,
0xea,
0xf7,
0x19,
0x10,
0x04,
0x00,
0xf1,
0xf5,
0xf5,
0xf7,
0x02,
0xfe,
0x03,
0x04,
0xf3,
0xf7,
0xe7,
0xfc,
0xfd,
0xe8,
0x05,
0xff,
0x03,
0xfc,
0x03,
0xf1,
0xf8,
0x09,
0x0c,
0x03,
0xfa,
0x00,
0xfc,
0xf6,
0xf9,
0x0c,
0xfa,
0xfe,
0xf7,
0xff,
0xfd,
0xf5,
0x03,
0x0d,
0xf8,
0xfd,
0xf9,
0xfb,
0xfe,
0xee,
0x09,
0xf1,
0x28,
0x03,
0x12,
0xd4,
0xea,
0xdb,
0xdf,
0xf2,
0x27,
0x04,
0x13,
0xd6,
0xed,
0xd7,
0xde,
0xf0,
0xf6,
0xf8,
0xe2,
0xed,
0xd9,
0xf7,
0xd0,
0xe6,
0xf8,
0xfa,
0xe7,
0xe6,
0xe2,
0xf7,
0xd0,
0xe7,
0xf1,
0xee,
0xe4,
0xe6,
0xde,
0x03,
0xd9,
0xdd,
0xf8,
0xe9,
0xe7,
0xec,
0xe1,
0xfc,
0xd6,
0xdb,
0xf6,
0xf9,
0xfe,
0x05,
0xf7,
0xe3,
0x19,
0xe3,
0xed,
0xf0,
0x10,
0xff,
0xfa,
0xee,
0x02,
0xf5,
0xf7,
0x00,
0xf3,
0xff,
0xf3,
0x08,
0xf1,
0xd8,
0xee,
0xf8,
0xec,
0xf7,
0xdd,
0x01,
0xf0,
0x19,
0xf2,
0xfd,
0xfd,
0x03,
0xfe,
0x03,
0xee,
0xd6,
0xf8,
0xfe,
0x03,
0xfb,
0x00,
0xfe,
0xea,
0xe1,
0x0d,
0xf8,
0x03,
0xea,
0xf4,
0xf2,
0xf6,
0x25,
0x12,
0xfa,
0x01,
0xec,
0xee,
0xf3,
0xf2,
0xdf,
0xf4,
0xf7,
0xf3,
0x0c,
0xef,
0xf1,
0x0b,
0x02,
0xf9,
0xf7,
0xef,
0x0c,
0xef,
0xfb,
0x0a,
0x06,
0xb0,
0x68,
0x90,
0x22,
0xdc,
0x98,
0x94,
0x08,
0xb8,
0x6d,
0x9c,
0x29,
0xe5,
0x9c,
0x94,
0x26,
0xb4,
0xd8,
0xcd,
0x14,
0xfc,
0x37,
0x23,
0x24,
0xbd,
0xdc,
0xc8,
0x14,
0x01,
0x39,
0x27,
0xe5,
0xff,
0xef,
0xff,
0xf8,
0xfb,
0xdf,
0xef,
0x01,
0x06,
0xe9,
0x07,
0xea,
0x03,
0xf5,
0xf0,
0x0c,
0xec,
0xfb,
0xf4,
0xfd,
0x07,
0x0b,
0xf3,
0x08,
0xe9,
0xf5,
0x05,
0xfd,
0x06,
0x08,
0xef,
0x1b,
0xfe,
0x0a,
0xfd,
0x05,
0xf5,
0xe7,
0xf0,
0xe4,
0xfd,
0x08,
0xfa,
0x08,
0xf2,
0xe6,
0xf6,
0x13,
0xf3,
0xf8,
0xe5,
0xf9,
0x01,
0x0a,
0xfe,
0x0c,
0xf3,
0xf9,
0xe3,
0xfa,
0x05,
0x0e,
0xff,
0x1f,
0x19,
0xfe,
0x01,
0xe4,
0xea,
0xf9,
0xe3,
0x10,
0x1a,
0x01,
0xf8,
0xea,
0xe3,
0xff,
0xdd,
0x0d,
0x23,
0x06,
0x02,
0xdf,
0xd0,
0xec,
0xdd,
0x0b,
0x24,
0xfe,
0x0c,
0xd1,
0xe5,
0xe8,
0xee,
0xf9,
0xfa,
0xf9,
0x03,
0xfc,
0x01,
0xfa,
0xf9,
0xf7,
0xf8,
0xff,
0xf0,
0x08,
0x0b,
0xff,
0xec,
0xe0,
0xed,
0x02,
0xee,
0xdc,
0xfe,
0xe6,
0xf3,
0xdc,
0xf5,
0x03,
0xf9,
0xea,
0x03,
0xf8,
0xf9,
0x03,
0xe5,
0x00,
0xf4,
0xe3,
0x1e,
0x11,
0xf4,
0xf2,
0xdc,
0xf8,
0xf0,
0xe3,
0x1e,
0x1c,
0xf8,
0xfd,
0xf0,
0x04,
0xf8,
0xf8,
0x04,
0x07,
0xe2,
0x04,
0xf3,
0xff,
0xe5,
0xf8,
0x0d,
0x03,
0xe6,
0xcf,
0xf8,
0xf2,
0xe7,
0xfa,
0xf1,
0xfb,
0xfd,
0xe1,
0xf5,
0xfd,
0xfd,
0xfc,
0xf6,
0x0f,
0xfa,
0xf2,
0xfc,
0xf1,
0xfa,
0xf1,
0xfe,
0x0b,
0x0c,
0xe8,
0x04,
0xf5,
0xfa,
0xf5,
0x02,
0xf7,
0x09,
0xe1,
0x08,
0xd9,
0x08,
0xec,
0xe5,
0xdc,
0xfe,
0xe4,
0xf8,
0xde,
0xf9,
0xf9,
0xe2,
0xee,
0xeb,
0xf1,
0x00,
0x00,
0x00,
0x00,
0x00,
0x00,
0x00,
0xef,
0x00,
0x00,
0x00,
0x00,
0x00,
0x00,
0x00,
0xfe,
0xfd,
0xfc,
0xfb,
0xfe,
0xf2,
0xff,
0xff,
0xf9,
0xfd,
0xfd,
0x02,
0xfb,
0xf6,
0x05,
0xff,
0xc5,
0xe2,
0xf9,
0xe1,
0xc8,
0xf1,
0xeb,
0xe3,
0xc4,
0xe7,
0x04,
0xed,
0xda,
0xf7,
0xef,
0xe5,
0x0c,
0x08,
0xfb,
0xf7,
0x00,
0xe8,
0x0b,
0xe5,
0xad,
0xfc,
0x0b,
0xea,
0xf7,
0xf8,
0x07,
0xe3,
0xd1,
0xf5,
0xfb,
0xfb,
0xe6,
0x02,
0xf9,
0xf8,
0xc4,
0xf5,
0x00,
0xf9,
0xee,
0xfd,
0xf8,
0xf7,
0x19,
0xf4,
0xef,
0xea,
0xfd,
0xe9,
0xef,
0x27,
0x18,
0xf2,
0xed,
0xe0,
0x01,
0xef,
0xf9,
0x1a,
0x0e,
0x06,
0xf4,
0xfa,
0xf0,
0xfe,
0xef,
0x04,
0xe7,
0x0d,
0x05,
0xf5,
0xfb,
0xe4,
0x03,
0xef,
0x27,
0x16,
0x05,
0xf4,
0xf5,
0xf9,
0xfc,
0xf9,
0x0b,
0x08,
0x0a,
0x04,
0x02,
0xf7,
0xfb,
0xf6,
0xe4,
0xe5,
0x00,
0xed,
0x07,
0xfa,
0xed,
0xfb,
0xe9,
0xea,
0xfd,
0xf1,
0x02,
0xfd,
0xee,
0xfa,
0xf0,
0x23,
0x08,
0x12,
0xd8,
0xed,
0xd1,
0xe4,
0xf0,
0x29,
0x01,
0x17,
0xd6,
0xef,
0xd7,
0xe0,
0xf9,
0xf7,
0xfc,
0xd9,
0xf3,
0xd2,
0x09,
0xd7,
0xe5,
0xfa,
0xf9,
0xe2,
0xe9,
0xe4,
0xf3,
0xd9,
0xe1,
0xf6,
0xe7,
0xe9,
0xe1,
0xda,
0x09,
0xd8,
0xe4,
0xf5,
0xec,
0xee,
0xf8,
0xe5,
0xff,
0xe0,
0xd8,
0xf9,
0xf7,
0x06,
0x01,
0xfa,
0xe4,
0x14,
0xef,
0xec,
0xf4,
0x13,
0xf6,
0xf4,
0xf2,
0x01,
0xf0,
0xf7,
0xfd,
0xef,
0x0a,
0xea,
0x05,
0xf6,
0xe0,
0xf2,
0xf6,
0xee,
0xff,
0xdb,
0x04,
0xec,
0xe1,
0xf8,
0xff,
0x05,
0xf6,
0xff,
0xfd,
0xe5,
0x0d,
0xfd,
0xfb,
0x01,
0xec,
0xfe,
0x01,
0xed,
0xc6,
0x10,
0xf8,
0xfd,
0xef,
0xee,
0xf9,
0xfb,
0x1d,
0x0f,
0xfc,
0xfd,
0xf4,
0xf0,
0xf2,
0xfb,
0xd3,
0xfb,
0xf7,
0xf8,
0x04,
0xf3,
0xf7,
0x01,
0x06,
0xfc,
0xf4,
0xee,
0x0c,
0xef,
0x05,
0x02,
0x06,
0xb0,
0x6b,
0x8e,
0x23,
0xdb,
0x95,
0x9b,
0x08,
0xba,
0x73,
0x9e,
0x2c,
0xf0,
0xa1,
0xa8,
0x28,
0xb8,
0xd3,
0xcb,
0x11,
0xfb,
0x34,
0x23,
0x21,
0xc7,
0xda,
0xd1,
0x12,
0x06,
0x34,
0x2c,
0xb7,
0xbb,
0xf4,
0xfe,
0x51,
0xd1,
0x09,
0xb9,
0xb8,
0xc1,
0xb7,
0x24,
0x27,
0xed,
0xf8,
0xe5};
