/* SPDX-License-Identifier: GPL-2.0 */
/*
 * Copyright (c) 2022 MediaTek Inc.
 *
 * Author: Ming-Hsuan Chiang <ming-hsuan.chiang@mediatek.com>
 *
 */

char fdvt_kernel_bias_loop50_0_frame01_7sp[] = {
0x13,
0xfd,
0xf3,
0xf9,
0xf8,
0x05,
0xfe,
0xfd,
0x0b,
0x0a,
0xf3,
0xfc,
0xf5,
0xfb,
0xfe,
0xfd,
0x00,
0x02,
0x03,
0x05,
0xfe,
0x07,
0x00,
0x02,
0x0f,
0x0c,
0x01,
0x02,
0xf0,
0x0f,
0x01,
0x01,
0xf7,
0x06,
0xf1,
0xed,
0x10,
0x02,
0x0f,
0x0b,
0xfb,
0xfd,
0xf0,
0xef,
0x0e,
0x05,
0x0c,
0x0a,
0x07,
0x0c,
0x58,
0x44,
0xf3,
0x0d,
0x5c,
0x46,
0x05,
0x02,
0x57,
0x41,
0xf4,
0x00,
0x5b,
0x40,
0x01,
0xfa,
0xf6,
0xf9,
0xec,
0xff,
0xff,
0xff,
0x02,
0xf4,
0xfc,
0xff,
0xef,
0xf7,
0x03,
0x02,
0x04,
0xf5,
0x07,
0x09,
0x04,
0xf3,
0x09,
0x07,
0x02,
0xf8,
0x0f,
0x13,
0x00,
0xf9,
0x11,
0x0f,
0xeb,
0x10,
0xf5,
0x02,
0xfd,
0x07,
0x1b,
0x14,
0xeb,
0x0a,
0xf3,
0xfb,
0xf1,
0x02,
0x0a,
0x02,
0xfb,
0x03,
0xfb,
0xff,
0xf9,
0x00,
0xf8,
0x00,
0xf7,
0xfa,
0x03,
0x01,
0x04,
0x03,
0xfb,
0xff,
0xf4,
0x17,
0x0a,
0x09,
0x14,
0x00,
0x13,
0x06,
0xe7,
0xfc,
0x05,
0x06,
0x09,
0xfd,
0x1a,
0x0d,
0x1b,
0xee,
0xee,
0xef,
0x06,
0xed,
0xe2,
0xe6,
0xf3,
0x0f,
0x0d,
0x08,
0x0c,
0xe7,
0xf7,
0xf6,
0x03,
0xef,
0xfd,
0xf7,
0xf9,
0xf5,
0xfe,
0xf6,
0xfc,
0x00,
0xfb,
0xf7,
0xff,
0x06,
0xfd,
0xf5,
0x0b,
0x19,
0xfd,
0xfc,
0xf0,
0x16,
0xf7,
0xfd,
0x0c,
0x13,
0x03,
0x03,
0xef,
0x0b,
0x02,
0x07,
0xf7,
0x08,
0xfd,
0x01,
0x10,
0x06,
0xfd,
0x00,
0xfb,
0x0b,
0xf9,
0x00,
0x07,
0x08,
0xf7,
0xff,
0x06,
0x02,
0xf8,
0x0b,
0xf7,
0x00,
0xfe,
0x09,
0x07,
0x00,
0xfd,
0xf9,
0xf6,
0x00,
0x01,
0xf9,
0x06,
0xf3,
0xfc,
0x0b,
0xfa,
0xf1,
0xff,
0x0a,
0x05,
0xf4,
0xe9,
0xf7,
0xef,
0xec,
0xe5,
0xf3,
0xf9,
0x00,
0x04,
0x04,
0x09,
0xff,
0x03,
0x02,
0xfb,
0x04,
0xff,
0x02,
0x06,
0x04,
0x02,
0x04,
0x05,
0xfb,
0xfb,
0x00,
0xf1,
0xf7,
0x04,
0x04,
0x08,
0xfc,
0x00,
0x01,
0xf2,
0x08,
0x02,
0x03,
0xfe,
0x0d,
0x08,
0x05,
0x00,
0x0c,
0x04,
0x05,
0xfb,
0xfc,
0x02,
0xfe,
0x04,
0xfc,
0xfd,
0xfc,
0xf5,
0x00,
0x05,
0xfc,
0xfd,
0x06,
0x0a,
0x05,
0xf5,
0x0c,
0x00,
0xf7,
0xfe,
0x0c,
0x05,
0xfc,
0xf8,
0x04,
0x02,
0x03,
0x05,
0x07,
0x07,
0x0a,
0xfa,
0xfe,
0x02,
0x01,
0x06,
0xf7,
0x07,
0x0a,
0x01,
0x16,
0xfb,
0x16,
0x0c,
0x10,
0xf9,
0x09,
0x00,
0x11,
0xf3,
0xf4,
0xf9,
0xfe,
0xf7,
0xee,
0x0c,
0xce,
0x0f,
0x0b,
0xff,
0xcf,
0x09,
0x07,
0x0a,
0xd0,
0x11,
0x13,
0xfe,
0xc8,
0x0e,
0x12,
0x01,
0xfb,
0xf5,
0x04,
0x00,
0xfc,
0xf7,
0x05,
0xff,
0xf8,
0xf6,
0x06,
0xff,
0xfa,
0xf8,
0x07,
0x06,
0x08,
0xfa,
0xfb,
0x01,
0x00,
0xf3,
0xf9,
0xfe,
0x03,
0xf5,
0xf3,
0xfb,
0xfc,
0xf1,
0xf3,
0xea,
0xe6,
0xfc,
0xf8,
0x11,
0xea,
0xff,
0xf8,
0xf2,
0x0e,
0xf7,
0xf8,
0x12,
0x10,
0xfc,
0xf7,
0xe4,
0x00,
0x1a,
0x13,
0xf8,
0x0a,
0x16,
0x06,
0xee,
0x02,
0x19,
0x10,
0xf7,
0x03,
0x0d,
0xfc,
0xd5,
0x08,
0x0c,
0x03,
0xd2,
0x05,
0x10,
0x0b,
0xd6,
0xfe,
0x11,
0x08,
0xd2,
0x0a,
0x11,
0x09,
0xf2,
0xf6,
0xfd,
0xf8,
0x00,
0x03,
0x00,
0xff,
0xfb,
0xf6,
0x08,
0x06,
0x11,
0x0b,
0x00,
0x01,
0x05,
0xfa,
0xfb,
0x02,
0x03,
0x00,
0x04,
0x07,
0x05,
0x01,
0xfd,
0x03,
0x03,
0xfb,
0x07,
0x08,
0x24,
0x01,
0x0d,
0x0b,
0x35,
0x12,
0x01,
0x00,
0x2d,
0xf6,
0x15,
0x0d,
0x39,
0xf5,
0x01,
0x00,
0x01,
0x01,
0x00,
0xff,
0x03,
0xfd,
0xfe,
0x01,
0x02,
0x00,
0x01,
0x01,
0x01,
0x02,
0xff,
0x03,
0x00,
0xfd,
0x27,
0xdc,
0xfa,
0x04,
0x26,
0xdf,
0x03,
0x01,
0x26,
0xdb,
0xfa,
0x01,
0x27,
0xdf,
0xfc,
0x0b,
0x7d,
0x7b,
0xfd,
0x0a,
0x7b,
0x78,
0xfe,
0xfa,
0x7b,
0x78,
0xfe,
0xfa,
0x7a,
0x78};
