/* SPDX-License-Identifier: GPL-2.0 */
/*
 * Copyright (c) 2022 MediaTek Inc.
 *
 * Author: Ming-Hsuan Chiang <ming-hsuan.chiang@mediatek.com>
 *
 */

char fdvt_kernel_bias_loop44_1_frame01_7sp[] = {
0xfc,
0xf8,
0xf8,
0x0e,
0x08,
0x0e,
0xff,
0xea,
0x0e,
0x03,
0xf3,
0x17,
0x02,
0x04,
0x08,
0x12,
0x00,
0x21,
0x13,
0x04,
0x1d,
0x03,
0x14,
0xf7,
0xf4,
0xf9,
0xf5,
0x0f,
0xfa,
0x18,
0xf3,
0xdc,
0xf2,
0xe9,
0xf4,
0xfd,
0xec,
0xf0,
0xf4,
0xd3,
0x1b,
0xf1,
0xfd,
0x0c,
0xfe,
0x00,
0x0a,
0x04,
0xff,
0xf0,
0x0d,
0x04,
0xfb,
0x01,
0x28,
0xf6,
0xf4,
0xf8,
0xd8,
0x12,
0xfc,
0xfb,
0xe2,
0xd0,
0xed,
0x01,
0xdd,
0x02,
0xe9,
0x0c,
0x06,
0x0f,
0xf9,
0x14,
0x02,
0xed,
0x10,
0xfd,
0x0e,
0xe6,
0x06,
0x02,
0xe4,
0x0a,
0xfe,
0x02,
0xff,
0x1c,
0x0d,
0x01,
0x0b,
0x00,
0xf5,
0xe2,
0x08,
0x08,
0xfd,
0x0e,
0x08,
0x02,
0xe4,
0xf8,
0x0f,
0x2a,
0xde,
0x09,
0x0c,
0x0a,
0x04,
0x0c,
0xf1,
0xf5,
0xf9,
0x05,
0xea,
0xfc,
0xfe,
0xeb,
0x06,
0xf4,
0xf7,
0xf2,
0xf1,
0x08,
0x09,
0x00,
0x02,
0xf6,
0x07,
0x05,
0x01,
0x08,
0xf7,
0xee,
0xf1,
0xee,
0xe6,
0xfe,
0x06,
0xec,
0xea,
0x02,
0x07,
0x00,
0xff,
0xf5,
0x02,
0x07,
0x0d,
0xff,
0xfd,
0xf9,
0x07,
0x0f,
0xf2,
0xf7,
0x0a,
0x0f,
0x07,
0xfe,
0xff,
0x05,
0x0a,
0xfe,
0xfd,
0xf6,
0xfb,
0x03,
0x14,
0xe5,
0x04,
0x12,
0xf2,
0xe9,
0xef,
0xec,
0x05,
0xf9,
0xe0,
0xf2,
0xea,
0xf8,
0x01,
0x09,
0x03,
0x0f,
0x1f,
0xeb,
0x0b,
0xfc,
0x02,
0x0e,
0x07,
0x10,
0xd2,
0x07,
0xfe,
0xf9,
0xf5,
0x0b,
0xf8,
0xe5,
0xf7,
0x02,
0x01,
0xf7,
0xfe,
0x13,
0x07,
0xfa,
0x01,
0x04,
0xfe,
0xf4,
0x04,
0xf9,
0x0e,
0xf5,
0xfd,
0x12,
0x12,
0xe9,
0xe7,
0x07,
0x0e,
0xf3,
0x1a,
0x06,
0x0a,
0x02,
0x07,
0xed,
0xf1,
0x15,
0xf4,
0xfc,
0x09,
0xfa,
0xfe,
0xe2,
0x11,
0x04,
0xfa,
0x00,
0x03,
0x11,
0x35,
0x1f,
0x00,
0x02,
0xf2,
0xee,
0xf4,
0x1b,
0x20,
0xdf,
0xf9,
0x02,
0x1b,
0x08,
0x03,
0xff,
0x15,
0xf5,
0xf7,
0x08,
0x08,
0xff,
0x0a,
0xee,
0xea,
0x1b,
0xfc,
0x05,
0xff,
0x13,
0x01,
0xf7,
0xe4,
0x13,
0xf9,
0xf9,
0xff,
0xf8,
0xfd,
0xf5,
0xfe,
0x0e,
0x00,
0x01,
0xff,
0x10,
0xf0,
0x02,
0xf3,
0xe6,
0xef,
0xeb,
0x04,
0x0d,
0xfb,
0xfd,
0x0b,
0x04,
0x06,
0xf0,
0x0c,
0xfb,
0x06,
0xfe,
0xef,
0x0a,
0xf9,
0xf0,
0xe9,
0x07,
0x1a,
0x0d,
0xfc,
0x07,
0x07,
0x06,
0xfd,
0xf8,
0xeb,
0x00,
0x03,
0xfe,
0xf8,
0xef,
0x0e,
0x13,
0xde,
0x07,
0x16,
0x15,
0xfa,
0xfc,
0x09,
0x06,
0xfc,
0xef,
0xf8,
0xef,
0xea,
0x04,
0x18,
0xfc,
0xf8,
0x10,
0xd1,
0x18,
0x02,
0x02,
0x0c,
0x09,
0xf9,
0x01,
0xfc,
0xfe,
0xf4,
0xf3,
0x07,
0x0d,
0xe9,
0x02,
0x08,
0x15,
0x0c,
0xf0,
0xf7,
0x0b,
0x17,
0xfe,
0x0d,
0xde,
0xf1,
0xf0,
0xf7,
0x08,
0x0a,
0xed,
0x0e,
0x01,
0x00,
0xe4,
0x25,
0x05,
0x12,
0xfd,
0x02,
0xf3,
0x01,
0xfc,
0xe8,
0x0c,
0xee,
0x0c,
0xf8,
0x12,
0x00,
0x00,
0x05,
0xf6,
0xfa,
0x09,
0x0e,
0xff,
0xf3,
0xfa,
0x03,
0xf6,
0xf5,
0xf0,
0xf6,
0x00,
0xf4,
0x03,
0x0b,
0x06,
0x11,
0x07,
0xee,
0xea,
0xe4,
0x1d,
0x05,
0xd2,
0x0c,
0x0d,
0x10,
0xe9,
0x09,
0xf9,
0x1e,
0x09,
0x0b,
0x1a,
0xf4,
0x09,
0x11,
0x0a,
0xfc,
0xf9,
0x0f,
0x03,
0xfe,
0xf4,
0x0d,
0xfd,
0xf8,
0xf6,
0xe6,
0x0d,
0xfc,
0xf6,
0xfa,
0x00,
0xf7,
0xff,
0x0a,
0xff,
0xfa,
0x03,
0x0f,
0xf4,
0xe6,
0xf8,
0x04,
0x00,
0xfd,
0x02,
0xfd,
0xe0,
0x18,
0x0a,
0xe0,
0x06,
0x06,
0x04,
0x09,
0xee,
0x13,
0x0a,
0xf4,
0x0d,
0x13,
0xfb,
0x0c,
0x10,
0x0b,
0xf4,
0x05,
0x04,
0x01,
0x05,
0xf9,
0xf0,
0xe9,
0x02,
0x04,
0x04,
0xfd,
0x1b,
0x0e,
0xff,
0x05,
0x1b,
0x0b,
0xe3,
0xfa,
0xed,
0xe6,
0x15,
0x00,
0x0e,
0xf4,
0xfd,
0xf3,
0xfe,
0x2b,
0x4b,
0x13,
0x0c,
0x58,
0xfa,
0xf8,
0xef,
0xe4,
0x01,
0x1c,
0xfd,
0x1e,
0xd3,
0x31,
0x06,
0x02,
0xf2,
0xf5,
0x3d,
0xfa,
0x29,
0x26,
0xf6,
0xf3,
0xf0,
0x05,
0x01,
0xdc,
0x13,
0x01,
0xf9,
0x1b,
0xdf,
0x01,
0x10,
0xd2,
0x0e,
0x1c,
0x21,
0xd1,
0xfa,
0x0f,
0xf4,
0xc6,
0x03,
0xfc,
0xe3,
0xfe,
0x15,
0xe9,
0x12,
0xd7,
0xef,
0x07,
0xdc,
0x1f,
0x35,
0x0d,
0x1e,
0xff,
0x00,
0xef,
0xc2,
0x14,
0xe6,
0xfb,
0xed,
0xf1,
0x41,
0xdf,
0x0d,
0xe4,
0xdc,
0xe4,
0xff,
0xf3,
0xd9,
0xac,
0xff,
0x05,
0x54,
0xf2,
0xf1,
0x13,
0xee,
0xe3,
0xf7,
0x28,
0x19,
0x1a,
0x0d,
0x10,
0x12,
0x17,
0xdc,
0xdb,
0xf1,
0xe9,
0xff,
0xef,
0xf3,
0x02,
0xf2,
0x26,
0xe4,
0xf2,
0x17,
0xd4,
0xd5,
0x3a,
0x1b,
0xf1,
0x17,
0x00,
0x12,
0xdc,
0xdb,
0xe1,
0x0d,
0xe0,
0x24,
0xfb,
0x0a,
0x04,
0x20,
0xfc,
0x18,
0x22,
0xe5,
0xf4,
0xd8,
0x02,
0xfd,
0xf9,
0x1d,
0xd1,
0xf5,
0xe0,
0x0f,
0xdf,
0x0c,
0xdc,
0x1a,
0x1a,
0xe9,
0xc4,
0xf0,
0xc4,
0x0f,
0x14,
0xff,
0x12,
0xff,
0x05,
0x0b,
0xd5,
0x0b,
0x0c,
0x1d,
0xf8,
0xfd,
0xed,
0xe0,
0x12,
0x05,
0xfa,
0x28,
0x06,
0xf1,
0xf0,
0x11,
0x41,
0x0d,
0x12,
0x1d,
0x14,
0xf7,
0xe2,
0x2d,
0xe0,
0xe9,
0x0c,
0xf2,
0xf1,
0x34,
0x1b,
0x0a,
0xe1,
0x09,
0xf5,
0xf7,
0xe6,
0xd9,
0x10,
0x08,
0xef,
0x03,
0xc2,
0xf4,
0xc9,
0xee,
0xe0,
0x08,
0x24,
0x0f,
0x0e,
0x28,
0xfe,
0xd9,
0xf5,
0x01,
0x1e,
0x27,
0xdb,
0x10,
0xe4,
0x30,
0x24,
0x29,
0xdd,
0xe5,
0xf8,
0x2b,
0x13,
0x24,
0xe6,
0x36,
0xcf,
0x0e,
0xf3,
0x0e,
0xe0,
0xf9,
0xf6,
0xfe,
0x20,
0xf1,
0x04,
0xf3,
0x2b,
0xec,
0x32,
0xf5,
0xfd,
0xf5,
0x2a,
0x03,
0xfd,
0xf6,
0xff,
0x0c,
0xfd,
0xec,
0xf5,
0xf0,
0x11,
0xfa,
0xf4,
0x02,
0x03,
0xfd,
0xda,
0xfc,
0xf8,
0x0d,
0x0c,
0xfb,
0x08,
0xfe,
0x01,
0x0d,
0xf8,
0xf6,
0x03,
0xe3,
0xed,
0x04,
0x07,
0x03,
0xf9,
0x16,
0xeb,
0xf8,
0xee,
0xf3,
0x08,
0x19,
0xfd,
0xfe,
0x0a,
0xf7,
0x14,
0x10,
0x09,
0xf1,
0xea,
0x0b,
0xed,
0xf9,
0x02,
0x0b,
0x09,
0x17,
0xda,
0x01,
0xe4,
0x1d,
0xf4,
0xfe,
0x2f,
0xf5,
0x09,
0xff,
0xff,
0xe8,
0x03,
0x02,
0xe8,
0xf6,
0x01,
0x0b,
0x00,
0x22,
0xf6,
0xf3,
0xec,
0xfe,
0x1b,
0xf0,
0xed,
0xff,
0xf3,
0xf6,
0x07,
0x14,
0xdf,
0xfa,
0xfa,
0xf5,
0x0f,
0xf5,
0xf6,
0x0c,
0xf8,
0xfa,
0xf8,
0xfc,
0xf1,
0xec,
0x27,
0xd5,
0x0c,
0x0e,
0x06,
0x10,
0x1a,
0x1d,
0xea,
0x18,
0x10,
0x07,
0x26,
0x07,
0x0b,
0x0a,
0xef,
0xe0,
0x07,
0x0c,
0x0d,
0xf8,
0xf5,
0xec,
0x05,
0xfb,
0x07,
0xf4,
0xee,
0xea,
0xfa,
0xf8,
0x0d,
0x05,
0x06,
0xf7,
0xff,
0x1c,
0xee,
0x0c,
0x0d,
0xfa,
0x00,
0x0b,
0xf0,
0x10,
0x0a,
0x1d,
0x06,
0xec,
0xf0,
0xf0,
0x02,
0xf0,
0x07,
0x06,
0xf1,
0xfa,
0xfa,
0xe8,
0xf8,
0xf8,
0x03,
0x05,
0xf8,
0xf4,
0xf2,
0x09,
0xfe,
0xf3,
0x0d,
0xf8,
0x00,
0x02,
0xf7,
0xf3,
0xde,
0xf9,
0xfb,
0xfe,
0xff,
0x10,
0xd8,
0x0a,
0xe0,
0x18,
0xfd,
0x12,
0xf0,
0xfc,
0x0f,
0xee,
0x05,
0x16,
0x03,
0xf9,
0xf7,
0xec,
0x04,
0x08,
0xec,
0xfb,
0x24,
0xfc,
0x04,
0xf8,
0xfe,
0x16,
0x04,
0xed,
0x06,
0xe2,
0xfa,
0x0d,
0xe9,
0xf5,
0x00,
0x0d,
0x0e,
0x1d,
0x14,
0x1c,
0xf6,
0x05,
0xec,
0xec,
0x10,
0x01,
0xfc,
0x04,
0x01,
0xfd,
0xf6,
0xfb,
0x05,
0x15,
0xe5,
0x03,
0x0c,
0xfa,
0x3f,
0xe9,
0x12,
0xf4,
0x2b,
0xf5,
0xf3,
0x37,
0xf1,
0x0e,
0x01,
0xf2,
0xfb,
0x07,
0xf7,
0x13,
0xfb,
0x03,
0xfe,
0xf4,
0x13,
0xf1,
0x01,
0xef,
0x06,
0x06,
0xf8,
0xf3,
0x11,
0xff,
0xfe,
0xf7,
0xec,
0xf7,
0x04,
0x0e,
0x0a,
0xfc,
0xf4,
0xfc,
0xf8,
0xe3,
0xee,
0x0b,
0xee,
0x0d,
0xf2,
0x07,
0xf9,
0xf6,
0xe9,
0xfb,
0x13,
0xf3,
0xfb,
0xff,
0x08,
0x04,
0x02,
0xf9,
0xee,
0xf9,
0x19,
0xce,
0xf2,
0x07,
0x03,
0xfd,
0xf9,
0xfd,
0x0b,
0xfc,
0x19,
0xda,
0x0b,
0xf0,
0x25,
0x10,
0x18,
0xe6,
0x04,
0xef,
0xe2,
0xee,
0x0e,
0xfd,
0x00,
0x11,
0x09,
0xf5,
0x00,
0xfa,
0x01,
0x06,
0xf6,
0xf7,
0x13,
0xf4,
0xea,
0xeb,
0x21,
0xee,
0x0b,
0xe0,
0xfa,
0xf0,
0xe2,
0x0b,
0x04,
0x0b,
0x02,
0xfb,
0x0f,
0xf4,
0xf9,
0x09,
0xfa,
0xed,
0xf4,
0xf8,
0xf2,
0xec,
0xf9,
0x00,
0x0a,
0xed,
0x00,
0x19,
0xf5,
0x12,
0x0e,
0x07,
0xe9,
0xf6,
0x19,
0x04,
0x15,
0x0f,
0xfb,
0xf9,
0xfe,
0xfb,
0xf3,
0x19,
0x0e,
0xfe,
0xff,
0xfc,
0xf4,
0x03,
0xea,
0x20,
0xfe,
0xeb,
0x09,
0x1b,
0x04,
0x09,
0xfa,
0xfd,
0xfd,
0x0d,
0xf1,
0x09,
0xf3,
0xeb,
0xf8,
0xf0,
0xfb,
0xfb,
0xfc,
0xe8,
0x10,
0xf2,
0xfc,
0xfe,
0x09,
0x00,
0x02,
0xf5,
0xe6,
0x2a,
0xff,
0xfc,
0xee,
0x06,
0xf3,
0xe2,
0x0c,
0xeb,
0xf5,
0xfc,
0xed,
0xf8,
0x10,
0xe9,
0x0c,
0x08,
0xd1,
0xf8,
0xf7,
0x07,
0xfd,
0xfe,
0x14,
0x01,
0x10,
0x12,
0xf6,
0x05,
0x03,
0xf9,
0xff,
0x01,
0xf6,
0xfc,
0x03,
0x06,
0xfe,
0x00,
0x02,
0x00,
0x08,
0xf9,
0x01,
0x03,
0x06,
0x03,
0xec,
0xfa,
0x02,
0xf4,
0x16,
0x11,
0x00,
0x03,
0x14,
0x0b,
0xf5,
0x02,
0xfe,
0x19,
0xf8,
0x09,
0x10,
0xf1,
0x01,
0xf6,
0xfc,
0xf2,
0xf3,
0x0d,
0x00,
0xf8,
0x05,
0x0e,
0x08,
0x05,
0x21,
0x15,
0xdf,
0x12,
0xf0,
0x03,
0xfa,
0xfb,
0x13,
0x08,
0x0b,
0xf8,
0xcc,
0xf0,
0x02,
0x0f,
0xfd,
0xf8,
0x78,
0xec,
0xcb,
0x0c,
0xd7,
0x4d,
0xd0,
0xf2,
0xcc,
0xf0,
0x0d,
0x08,
0x17,
0x18,
0x0b,
0xff,
0x05,
0x04,
0xeb,
0x11,
0xcf,
0xfd,
0x09,
0x0c,
0x1e,
0x02,
0x0a,
0xdf,
0xe0,
0xd7,
0xef,
0xe2,
0xda,
0xfb,
0xe4,
0xf9,
0xff,
0xee,
0xc9,
0x36,
0xd4,
0xca,
0x15,
0xd9,
0x12,
0x32,
0xf3,
0xf3,
0x15,
0xfb,
0xfe,
0xd2,
0x36,
0xed,
0xfb,
0x20,
0xf6,
0xf8,
0xf9,
0x0b,
0xd6,
0xfd,
0x06,
0xf9,
0xfe,
0xf2,
0xff,
0xfb,
0xfc,
0x22,
0x0f,
0x0e,
0xe8,
0xf3,
0x3c,
0x1d,
0xfc,
0xfe,
0xec,
0xe4,
0xfe,
0xe5,
0x19,
0xe9,
0x0f,
0x27,
0x31,
0xd1,
0x0b,
0xd8,
0xe5,
0xfa,
0x1a,
0xc6,
0x1b,
0x28,
0x0a,
0x2f,
0x01,
0xf4,
0xd4,
0x13,
0x1f,
0x32,
0xd0,
0xe5,
0x14,
0x1d,
0x12,
0x1a,
0x03,
0xf0,
0x23,
0x2d,
0x1c,
0x07,
0x0d,
0xf7,
0xfc,
0xfc,
0xed,
0xef,
0x01,
0x30,
0x14,
0xff,
0xf1,
0xf8,
0x31,
0x03,
0x04,
0xec,
0xfb,
0x00,
0xf1,
0x0d,
0x0d,
0x00,
0x02,
0xfc,
0xfb,
0xd2,
0x06,
0xf2,
0x05,
0x0d,
0xee,
0x38,
0x04,
0xbf,
0x21,
0x07,
0xce,
0x06,
0xf9,
0xf4,
0x1b,
0x2e,
0xf1,
0xf6,
0xea,
0x1f,
0xee,
0x05,
0xe0,
0x40,
0xe4,
0x02,
0x00,
0xe4,
0xf3,
0x0b,
0x18,
0x0a,
0x06,
0x04,
0xf1,
0x05,
0xd9,
0x13,
0xef,
0x03,
0x08,
0x15,
0x0c,
0xe3,
0xe6,
0xe5,
0x10,
0xcd,
0xe8,
0x05,
0x18,
0x27,
0xbf,
0x17,
0x09,
0xfa,
0xee,
0x0e,
0x03,
0xfe,
0x09,
0xef,
0xf7,
0x16,
0x01,
0xee,
0xfe,
0x16,
0xe4,
0x05,
0xfe,
0x13,
0x44,
0xf2,
0xf3,
0xf6,
0x11,
0xe6,
0x07,
0x37,
0x28,
0x02,
0x17,
0x06,
0xf9,
0xf6,
0xe7,
0x02,
0xe3,
0x31,
0x12,
0xee,
0x17,
0x14,
0x4a,
0xf3,
0xf7,
0x02,
0x15,
0x2d,
0x19,
0xd6,
0x01,
0xf2,
0xe5,
0xfa,
0xeb,
0x03,
0xed,
0x33,
0xfd,
0xeb,
0x01,
0x1a,
0xf6,
0xe2,
0x4f,
0x0d,
0x28,
0xf9,
0x04,
0xc6,
0x25,
0x45};
