/* SPDX-License-Identifier: GPL-2.0 */
/*
 * Copyright (c) 2022 MediaTek Inc.
 *
 * Author: Ming-Hsuan Chiang <ming-hsuan.chiang@mediatek.com>
 *
 */

char fdvt_kernel_bias_loop85_1_frame01_7sp[] = {
0xfa,
0x13,
0x01,
0xfb,
0xea,
0x11,
0xff,
0xee,
0x01,
0x13,
0x03,
0xef,
0xf5,
0x05,
0x00,
0xf5,
0x14,
0x09,
0xf9,
0x10,
0xee,
0xf5,
0xf0,
0xe1,
0xe2,
0x08,
0xed,
0x0f,
0xe8,
0xed,
0xec,
0xe4,
0x0b,
0x0d,
0xfa,
0x05,
0xe6,
0xf0,
0xe1,
0xde,
0x0b,
0x11,
0xf5,
0x15,
0xe9,
0xea,
0xe7,
0xdb,
0xe0,
0x00,
0xf7,
0xef,
0xe9,
0xe2,
0x1e,
0xf2,
0xfe,
0x02,
0xff,
0xf3,
0xf2,
0xe1,
0x1e,
0xe7,
0xee,
0x12,
0xf9,
0x05,
0xf1,
0xe7,
0xe1,
0xfb,
0xf3,
0x16,
0xff,
0x02,
0xf6,
0xde,
0xdc,
0x01,
0x1a,
0x0a,
0xf8,
0x09,
0xf9,
0xf3,
0xed,
0xfd,
0x2a,
0x04,
0xf2,
0x09,
0xf7,
0xf6,
0xeb,
0x03,
0xcd,
0x00,
0xfd,
0xff,
0xfc,
0xfe,
0xff,
0xfd,
0xcf,
0xff,
0xfe,
0xff,
0xfd,
0xfe,
0xfd,
0xff,
0xcb,
0x00,
0x01,
0x04,
0x02,
0x00,
0xf1,
0xf0,
0xc4,
0xf7,
0x07,
0x04,
0x08,
0xfe,
0xef,
0xf7,
0xde,
0xd5,
0xe9,
0xe4,
0xef,
0xe6,
0xdd,
0xee,
0xe8,
0xd5,
0xeb,
0xe7,
0xf1,
0xe6,
0xe1,
0xf0,
0xea,
0x09,
0xed,
0xf4,
0xe4,
0xf2,
0xb7,
0x48,
0xef,
0x08,
0xee,
0xf2,
0xe5,
0xf2,
0xbd,
0x4f,
0x08,
0xd5,
0xa2,
0x6d,
0xe0,
0x26,
0x93,
0x9a,
0x06,
0xd7,
0xad,
0x6e,
0xe5,
0x24,
0x97,
0x92,
0xe4,
0x0d,
0xfe,
0xf7,
0xd4,
0xd6,
0xfd,
0xf1,
0x06,
0x0e,
0xfe,
0xf3,
0xd2,
0xd5,
0x02,
0xf5,
0xe9,
0x07,
0xe9,
0xfb,
0xfc,
0xf9,
0xfe,
0x01,
0xe3,
0x07,
0xee,
0xfb,
0xfc,
0xf8,
0x01,
0xfc,
0xf7,
0xf9,
0xec,
0x00,
0xdb,
0x06,
0xf7,
0x01,
0xfc,
0xf7,
0xed,
0x04,
0xd9,
0x00,
0xf8,
0xee,
0xea,
0x19,
0xfb,
0xea,
0xe0,
0xf6,
0xee,
0xca,
0xef,
0x1a,
0x08,
0xe6,
0xe5,
0xf3,
0xee,
0xcd,
0xf2,
0x0d,
0x00,
0xf8,
0xf9,
0x02,
0xf5,
0xfc,
0x18,
0x00,
0x00,
0x00,
0x00,
0x00,
0x00,
0x00,
0x05,
0xe8,
0xe4,
0xdc,
0xdb,
0xee,
0xf8,
0x21,
0xf6,
0xea,
0xe4,
0xe0,
0xdf,
0xef,
0xf7,
0x1e,
0x05,
0xd2,
0xcd,
0xda,
0xf4,
0x06,
0x11,
0x06,
0x02,
0xd5,
0xcf,
0xdd,
0xf6,
0x01,
0x17,
0x02,
0xe5,
0x00,
0xf9,
0x00,
0xf3,
0xf8,
0x17,
0xd6,
0xec,
0x04,
0xfb,
0x0b,
0xf5,
0xf3,
0x15,
0xd6,
0xf5,
0x04,
0xf7,
0xe3,
0xec,
0xef,
0xf2,
0xfe,
0xee,
0x00,
0xf1,
0xdf,
0xef,
0xe8,
0xf7,
0x04,
0xd6,
0x01,
0xff,
0xfd,
0xfe,
0x02,
0xff,
0xfc,
0xcb,
0xff,
0xff,
0x01,
0xff,
0x00,
0xff,
0xfd,
0x0e,
0x13,
0xf0,
0xfd,
0xfa,
0xd9,
0xfa,
0xee,
0x14,
0x18,
0xe7,
0xfa,
0xed,
0xe3,
0xf1,
0x00,
0xfb,
0xef,
0xf3,
0xf2,
0xec,
0xfa,
0xe2,
0x02,
0xfd,
0xf0,
0xf3,
0xf9,
0xf4,
0xfa,
0xe9,
0x01,
0x8b,
0x00,
0x00,
0x00,
0x00,
0x00,
0x00,
0x00,
0xc5,
0x00,
0x00,
0x00,
0x00,
0x00,
0x00,
0x00,
0xf3,
0xfe,
0xfb,
0xfd,
0xfa,
0x05,
0xf9,
0xfd,
0xf7,
0xfa,
0xfc,
0xff,
0xf9,
0x01,
0xfa,
0xfe,
0xd3,
0x02,
0xff,
0xed,
0xfd,
0xe6,
0xe8,
0x12,
0x12,
0x03,
0x01,
0xec,
0xf8,
0xe7,
0xe4,
0x1d,
0x0a,
0xf3,
0xe1,
0xdb,
0xdd,
0xdf,
0x35,
0x00,
0x05,
0xf2,
0xd4,
0xd5,
0xd5,
0xde,
0x37,
0x00,
0xf8,
0xbb,
0xac,
0xd5,
0x58,
0x9a,
0x57,
0xc8,
0xf7,
0xba,
0xb0,
0xd3,
0x56,
0xa3,
0x51,
0xcf,
0xe8,
0xf5,
0xf7,
0xf5,
0xf8,
0xf2,
0x0a,
0xf1,
0x00,
0xf7,
0xf0,
0xfd,
0xfb,
0xfc,
0x07,
0xec,
0xea,
0xdd,
0xef,
0xfa,
0xe4,
0x0e,
0x05,
0x01,
0xd9,
0xd6,
0xef,
0xfa,
0xf0,
0x15,
0x04,
0x05,
0xff,
0x9c,
0xaf,
0xe1,
0x96,
0x6e,
0xc0,
0x47,
0x06,
0x98,
0xb1,
0xe6,
0x99,
0x6f,
0xb4,
0x4b,
0xf5,
0xfb,
0x00,
0xfc,
0x02,
0xf1,
0xf4,
0xfd,
0x10,
0xf2,
0xfe,
0xf5,
0x05,
0xf1,
0xdd,
0x02,
0xe9,
0xff,
0xfb,
0xf3,
0xf5,
0x05,
0xff,
0xf7,
0xfd,
0xfd,
0xfd,
0x00,
0xf0,
0x03,
0x0c,
0xfd,
0x1a,
0x0b,
0xff,
0x0f,
0xf0,
0xf9,
0xf2,
0xdc,
0xdc,
0x03,
0xf1,
0x08,
0xeb,
0xe8,
0xe0,
0xee,
0x0f,
0x0d,
0x02,
0xff,
0xf7,
0xf6,
0xde,
0xe0,
0x0b,
0x10,
0xf7,
0x14,
0xf2,
0xf0,
0xe9,
0xe8,
0xec,
0xfb,
0xf9,
0xf0,
0xf1,
0xe4,
0x1a,
0xf5,
0x07,
0xfd,
0x0a,
0xed,
0xfc,
0xe1,
0x16,
0xec,
0xe6,
0x1b,
0x00,
0x0e,
0x05,
0xd5,
0xd5,
0xf0,
0xe5,
0x18,
0x02,
0x09,
0xfa,
0xd7,
0xd2,
0xfe,
0x28,
0x04,
0xf0,
0x09,
0xf7,
0xf8,
0xf2,
0x00,
0x36,
0x04,
0xf2,
0x0d,
0xf5,
0xf6,
0xec,
0xfc,
0xd3,
0xff,
0xff,
0xff,
0xfb,
0xfb,
0x02,
0xf9,
0xd1,
0x00,
0x00,
0x00,
0x00,
0xff,
0xfe,
0xff,
0xbc,
0x04,
0x00,
0x0f,
0x0b,
0xff,
0xeb,
0xea,
0xb9,
0xfd,
0xfe,
0x08,
0x07,
0x00,
0xf4,
0xef,
0xd9,
0xd9,
0xe9,
0xe8,
0xea,
0xe8,
0xdd,
0xe9,
0xdd,
0xe5,
0xf1,
0xe8,
0xef,
0xe9,
0xe7,
0xf4,
0xf1,
0x0a,
0xf1,
0xec,
0xe2,
0xec,
0xbe,
0x4a,
0xee,
0x05,
0xf5,
0xed,
0xef,
0xeb,
0xc5,
0x4b,
0x0d,
0xd7,
0x9f,
0x6b,
0xdf,
0x23,
0x97,
0x99,
0x06,
0xde,
0xab,
0x6f,
0xec,
0x27,
0xa7,
0x9a,
0x22,
0x17,
0x00,
0x00,
0xd9,
0xd4,
0xfb,
0xe6,
0x1b,
0x13,
0x00,
0xf4,
0xd5,
0xdb,
0x04,
0xf1,
0xe1,
0x02,
0x01,
0xf9,
0xf6,
0xf8,
0xf3,
0xf8,
0xd4,
0x10,
0xf6,
0x01,
0xfb,
0xf8,
0xfd,
0xf9,
0xe3,
0xf9,
0xdd,
0xf2,
0xf6,
0x05,
0xf4,
0xf7,
0xf6,
0x02,
0xe9,
0xec,
0xf5,
0x08,
0xf2,
0xf7,
0xf2,
0x26,
0x08,
0xf4,
0xe0,
0xed,
0xe9,
0xc5,
0xf5,
0x21,
0x0c,
0xe6,
0xeb,
0xf2,
0xf6,
0xcd,
0xf2,
0x0f,
0x02,
0xff,
0x00,
0x09,
0xf2,
0xf1,
0x1e,
0x00,
0x00,
0x00,
0x00,
0x00,
0x00,
0x00,
0x09,
0xeb,
0xe5,
0xe2,
0xd7,
0xf0,
0xf7,
0x16,
0x00,
0xf2,
0xe5,
0xe6,
0xda,
0xf2,
0xf9,
0x1c,
0x0c,
0xcb,
0xcf,
0xd1,
0xf2,
0x01,
0x13,
0x03,
0xff,
0xd5,
0xd2,
0xdf,
0xff,
0x02,
0x1f,
0xfc,
0xed,
0x04,
0xfb,
0x05,
0xee,
0xf4,
0x1a,
0xdd,
0xf7,
0x08,
0xff,
0x0b,
0xec,
0xef,
0x15,
0xd4,
0xf0,
0xfb,
0xf5,
0xe8,
0xe8,
0xf2,
0xeb,
0x01,
0xf5,
0xfb,
0xee,
0xef,
0xe4,
0xed,
0xf6,
0xfd,
0xd1,
0xfb,
0xfe,
0xfb,
0xff,
0x01,
0xfd,
0xfd,
0xc2,
0x01,
0xff,
0xff,
0x00,
0x00,
0x00,
0xff,
0x11,
0x07,
0xdd,
0xff,
0xf7,
0xe0,
0xf7,
0xf4,
0x15,
0x07,
0xe9,
0xf8,
0xf9,
0xe7,
0xfd,
0xfd,
0x04,
0xee,
0xf6,
0xf1,
0xf4,
0xf5,
0xf1,
0x08,
0x0c,
0xf7,
0xf4,
0xf8,
0xeb,
0xf7,
0xf1,
0x0f,
0x8a,
0x00,
0x00,
0x00,
0x00,
0x00,
0x00,
0x00,
0xda,
0x00,
0x00,
0x00,
0x00,
0x00,
0x00,
0x00,
0xec,
0xf5,
0x03,
0xff,
0xf9,
0xfb,
0xfb,
0xfd,
0xfa,
0xfa,
0x05,
0x02,
0xf4,
0xf9,
0xfb,
0xfd,
0x10,
0xfd,
0x04,
0xeb,
0x05,
0xdd,
0xf7,
0x05,
0xd2,
0xfe,
0xf4,
0xf8,
0xf7,
0xfe,
0xf9,
0x06,
0x07,
0xf1,
0xd4,
0xcf,
0xe1,
0xe3,
0x3f,
0x0e,
0xfe,
0xf2,
0xc9,
0xda,
0xda,
0xe9,
0x42,
0x0a,
0xf7,
0xb6,
0xb2,
0xd9,
0x5a,
0xa2,
0x58,
0xc2,
0xf5,
0xb9,
0xb5,
0xd8,
0x57,
0xab,
0x52,
0xd9,
0xf3,
0xf1,
0xfb,
0xe8,
0x06,
0x00,
0x06,
0xf3,
0x0a,
0xfb,
0xf4,
0xfe,
0xfc,
0xf8,
0x07,
0xf7,
0xda,
0xdc,
0xfd,
0xec,
0xe3,
0x0f,
0xf5,
0xfb,
0xce,
0xe0,
0xf5,
0xef,
0xf0,
0x10,
0xf3,
0x02,
0xf6,
0x9a,
0xba,
0xe5,
0xa2,
0x6a,
0xb9,
0x43,
0xfc,
0x9e,
0xc7,
0xe0,
0xa5,
0x6e,
0xbb,
0x4f,
0xee,
0xf6,
0x01,
0xff,
0xf6,
0x02,
0xec,
0xfe,
0x1a,
0xf3,
0x00,
0xf2,
0x00,
0xf6,
0xd9,
0x09,
0xb9,
0xca,
0xca,
0xd2,
0x7f,
0xe7,
0xd8,
0xee,
0xbc,
0xb0,
0xc7,
0xfb,
0x6c,
0xe6,
0xce,
0xf1};
