/* SPDX-License-Identifier: GPL-2.0 */
/*
 * Copyright (c) 2022 MediaTek Inc.
 *
 * Author: Ming-Hsuan Chiang <ming-hsuan.chiang@mediatek.com>
 *
 */

char fdvt_kernel_bias_loop47_1_frame01_7sp[] = {
0x01,
0x02,
0x16,
0xf3,
0x00,
0x01,
0x00,
0xfe,
0xfb,
0x03,
0x01,
0x05,
0x00,
0x03,
0xf2,
0x03,
0xf3,
0xff,
0xf1,
0xf5,
0x05,
0x00,
0x00,
0xff,
0x0f,
0xf9,
0x04,
0x0b,
0xfe,
0xfa,
0x10,
0xf9,
0x07,
0xfe,
0xf5,
0x0d,
0xed,
0x02,
0xff,
0x06,
0xfd,
0x0a,
0xfe,
0xfc,
0x00,
0xfe,
0xfe,
0x04,
0x1d,
0x18,
0xce,
0x01,
0xd9,
0xf4,
0xce,
0xe3,
0x11,
0xe3,
0xcb,
0x09,
0xd9,
0xed,
0xe9,
0xe7,
0x00,
0x00,
0x03,
0x07,
0x03,
0x10,
0xfd,
0xfe,
0xed,
0x05,
0x01,
0xfc,
0x03,
0xff,
0xfb,
0xfe,
0x0b,
0xff,
0x09,
0xef,
0xfb,
0x07,
0x09,
0x00,
0x04,
0xfe,
0xf9,
0x08,
0xff,
0xff,
0x07,
0xff,
0xf6,
0x09,
0x02,
0xff,
0xfe,
0xf9,
0xf7,
0xfb,
0xfb,
0x04,
0xfe,
0x06,
0x00,
0x03,
0x09,
0x01,
0x02,
0x09,
0x04,
0xfd,
0x06,
0xf5,
0x09,
0x08,
0xff,
0x05,
0x03,
0xfa,
0xfc,
0x08,
0x10,
0xfa,
0xf8,
0x04,
0xfc,
0x08,
0x05,
0x18,
0x0a,
0xfb,
0xf6,
0x07,
0x05,
0xfb,
0x02,
0x05,
0x01,
0x0c,
0x10,
0xfd,
0xf9,
0xf3,
0xf4,
0x0a,
0xf8,
0xf0,
0xf6,
0xf8,
0x01,
0xfe,
0xfa,
0xff,
0xea,
0xfb,
0x05,
0xff,
0xf9,
0x03,
0xfc,
0xf7,
0x04,
0x04,
0x09,
0xfd,
0xfb,
0xfd,
0xfd,
0xff,
0x04,
0xfa,
0x04,
0xfb,
0x03,
0x0c,
0x06,
0xff,
0xf9,
0xf3,
0xe6,
0x01,
0x06,
0x08,
0xfb,
0xfc,
0x0f,
0x06,
0x05,
0x02,
0xf8,
0x05,
0xfb,
0xf8,
0x01,
0xfd,
0x03,
0x04,
0x08,
0xff,
0xfd,
0x05,
0x02,
0x06,
0xfd,
0xff,
0xf6,
0x0a,
0x01,
0xfa,
0xff,
0xf4,
0xfc,
0x09,
0xfe,
0xef,
0xfc,
0xfb,
0xf8,
0x02,
0x04,
0x01,
0x0b,
0x00,
0x00,
0x04,
0xfc,
0xf9,
0xef,
0xfa,
0xfd,
0xf8,
0x00,
0xfd,
0x01,
0xfa,
0x18,
0x22,
0xd5,
0x10,
0xd9,
0xec,
0xe3,
0xe4,
0x19,
0xdc,
0xd8,
0x16,
0xe3,
0xf9,
0x08,
0xe9,
0xef,
0x00,
0x0e,
0x06,
0x05,
0x03,
0xff,
0x03,
0x01,
0x08,
0xf7,
0xf7,
0x01,
0x09,
0x08,
0x08,
0xff,
0x01,
0x04,
0x00,
0xff,
0xff,
0x02,
0x0b,
0xfe,
0x00,
0xf7,
0x00,
0x02,
0x00,
0x08,
0xfe,
0xff,
0x04,
0x14,
0x07,
0x0a,
0xff,
0x0b,
0x06,
0xfd,
0xfd,
0xff,
0x00,
0xfe,
0x04,
0x11,
0x04,
0x02,
0xf7,
0x08,
0xf9,
0xfc,
0x10,
0x05,
0xff,
0xfd,
0x0c,
0x00,
0xf4,
0x00,
0x03,
0xfc,
0xf9,
0x01,
0xf9,
0x04,
0x0b,
0xfd,
0x00,
0x00,
0x0a,
0xee,
0xfc,
0xf6,
0xfa,
0x04,
0xf9,
0x09,
0xf3,
0x20,
0x2f,
0xd9,
0x08,
0xd9,
0xea,
0xc5,
0xe1,
0x14,
0xd9,
0xe1,
0x14,
0xe3,
0x10,
0x22,
0xea,
0x01,
0xff,
0x02,
0xf9,
0xfe,
0xfd,
0x03,
0x08,
0x14,
0xf5,
0x08,
0x02,
0x00,
0x02,
0x00,
0x00,
0x07,
0x00,
0x13,
0x06,
0x05,
0xfa,
0xf3,
0xfa,
0xf1,
0xf7,
0x1e,
0xfb,
0xff,
0x01,
0xf4,
0xfd,
0xf7,
0xfa,
0x0f,
0xf7,
0x0c,
0xfc,
0x03,
0x0a,
0xfc,
0xff,
0x0c,
0xf6,
0xfe,
0x02,
0x0c,
0x09,
0x03,
0xfc,
0xff,
0xf2,
0x01,
0xf1,
0xf9,
0x08,
0xff,
0x04,
0xfd,
0xfc,
0x05,
0xff,
0x09,
0xfa,
0x0c,
0x02,
0x01,
0xff,
0x04,
0x09,
0xfe,
0xfb,
0x05,
0x0a,
0x0a,
0x05,
0xfb,
0xfe,
0x01,
0x0d,
0xff,
0xf8,
0xf6,
0x03,
0x0a,
0x10,
0x0a,
0xf9,
0x0a,
0xf8,
0x04,
0x05,
0x01,
0xfa,
0x15,
0xfa,
0xfe,
0x01,
0x03,
0x01,
0x00,
0xed,
0xff,
0xf6,
0xff,
0xf8,
0x03,
0xf1,
0xfd,
0x0b,
0x02,
0xfc,
0xfd,
0x0b,
0x2a,
0x0f,
0x15,
0xe9,
0xfb,
0xf3,
0xdc,
0x0c,
0x03,
0xfc,
0xf7,
0x0c,
0x11,
0x18,
0xff,
0x08,
0x07,
0xef,
0xf5,
0x02,
0xfb,
0x0d,
0x0a,
0xf8,
0x0e,
0x05,
0xfa,
0xfb,
0xf5,
0xfb,
0x03,
0xf8,
0x13,
0x09,
0x05,
0xf9,
0xf5,
0xff,
0xf8,
0xf4,
0x04,
0x10,
0xfe,
0xf2,
0xe1,
0xf2,
0x1f,
0x13,
0xd1,
0x1d,
0xe7,
0xe8,
0xd6,
0xe2,
0x2b,
0xcc,
0xdc,
0x20,
0xe4,
0xfe,
0x02,
0xef,
0x00,
0x04,
0xfb,
0xfc,
0x0d,
0xf1,
0x02,
0xfb,
0xfb,
0x0a,
0xee,
0x01,
0xfc,
0xfc,
0x0e,
0x02,
0x03,
0x12,
0x16,
0x16,
0xff,
0xf4,
0xf7,
0xfb,
0xf4,
0xfe,
0x17,
0x15,
0xf7,
0xf4,
0xf8,
0xf7,
0xfd,
0xf8,
0xfa,
0xf2,
0x0f,
0xfb,
0x03,
0x02,
0x07,
0x12,
0xf5,
0xfe,
0xfa,
0xfe,
0x03,
0x0b,
0x02,
0x07,
0xff,
0xf2,
0x03,
0xfa,
0x0e,
0xf8,
0xfe,
0x00,
0x07,
0x11,
0xf9,
0xfa,
0x03,
0xed,
0x00,
0xfc,
0x04,
0x06,
0xed,
0xe8,
0x0a,
0x03,
0xfe,
0x0d,
0xff,
0xfc,
0x00,
0xfa,
0xfc,
0xfe,
0x0a,
0x03,
0xf6,
0xff,
0x09,
0x0a,
0x00,
0x08,
0x13,
0x0f,
0xf4,
0x02,
0x01,
0x03,
0x06,
0x03,
0xfe,
0xff,
0xfb,
0x0f,
0x00,
0x04,
0xf9,
0x01,
0xf3,
0x05,
0x02,
0xf4,
0x03,
0xfc,
0x05,
0xff,
0x01,
0x02,
0xfc,
0x0c,
0xff,
0xf4,
0xff,
0x03,
0xfe,
0xf9,
0x02,
0x0a,
0x0a,
0xfc,
0x04,
0xf7,
0xf8,
0x03,
0xfc,
0xfe,
0x08,
0xfc,
0xec,
0xf8,
0xf6,
0xfb,
0x0a,
0x00,
0xfa,
0xfa,
0xfb,
0xf8,
0x00,
0x03,
0x06,
0xf4,
0x00,
0x00,
0x02,
0xf1,
0xf6,
0x0f,
0x05,
0xf6,
0xfc,
0xfa,
0x01,
0x08,
0x06,
0xfb,
0x1d,
0xee,
0xf7,
0xef,
0x01,
0xe6,
0xf6,
0x12,
0xe1,
0x0a,
0xf6,
0x07,
0x06,
0x0c,
0x05,
0x08,
0x01,
0x02,
0x06,
0xff,
0x04,
0xf7,
0x01,
0x05,
0x03,
0x0d,
0x05,
0x00,
0x08,
0xfb,
0xff,
0xf6,
0x0a,
0xfa,
0xfb,
0x10,
0xf9,
0x08,
0xfb,
0x0c,
0x07,
0xf9,
0x02,
0x03,
0xf8,
0x07,
0xfe,
0xf1,
0x06,
0xf6,
0xfd,
0x10,
0x05,
0xfd,
0x02,
0x17,
0xe5,
0x0b,
0xf7,
0xfb,
0x0f,
0x01,
0x02,
0x0a,
0x00,
0xfb,
0x01,
0x01,
0xf3,
0x03,
0xfd,
0x01,
0x00,
0xf8,
0xff,
0x02,
0x0e,
0xff,
0x3c,
0xdf,
0xf7,
0x1e,
0x04,
0xd7,
0xf8,
0xed,
0xe6,
0x34,
0xd2,
0x02,
0x1c,
0xf9,
0x09,
0xe8,
0x0d,
0x20,
0xd3,
0x05,
0x1f,
0xc7,
0xc7,
0xd6,
0xd9,
0xfb,
0xef,
0x0c,
0xf9,
0xeb,
0xd9,
0x20,
0x13,
0xfb,
0xe4,
0x03,
0x04,
0x0b,
0xee,
0xe1,
0x01,
0x18,
0xec,
0xf5,
0x05,
0x0d,
0xf9,
0xf6,
0xfe,
0x11,
0xfd,
0xe7,
0xf1,
0x06,
0x05,
0x05,
0xe8,
0xf2,
0x01,
0xec,
0x0c,
0xfa,
0x0a,
0x07,
0xee,
0xf8,
0x1b,
0xf9,
0x07,
0xfd,
0x03,
0x0f,
0xcc,
0xde,
0x17,
0xe4,
0xfe,
0xf6,
0x1f,
0x09,
0x03,
0xef,
0xf8,
0xfc,
0xe2,
0xd8,
0xdd,
0xf6,
0x17,
0xf9,
0x1b,
0x2b,
0xd1,
0x82,
0xc2,
0xbb,
0xeb,
0xfc,
0x06,
0x22,
0x0a,
0xfb,
0x1c,
0xff,
0x1a,
0xfc,
0xf1,
0x07,
0x07,
0x06,
0xfd,
0x0c,
0x00,
0x03,
0xec,
0xf0,
0xf9,
0xf0,
0x00,
0x0c,
0xf0,
0x05,
0xed,
0xf6,
0xfd,
0x0e,
0x0a,
0x0f,
0xfb,
0xd2,
0xd7,
0xcb,
0xde,
0xf1,
0xe9,
0xfb,
0xd0,
0xe9,
0xf9,
0xef,
0x13,
0xf0,
0xf6,
0x0f,
0xfe,
0xf8,
0x0c,
0x09,
0x07,
0x08,
0xe7,
0xe5,
0x01,
0x06,
0xf4,
0xdc,
0xf4,
0x18,
0x16,
0xe9,
0x04,
0xc9,
0x19,
0xf0,
0xe0,
0xed,
0xa4,
0x16,
0x17,
0xf9,
0xf9,
0x16,
0x0d,
0x1d,
0xd9,
0x04,
0x05,
0x11,
0xf1,
0x08,
0xf9,
0x2c,
0x02,
0xfe,
0x17,
0xf8,
0x21,
0x0a,
0xf0,
0xf6,
0xf5,
0x01,
0x1f,
0x10,
0x42,
0x00,
0x0e,
0xec,
0xfa,
0xf5,
0x0a,
0x41,
0x09,
0x09,
0xef,
0xc0,
0x0f,
0xd8,
0xf5,
0x03,
0xfc,
0x09,
0xf7,
0xdb,
0xf0,
0xe7,
0xd4,
0x3e,
0x23,
0x07,
0xe3,
0xf6,
0x03,
0xfd,
0x18,
0x13,
0x05,
0x0e,
0xf6,
0xf2,
0x18,
0xeb,
0x28,
0xf1,
0x05,
0x11,
0xff,
0xf3,
0xf4,
0x17,
0xf3,
0x17,
0x03,
0x2d,
0x1d,
0xf3,
0x17,
0x04,
0xee,
0x03,
0xf7,
0xfb,
0x00,
0xdf,
0xcb,
0xf7,
0x01,
0x01,
0xf7,
0x00,
0x01,
0xfd,
0xf8,
0xea,
0xf3,
0x01,
0x06,
0x08,
0x01,
0xfc,
0x00,
0x00,
0x09,
0x08,
0xf8,
0xf5,
0xee,
0xfb,
0xfe,
0xe7,
0x14,
0xf8,
0x0b,
0xf9,
0xfd,
0x05,
0xf9,
0x07,
0xf8,
0x06,
0x02,
0xfd,
0x05,
0x04,
0x09,
0x00,
0x09,
0x0a,
0xfd,
0xf9,
0xfb,
0x04,
0x0d,
0xfb,
0x08,
0xf4,
0xe2,
0xda,
0xc4,
0xe8,
0x1b,
0xde,
0xf7,
0xd4,
0xf7,
0x0b,
0xe5,
0x0a,
0x0d,
0x24,
0xf5,
0x01,
0xfc,
0xfa,
0x0d,
0x06,
0xfc,
0x06,
0xfb,
0xfe,
0xff,
0xf9,
0x01,
0x02,
0xf8,
0x01,
0xf9,
0x02,
0xf8,
0xfd,
0x00,
0x00,
0xfc,
0xf2,
0x11,
0x00,
0x01,
0xed,
0x00,
0xfa,
0x01,
0xf8,
0x00,
0xfe,
0xf6,
0x08,
0xf9,
0x0a,
0xf6,
0xfd,
0x1d,
0x03,
0x05,
0x06,
0x02,
0x06,
0x00,
0xff,
0x00,
0xf7,
0xf9,
0xff,
0x0e,
0x02,
0x03,
0x0b,
0x06,
0xfe,
0x02,
0x09,
0xf8,
0x05,
0x07,
0x06,
0x03,
0xfe,
0x05,
0x0c,
0x11,
0x09,
0x01,
0xff,
0xff,
0x03,
0x0a,
0xf3,
0x01,
0x02,
0x03,
0x01,
0x02,
0xfc,
0x1e,
0x03,
0x06,
0x02,
0xff,
0x01,
0xf2,
0xfc,
0xfd,
0xf7,
0xfc,
0xff,
0x0b,
0x04,
0x08,
0xf9,
0xfd,
0x01,
0x05,
0x00,
0xfb,
0xf8,
0xf2,
0x00,
0xfe,
0x08,
0xff,
0x05,
0x01,
0x03,
0x05,
0xff,
0x01,
0x02,
0xf4,
0xfb,
0xf7,
0x04,
0x12,
0x04,
0xfc,
0xfd,
0x05,
0x07,
0xfb,
0xfd,
0xfa,
0xfd,
0xff,
0x08,
0x04,
0xfd,
0xff,
0x06,
0x0a,
0x02,
0xf8,
0xf4,
0xfe,
0xfe,
0xfe,
0xfe,
0x09,
0x06,
0x03,
0x0b,
0xfc,
0x04,
0x04,
0x05,
0xf8,
0x03,
0x02,
0x03,
0x01,
0x05,
0xfa,
0xff,
0x03,
0xfe,
0xf5,
0x05,
0xf6,
0x02,
0xfc,
0x08,
0xef,
0x03,
0xfb,
0x03,
0x05,
0x01,
0x03,
0xfe,
0x16,
0xfa,
0xe5,
0xda,
0xd6,
0xec,
0x16,
0xe5,
0xef,
0xde,
0xe9,
0x0b,
0xe4,
0x0e,
0x12,
0x2a,
0xfc,
0xec,
0x10,
0x04,
0xff,
0x03,
0xf4,
0x09,
0x07,
0x04,
0xfd,
0x02,
0x05,
0x01,
0x05,
0xfb,
0x05,
0xfc,
0x04,
0x0b,
0xee,
0xf9,
0x02,
0x02,
0x09,
0xff,
0x00,
0xfe,
0xff,
0x02,
0x05,
0x03,
0x03,
0x02,
0xf7,
0x09,
0x05,
0x00,
0x00,
0x00,
0x05,
0x03,
0x04,
0xfc,
0xfe,
0x0f,
0xff,
0x0f,
0xf1,
0x03,
0xf3,
0xfe,
0xff,
0x00,
0xfd,
0x01,
0xe8,
0xfb,
0xf5,
0x10,
0xf8,
0x01,
0xff,
0x02,
0xfd,
0x03,
0xfd,
0x02,
0xec,
0xf8,
0x00,
0xf4,
0x05,
0x01,
0x08,
0x03,
0x07,
0xff,
0xfa,
0xf7,
0x14,
0xed,
0xe4,
0xe0,
0xf4,
0xe1,
0x1f,
0xe4,
0xee,
0xe0,
0x0f,
0x1c,
0xe0,
0x34,
0x0d,
0x22,
0xfb,
0x03,
0x06,
0x06,
0x03,
0x02,
0x09,
0x04,
0x04,
0xff,
0xfd,
0xfc,
0xf9,
0x02,
0x00,
0xfd,
0xfc,
0xfc,
0x04,
0xfe,
0xf7,
0x04,
0x02,
0x05,
0x02,
0x03,
0x02,
0xf0,
0xfe,
0xff,
0x00,
0x08,
0xfb,
0x01,
0xfb,
0xfe,
0x15,
0x04,
0xf9,
0x09,
0x04,
0xff,
0xfe,
0x09,
0xfd,
0xfe,
0xff,
0x09,
0xfe,
0xff,
0xf1,
0x05,
0x08,
0xff,
0x05,
0x0f,
0xfd,
0x07,
0xfd,
0x01,
0x07,
0x00,
0xfe,
0x03,
0xfa,
0x03,
0xf9,
0xfd,
0x0e,
0xfe,
0xff,
0xfe,
0xfb,
0x02,
0x00,
0xfa,
0x07,
0xfb,
0x03,
0xfb,
0x0e,
0x03,
0xed,
0xfa,
0xf2,
0xff,
0x04,
0xf2,
0x1e,
0xff,
0x04,
0xf8,
0x03,
0x00,
0xfe,
0x01,
0x15,
0xfa,
0xfe,
0x07,
0x15,
0xf8,
0x08,
0x02,
0xfb,
0xfa,
0xf9,
0x05,
0xf5,
0xfe,
0x04,
0x03,
0xf3,
0xe5,
0x08,
0xf7,
0x0b,
0x07,
0x0a,
0x11,
0x0e,
0x01,
0xf9,
0xfe,
0xfc,
0xf0,
0x03,
0x01,
0xf6,
0x04,
0xee,
0x0c,
0xf6,
0x06,
0x08,
0x0e,
0xf8,
0xff,
0x02,
0x13,
0x00,
0x06,
0xfe,
0x05,
0x01,
0xfb,
0xf9,
0xfa,
0xcc,
0x07,
0x0b,
0x1b,
0xfd,
0xff,
0x06,
0xeb,
0x08,
0x0b,
0x01,
0x00,
0x24,
0xf4,
0xe1,
0xdf,
0xf6,
0xe4,
0x15,
0xd3,
0xde,
0xd9,
0xef,
0x23,
0xe1,
0x38,
0x05,
0x20,
0x09,
0x02,
0xfd,
0xf8,
0xfa,
0x09,
0xf9,
0xf6,
0xfd,
0xfc,
0xf0,
0xfe,
0xfb,
0xef,
0x02,
0x02,
0xfe,
0xf0,
0xf6,
0xf6,
0xfc,
0x03,
0x12,
0xf2,
0xf2,
0xf7,
0x06,
0x0e,
0x05,
0x0a,
0xf6,
0xff,
0xf5,
0x04,
0x01,
0xff,
0xee,
0xf7,
0xfd,
0xed,
0xfc,
0x06,
0x03,
0x00,
0x03,
0x04,
0x04,
0xfc,
0x07,
0xfd,
0xe5,
0xfc,
0x01,
0xff,
0xf6,
0xf6,
0xf5,
0x03,
0xff,
0x03,
0x0f,
0x0d,
0xf9,
0xef,
0x02,
0xf9,
0xfc,
0x09,
0xf5,
0x05,
0x02,
0x0d,
0xea,
0x0d,
0xfd,
0x07,
0x02,
0x0c,
0x09,
0xf4,
0x01,
0xff,
0xfa,
0x02,
0x01,
0x01,
0xff,
0x01,
0x00,
0xf8,
0x00,
0x00,
0x00,
0x07,
0xf5,
0xdf,
0xf6,
0x0b,
0x0b,
0xfe,
0xdf,
0x07,
0x03,
0x05,
0x04,
0xf9,
0x00,
0x09,
0x00,
0xef,
0xfb,
0x00,
0xfd,
0xfe,
0xf5,
0xf4,
0x09,
0xfc,
0xf6,
0x11,
0xff,
0x03,
0xf6,
0x18,
0x0c,
0x01,
0xff,
0xfc,
0xf1,
0xfe,
0xfa,
0xfc,
0x0a,
0x0c,
0xf8,
0xff,
0x05,
0x06,
0x0d,
0x01,
0x01,
0x0e,
0xf4,
0x10,
0xf9,
0x05,
0x01,
0x0c,
0x03,
0xf9,
0xf7,
0xf5,
0xfc,
0x0b,
0xfd,
0xf4,
0x03,
0x01,
0xf4,
0xf5,
0x15,
0x06,
0x00,
0xea,
0xf1,
0x01,
0x0c,
0xfa,
0xed,
0xe7,
0xfa,
0xe3,
0xed,
0x01,
0x08,
0xf8,
0x06,
0xf8,
0xfd,
0x07,
0xfc,
0xf4,
0xf3,
0x04,
0x0b,
0x05,
0xf9,
0xfe,
0x06,
0xfc,
0xfe,
0xfd,
0x03,
0xff,
0x03,
0x0f,
0xed,
0x04,
0xf6,
0x03,
0xf9,
0x09,
0x01,
0x10,
0x0a,
0x01,
0xed,
0xfc,
0x10,
0x01,
0xf5,
0xf2,
0xfa,
0x04,
0xfe,
0xfc,
0x0b,
0xf9,
0x02,
0xf2,
0x02,
0xf6,
0xff,
0xfa,
0xfa,
0x04,
0x00,
0xfa,
0xf3,
0xf0,
0xfc,
0x06,
0x04,
0xfc,
0xf8,
0x04,
0xfc,
0xfc,
0xff,
0x05,
0x14,
0x13,
0xb6,
0xca,
0x17,
0xf5,
0x0c,
0xfa,
0x01,
0xfa,
0xfb,
0x08,
0x09,
0x0a,
0xd1,
0xfa,
0xd8,
0xe8,
0xa8,
0xf9,
0x03,
0xf3,
0x01,
0xea,
0x09,
0x18,
0xed,
0xf1,
0x07,
0xfe,
0xe6,
0xf1,
0xfb,
0x00,
0xe1,
0x4d,
0xf3,
0x01,
0xfc,
0xf8,
0xfd,
0xf7,
0xe7,
0x03,
0xfb,
0xe9,
0xef,
0x05,
0xf0,
0xef,
0x0e,
0xe3,
0x0c,
0x03,
0xf4,
0xff,
0x1c,
0x0d,
0xef,
0xe8,
0x05,
0x14,
0x02,
0x05,
0xee,
0xf8,
0x16,
0x09,
0x1d,
0xff,
0xf9,
0x10,
0x00,
0x13,
0x07,
0xeb,
0x13,
0x01,
0x15,
0xd9,
0xf7,
0xdd,
0xeb,
0xdc,
0x08,
0xfa,
0xea,
0x0b,
0xea,
0xdb,
0x99,
0x02,
0xe5,
0xe3,
0xed,
0xea,
0x04,
0xe9,
0xf6,
0x16,
0xfc,
0xe3,
0x0b,
0x19,
0xeb,
0xd4,
0xdb,
0xf4,
0xe9,
0xf5,
0xc0,
0xe4,
0x11,
0x0b,
0xfe,
0x04,
0xf4,
0x0b,
0xf9,
0xf2,
0x0b,
0x06,
0xee,
0x08,
0xfa,
0xe4,
0x10,
0x10,
0xe0,
0xe9,
0x18,
0xf6,
0x03,
0xf5,
0xea,
0xfd,
0xe4,
0x13,
0xf7,
0xd9,
0x12,
0xf5,
0x1b,
0xfd,
0x17,
0xea,
0xf2,
0xde,
0xdd,
0x02,
0xf9,
0xee,
0xfa,
0xf4,
0xf2,
0x1c,
0xfd,
0xdf,
0xdb,
0xe0,
0xf3,
0xfa,
0xe2,
0x0a,
0x17,
0xf5,
0xfe,
0x10,
0xdd,
0xd1,
0x07,
0xfe,
0xfd,
0xee,
0xdb,
0xdb,
0xf6,
0xf3,
0xf9,
0xfa,
0xf7,
0xc2,
0x00,
0x12,
0xf1,
0x11,
0x27,
0x06,
0x0c,
0x2b,
0xeb,
0x1f,
0x11,
0xed,
0x1c,
0xfd,
0xea,
0x02,
0x1c,
0xd6,
0x10,
0x18,
0xe8,
0x31,
0x28,
0xf1,
0xd5,
0x06,
0x02,
0xf4,
0xe9,
0x0a,
0xff,
0x01,
0xfa,
0xfc,
0x0e,
0xf2,
0xf2,
0xee,
0x07,
0x0d,
0xd3,
0xe9,
0x04,
0xe4,
0x12,
0x0e,
0x04,
0xff,
0xfd,
0x07,
0xb8,
0x06,
0x06,
0x06,
0x03,
0x09,
0xe8,
0x1b,
0x0a,
0xe8,
0xe9,
0x01,
0x37,
0x07,
0xf1,
0xe6,
0xea,
0xe2,
0xf7,
0xe8,
0x25,
0x07,
0xed,
0x17,
0x03,
0xfe,
0xf8,
0x06,
0x00,
0x06,
0xfa,
0x01,
0xff,
0x02,
0xfa,
0x06,
0x07,
0x08,
0x09,
0x03,
0xf7,
0x09,
0x07,
0x06,
0xea,
0xfb,
0xf9,
0x01,
0x05,
0xf9,
0x03,
0x00,
0xfe,
0xfd,
0x04,
0xfd,
0x05,
0x07,
0xf0,
0x00,
0x1f,
0xff,
0x0f,
0xf3,
0x03,
0xf9,
0x03,
0x04,
0x01,
0xfa,
0xfe,
0xfd,
0x17,
0xe3,
0x0e,
0xea,
0x14,
0x20,
0xee,
0x14,
0xd8,
0xe0,
0xe0,
0xd9,
0x12,
0xf6,
0xeb,
0xfc,
0x05,
0xff,
0xf1,
0x0a,
0x09,
0xf7,
0xf5,
0xff,
0x02,
0x02,
0x07,
0x01,
0xfa,
0x0d,
0x03,
0xfd,
0x01,
0xf8,
0xfd,
0xf1,
0xf1,
0xf6,
0xfa,
0xee,
0xf9,
0x08,
0xfe,
0x07,
0x01,
0xfd,
0x0c,
0xff,
0xfd,
0x01,
0x05,
0x07,
0x07,
0x06,
0xf6,
0x01,
0x03,
0x01,
0x02,
0xf6,
0xf6,
0xf9,
0xf2,
0x04,
0x02,
0xfc,
0xfc,
0xfe,
0x01,
0xfb,
0xfe,
0xf5,
0x08,
0x0a,
0x02,
0x10,
0xff,
0x0c,
0x06,
0x00,
0xff,
0xfd,
0x08,
0x09,
0xfe,
0x0d,
0x0c,
0xed,
0x09,
0x0b,
0x0a,
0xfa,
0xf7,
0xf6,
0x00,
0x0c,
0xf3,
0x01,
0x05,
0xf7,
0xeb,
0xff,
0x01,
0xfe,
0xf7,
0xfe,
0xf7,
0xff,
0x03,
0xed,
0xfb,
0xfc,
0xfd,
0x06,
0xf5,
0xfe,
0x01,
0xfd,
0xf8,
0xf5,
0xff,
0x01,
0xfd,
0x00,
0x02,
0xf8,
0x03,
0x01,
0x0d,
0x10,
0x07,
0x12,
0x0f,
0xf8,
0x08,
0xf7,
0x03,
0x00,
0x06,
0xf8,
0xf8,
0xf2,
0xf5,
0xfa,
0x0b,
0x01,
0xff,
0x04,
0x03,
0x07,
0x11,
0xf9,
0x02,
0xff,
0x00,
0x04,
0x01,
0xfa,
0x05,
0x09,
0x08,
0xff,
0x02,
0x0c,
0xfb,
0x00,
0xff,
0x04,
0xfd,
0xfa,
0xfe,
0xfb,
0xfb,
0xec,
0xf6,
0xff,
0xff,
0x07,
0xfe,
0xff,
0x0c,
0x00,
0x07,
0x05,
0xfa,
0xfd,
0xfa,
0xf5,
0x01,
0xfc,
0xfd,
0xf6,
0x35,
0xe3,
0x1a,
0xde,
0x12,
0x2b,
0xed,
0x14,
0xd7,
0xd3,
0xe6,
0xdd,
0x13,
0xf5,
0xee,
0xf0,
0x0a,
0xf6,
0x07,
0x04,
0xfa,
0x03,
0x0a,
0xfc,
0x05,
0x08,
0xfa,
0xfc,
0xfa,
0xf9,
0xfb,
0x04,
0xfe,
0x03,
0x0a,
0x04,
0xef,
0x09,
0xfa,
0xf7,
0xfd,
0xfd,
0x04,
0x02,
0x02,
0xfd,
0xfd,
0x01,
0xfd,
0xef,
0x0c,
0xfc,
0x02,
0x08,
0xe5,
0xf0,
0x03,
0x02,
0x01,
0xfa,
0x00,
0x0d,
0x0b,
0x02,
0x15,
0xf8,
0xf9,
0xfe,
0xff,
0xf8,
0xf7,
0xf9,
0xfc,
0x0d,
0x06,
0x0b,
0x00,
0x02,
0x01,
0x01,
0x02,
0x0d,
0xea,
0x04,
0x00,
0xf3,
0x05,
0xfd,
0x02,
0xf7,
0xfb,
0xfb,
0xfb,
0x0b,
0xf6,
0xf0,
0x29,
0xda,
0x22,
0xe8,
0x18,
0x2e,
0xfd,
0x07,
0xd0,
0xe2,
0xe1,
0xe4,
0x13,
0xf6,
0xe2,
0x0a,
0xfc,
0x02,
0xff,
0xfa,
0xf4,
0x07,
0xf3,
0xf9,
0xfd,
0x01,
0xfb,
0x03,
0xff,
0x00,
0x01,
0x04,
0x02,
0x01,
0x00,
0x07,
0x00,
0xfe,
0x18,
0x09,
0x13,
0x0e,
0xfa,
0xf9,
0xff,
0xf7,
0x04,
0xfe,
0xfc,
0x01,
0xfe,
0xf1,
0xfa,
0x02,
0xef,
0x03,
0x07,
0x0e,
0xfe,
0x00,
0x01,
0x0b,
0x0a,
0x01,
0xfb,
0x08,
0xf4,
0x01,
0x05,
0x03,
0xf3,
0xfd,
0x04,
0xfe,
0xf8,
0x02,
0x03,
0x04,
0xfd,
0xf9,
0x04,
0x04,
0xfb,
0xff,
0xfe,
0x09,
0x01,
0xf9,
0xf8,
0x04,
0xfd,
0x02,
0x05,
0xfe,
0xfd,
0xff,
0x00,
0x0b,
0xf9,
0xfb,
0xff,
0xfa,
0xfb,
0xfe,
0xff,
0x04,
0xf8,
0xfd,
0x07,
0x01,
0x02,
0x03,
0x13,
0xfc,
0x00,
0x05,
0xfe,
0x09,
0x08,
0xfe,
0xff,
0x00,
0xf8,
0xfe,
0x00,
0x07,
0xf0,
0x0b,
0xfc,
0x05,
0x0b,
0xf5,
0x05,
0xfd,
0x09,
0x08,
0x10,
0x06,
0xfc,
0x0c,
0x04,
0xfa,
0xff,
0xfc,
0xf3,
0x08,
0xf4,
0x0d,
0xf6,
0x00,
0xf7,
0xf8,
0xfd,
0x07,
0xff,
0xfd,
0xfe,
0xfa,
0x02,
0xfa,
0xf7,
0x10,
0xe8,
0x0f,
0x11,
0xf7,
0x01,
0xfa,
0xf4,
0xfd,
0xdd,
0xf7,
0xfb,
0xf9,
0xff,
0xfc,
0x09,
0xd9,
0x1d,
0xe7,
0x28,
0x26,
0xe2,
0x2e,
0xe9,
0xf0,
0xf8,
0xee,
0x1d,
0xe4,
0xe0,
0xf8,
0xfc,
0x03,
0x06,
0xfc,
0x0a,
0xf8,
0x08,
0xff,
0xfa,
0xee,
0x07,
0x0d,
0x00,
0x01,
0x03,
0xf7,
0xf9,
0xfb,
0x03,
0xfc,
0x11,
0xfe,
0x17,
0x0b,
0x04,
0xfa,
0xff,
0x03,
0x14,
0xf6,
0x01,
0x04,
0xf8,
0xfe,
0x01,
0xfb,
0x0e,
0xf5,
0x07,
0xfc,
0x01,
0x01,
0xfd,
0xfb,
0x00,
0xf7,
0x08,
0xfd,
0x00,
0x00,
0x10,
0xff,
0x0b,
0x01,
0xfb,
0xf8,
0xf5,
0xfe,
0x01,
0x03,
0x11,
0x02,
0x07,
0xfc,
0xfd,
0xeb,
0x04,
0x0c,
0xfc,
0xf2,
0x0a,
0x0e,
0xfd,
0xfa,
0xf4,
0x02,
0xf0,
0xfe,
0xef,
0xff,
0x04,
0x0a,
0xf8,
0xfa,
0x07,
0x06,
0xf8,
0x03,
0x01,
0x04,
0x07,
0x07,
0x03,
0x06,
0xfa,
0x07,
0x04,
0xf8,
0x03,
0x03,
0x0c,
0x0a,
0xfc,
0xfb,
0x07,
0x02,
0x00,
0x04,
0xf8,
0xfc,
0xfc,
0xfc,
0x02,
0xf3,
0x08,
0x01,
0x15,
0xee,
0x09,
0xfe,
0x04,
0x01,
0xfd,
0xfd,
0xfc,
0xfc,
0xfd,
0xfb,
0xfb,
0x06,
0xf7,
0xfe,
0x00,
0xfc,
0x02,
0xfc,
0x06,
0x07,
0xf6,
0xfa,
0xf3,
0x01,
0xf6,
0xea,
0xfe,
0xf7,
0xf9,
0xf9,
0xff,
0xfe,
0xee,
0xfb,
0x01,
0xfa,
0x01,
0xfe,
0xfd,
0x05,
0x04,
0x01,
0x15,
0xf6,
0xe5,
0xe1,
0x0c,
0x05,
0xe2,
0xee,
0x08,
0xe6,
0xf4,
0x0b,
0x04,
0xee,
0x01,
0x02,
0x08,
0x0f,
0x01,
0x07,
0xfa,
0xff,
0x01,
0xfc,
0xfd,
0x07,
0x04,
0xf9,
0xff,
0xff,
0x04,
0x07,
0x03,
0xf7,
0xf9,
0x0c,
0x04,
0x06,
0x02,
0xff,
0xfe,
0x0a,
0x08,
0x00,
0xfc,
0xf8,
0x00,
0x07,
0x07,
0x03,
0xf6,
0xf5,
0xff,
0x01,
0xe8,
0xef,
0xfc,
0x09,
0x04,
0x09,
0x06,
0xfc,
0xfb,
0x08,
0x06,
0xf9,
0x00,
0xff,
0xf6,
0x0a,
0x06,
0xfe,
0x06,
0x04,
0xfd,
0xff,
0x04,
0x02,
0x04,
0x03,
0xff,
0xee,
0xf7,
0x01,
0xe2,
0x2e,
0xed,
0x01,
0xf3,
0x06,
0xf6,
0xf6,
0xe1,
0xe9,
0xb8,
0x07,
0xe9,
0x17,
0xef,
0x0f,
0xf0,
0xfc,
0xf2,
0x02,
0x0e,
0x1d,
0xc7,
0xe3,
0x26,
0xe5,
0xd3,
0xdf,
0xff,
0x01,
0xfb,
0x02,
0x18,
0xc0,
0x0c,
0xf9,
0xf1,
0x05,
0x06,
0xfd,
0xe3,
0xfd,
0xd5,
0x09,
0x0a,
0x02,
0xfd,
0x06,
0xf1,
0x07,
0x0e,
0xda,
0xf2,
0x0b,
0x09,
0x0b,
0xe6,
0xf9,
0xd8,
0xff,
0xf2,
0x04,
0xfc,
0x15,
0x07,
0xde,
0x2a,
0xe4,
0x0c,
0x0d,
0xf4,
0x06,
0xf2,
0xfc,
0xee,
0x11,
0x21,
0x04,
0x07,
0xfa,
0x01,
0xd7,
0xfb,
0xfc,
0xdd,
0xda,
0x12,
0xc2,
0xf7,
0xf3,
0xf6,
0xfc,
0x16,
0x0f,
0xf8,
0xe9,
0x14,
0x03,
0x0b,
0x02,
0x08,
0xec,
0x08,
0xfa,
0x11,
0xfe,
0xf1,
0xe6,
0xee,
0xe9,
0x01,
0xf9,
0xfb,
0x0b,
0x16,
0xfa,
0xf5,
0xf5,
0x03,
0xfc,
0x03,
0xfc,
0xf7,
0x03,
0x08,
0x1b,
0xeb,
0xfc,
0xef,
0xf3,
0xf6,
0xf2,
0x19,
0x00,
0xf7,
0x0a,
0xba,
0xc4,
0xe2,
0xed,
0x0b,
0xff,
0x09,
0xf4,
0xf3,
0x18,
0x10,
0xeb,
0xf2,
0xdb,
0x03,
0xc7,
0xe5,
0x05,
0xff,
0x15,
0x53,
0xd8,
0xfe,
0xf5,
0x10,
0xe7,
0xe3,
0xe8,
0xda,
0xf7,
0xd3,
0xe8,
0xdf,
0xec,
0xf0,
0x23,
0x06,
0xf4,
0x11,
0xef,
0xfd,
0x0f,
0x19,
0x02,
0x14,
0x14,
0x03,
0x0b,
0x27,
0xfd,
0xe8,
0x00,
0x0b,
0x02,
0x3f,
0x0e,
0x09,
0xf8,
0xf9,
0x15,
0xeb,
0xe8,
0x23,
0x09,
0x08,
0x0c,
0xe5,
0xf3,
0x18,
0xf3,
0xec,
0xfb,
0xf3,
0xe3,
0xdb,
0xea,
0x02,
0x16,
0x06,
0x0b,
0xdf,
0xe2,
0x1a,
0x01,
0xfe,
0xf9,
0x0a,
0x08,
0x11,
0x01,
0x09,
0xf8,
0x15,
0x1f,
0xff,
0xfe,
0x12,
0xf1,
0xea,
0x08,
0x03,
0xdb,
0x23,
0xeb,
0x14,
0x11,
0x0b,
0x0d,
0x04,
0xf0,
0xf3,
0x09,
0x13,
0xc5,
0xe8,
0xd4,
0xfd,
0xfd,
0x06,
0x04,
0xf9,
0x04,
0xee,
0xff,
0xf4,
0x01,
0x02,
0xfc,
0xfe,
0x03,
0x03,
0xf4,
0xe3,
0x03,
0x02,
0xed,
0x01,
0xfc,
0xf8,
0xff,
0x07,
0x01,
0xf7,
0xfe,
0x03,
0xfb,
0x02,
0xff,
0xfe,
0x00,
0xf8,
0xf6,
0x05,
0xfd,
0xf2,
0xff,
0xf9,
0x00,
0xf9,
0x02,
0x00,
0x00,
0xfc,
0xfc,
0xf3,
0xef,
0x14,
0x13,
0xd2,
0xdd,
0xdb,
0x20,
0x15,
0xdf,
0xeb,
0x0f,
0x15,
0xe3,
0xef,
0x0a,
0x01,
0xff,
0x02,
0xf5,
0xfb,
0xf7,
0x0b,
0x04,
0xf6,
0x00,
0x01,
0xfe,
0x03,
0xfc,
0xfe,
0xfa,
0xfa,
0xfd,
0x04,
0xfa,
0x01,
0x09,
0x0d,
0x00,
0xef,
0x02,
0x09,
0x00,
0xfe,
0x00,
0xff,
0xf9,
0xf5,
0x03,
0x05,
0x07,
0x06,
0xfc,
0x00,
0x01,
0x10,
0xfc,
0x02,
0x05,
0x01,
0xfe,
0x0d,
0x07,
0xef,
0xfe,
0x03,
0x0f,
0x04,
0xfe,
0xfc,
0xfd,
0x09,
0xfc,
0x09,
0xfd,
0x00,
0x05,
0x02,
0xf9,
0x05,
0x05,
0x02,
0x05,
0x07,
0x06,
0x0f,
0x06,
0xff,
0xfb,
0x0c,
0xff,
0x02,
0x05,
0x0c,
0xfd,
0xfc,
0x03,
0x02,
0x22,
0xf1,
0x07,
0xea,
0xff,
0x1c,
0x02,
0x0a,
0x05,
0xff,
0xfe,
0xf6,
0x13,
0x05,
0x03,
0xfb,
0x14,
0xfb,
0x04,
0xf7,
0x00,
0x02,
0x02,
0xfd,
0x01,
0xff,
0xfb,
0xfd,
0xfb,
0xfd,
0xff,
0xec,
0xfc,
0x05,
0x0d,
0x0e,
0x11,
0x04,
0xfb,
0x03,
0xfc,
0xf8,
0x0d,
0x04,
0x00,
0x05,
0x00,
0x01,
0x04,
0xfe,
0x06,
0x07,
0x04,
0xf5,
0x00,
0xfb,
0x00,
0x02,
0x04,
0x00,
0xf5,
0xfa,
0x00,
0x00,
0x08,
0x05,
0x07,
0x12,
0x06,
0x13,
0xf8,
0xf0,
0x03,
0x00,
0x02,
0x02,
0x10,
0xf4,
0xff,
0x03,
0x09,
0x04,
0x0b,
0x00,
0xff,
0x0b,
0xff,
0xfc,
0x01,
0xfe,
0x00,
0xfb,
0x08,
0xed,
0xe8,
0x24,
0x16,
0xe6,
0xd9,
0xce,
0x23,
0x19,
0xea,
0xee,
0x1f,
0x19,
0xe2,
0xee,
0x11,
0xfc,
0xf9,
0x06,
0x1d,
0xff,
0x02,
0x09,
0x00,
0x05,
0xf7,
0x03,
0xfc,
0x01,
0x09,
0x0b,
0xfa,
0xf5,
0xfd,
0xfe,
0xf3,
0xff,
0x06,
0xf9,
0xff,
0x00,
0xfd,
0x03,
0x04,
0xfd,
0xfb,
0x03,
0xee,
0x01,
0xff,
0x07,
0x05,
0xff,
0x00,
0x00,
0x02,
0x08,
0xfc,
0xff,
0x07,
0x02,
0xfe,
0x06,
0x03,
0x0b,
0xfa,
0x03,
0x06,
0x04,
0xfe,
0x07,
0x05,
0x09,
0x00,
0x04,
0x03,
0x00,
0xfe,
0xf7,
0xf3,
0x09,
0xf2,
0xf5,
0x0c,
0xff,
0x01,
0x02,
0xfa,
0xff,
0x05,
0xf3,
0xf0,
0xfd,
0x00,
0x04,
0xff,
0xf2,
0xfe,
0x1f,
0x2f,
0xde,
0xdb,
0xdf,
0x22,
0x1e,
0xe3,
0xee,
0x32,
0x13,
0xdf,
0xf9,
0x1a,
0xff,
0x00,
0x03,
0xfa,
0x06,
0x03,
0x01,
0xfe,
0x01,
0xfd,
0x01,
0x06,
0x02,
0xfd,
0xf7,
0xfe,
0xf8,
0x06,
0x02,
0x0e,
0xf6,
0x01,
0x02,
0x06,
0xf5,
0xfc,
0x01,
0xfd,
0x04,
0x06,
0x03,
0x01,
0xf9,
0xfd,
0x04,
0xfc,
0xfe,
0x03,
0xfd,
0xff,
0x03,
0xfb,
0xff,
0x00,
0x02,
0x07,
0x01,
0x07,
0x03,
0xf6,
0x01,
0xe6,
0xff,
0x08,
0x07,
0x00,
0x0d,
0x04,
0xfe,
0xfb,
0x03,
0x07,
0x02,
0x05,
0x04,
0xfb,
0xfb,
0xf8,
0xfc,
0x06,
0xf7,
0x02,
0xfa,
0xfb,
0x00,
0xf5,
0x01,
0x09,
0xff,
0xee,
0x04,
0x01,
0xf6,
0xe6,
0x0c,
0xfc,
0x03,
0x03,
0x05,
0x05,
0x06,
0xfc,
0x03,
0xfe,
0x07,
0x08,
0xeb,
0xf7,
0x00,
0x28,
0x09,
0xf6,
0xfa,
0x01,
0xfc,
0xfb,
0xf1,
0x09,
0xff,
0xfa,
0xf2,
0x13,
0x0f,
0x06,
0x09,
0x06,
0x07,
0x03,
0xfd,
0xfe,
0x0e,
0xf3,
0x00,
0xf0,
0x03,
0x05,
0x06,
0x07,
0xf6,
0x06,
0xfa,
0xe0,
0xf5,
0x04,
0xed,
0x02,
0x07,
0x00,
0xf8,
0x0d,
0x05,
0x06,
0xf6,
0x05,
0xe5,
0xfe,
0xfb,
0xff,
0xf7,
0x06,
0xe6,
0x02,
0xf0,
0x04,
0xf2,
0xfe,
0x00,
0xfe,
0x01,
0x05,
0xe0,
0x14,
0x16,
0x1c,
0xef,
0xdc,
0xce,
0x24,
0x17,
0xeb,
0xfa,
0x2b,
0x12,
0xdb,
0xdc,
0x14,
0xf8,
0x05,
0x01,
0xff,
0xfe,
0x03,
0x03,
0xfb,
0x05,
0x04,
0x01,
0xfc,
0x01,
0xfe,
0xf8,
0xf8,
0x05,
0xf2,
0x10,
0xfa,
0xfe,
0xf2,
0xe5,
0x05,
0x09,
0xf6,
0xeb,
0x03,
0x0d,
0xfd,
0xfa,
0x1a,
0x03,
0x07,
0xfe,
0xff,
0xff,
0xfc,
0xfb,
0x01,
0x01,
0x03,
0xfd,
0xfb,
0x03,
0x01,
0x06,
0xf8,
0xf7,
0x0b,
0xf5,
0xfb,
0xff,
0x08,
0xf0,
0xff,
0x01,
0x04,
0x08,
0x01,
0x04,
0x00,
0xf9,
0xf8,
0xf6,
0xfa,
0xf6,
0x00,
0x06,
0xfb,
0x0d,
0x02,
0xf5,
0xff,
0x02,
0x01,
0xfd,
0xfd,
0xf9,
0xfc,
0xf7,
0xf7,
0xf8,
0xf4,
0xfb,
0x0b,
0xfd,
0xff,
0x07,
0x00,
0x04,
0xfe,
0xff,
0xfd,
0xfe,
0xf3,
0xfb,
0xf3,
0x08,
0x0d,
0x00,
0x00,
0xf4,
0x01,
0x05,
0xfc,
0x05,
0x03,
0x05,
0x09,
0xfe,
0x03,
0xfd,
0x04,
0x08,
0x05,
0xf9,
0xf4,
0x04,
0xfd,
0x09,
0x09,
0x03,
0x04,
0x06,
0xf4,
0x07,
0xfd,
0x05,
0x0d,
0x02,
0xfc,
0x00,
0xfe,
0xf7,
0x08,
0xfa,
0x01,
0x00,
0x02,
0xf8,
0x03,
0x01,
0xf9,
0x01,
0x01,
0xf8,
0xf9,
0x03,
0xfd,
0x01,
0x05,
0xfd,
0x00,
0x05,
0x01,
0xff,
0x07,
0xfd,
0xfe,
0xf5,
0xed,
0x12,
0x03,
0xfa,
0xf3,
0x01,
0x08,
0xf0,
0xe9,
0xff,
0xfe,
0x08,
0xfd,
0xfc,
0xfe,
0xf4,
0x13,
0x04,
0xef,
0xfc,
0x1b,
0xf9,
0xfe,
0x05,
0x01,
0xfd,
0xfb,
0x00,
0x0b,
0x09,
0x01,
0x11,
0x01,
0xf8,
0xff,
0x02,
0x03,
0x08,
0x04,
0x02,
0x01,
0xff,
0xf7,
0xff,
0x0b,
0xfa,
0x01,
0xf7,
0xfc,
0x02,
0xe8,
0x01,
0x0b,
0xe2,
0x03,
0xf4,
0xfc,
0x08,
0xff,
0x07,
0x09,
0x01,
0xf9,
0x00,
0xf5,
0xfe,
0xfd,
0xf8,
0x0e,
0xfd,
0x08,
0xfb,
0xfe,
0xfd,
0x04,
0x07,
0x01,
0x08,
0x02,
0xe7,
0xf3,
0x0c,
0xfa,
0xb7,
0x02,
0xf3,
0x0e,
0xfa,
0xe5,
0x1c,
0x09,
0x11,
0xf9,
0xe4,
0xdf,
0x0b,
0xd9,
0x0b,
0xef,
0xdc,
0x0a,
0xfb,
0x14,
0x05,
0x00,
0xe1,
0x05,
0x0b,
0x0c,
0xf0,
0xfb,
0xe5,
0x05,
0x1b,
0xfc,
0x04,
0xe9,
0xeb,
0xfa,
0x00,
0xf9,
0x10,
0xfe,
0x11,
0x08,
0x00,
0x08,
0xdf,
0x08,
0x03,
0xf6,
0xfb,
0x07,
0x06,
0x09,
0xe9,
0x0f,
0xfc,
0xfb,
0xfe,
0xed,
0x00,
0xea,
0x0f,
0xf8,
0x19,
0x28,
0xf2,
0x16,
0x17,
0xe2,
0xf8,
0x1e,
0xdb,
0xf8,
0xf7,
0x11,
0xfe,
0xec,
0x0e,
0xab,
0xf4,
0x0d,
0xd8,
0x09,
0x0b,
0xf5,
0x0f,
0xd6,
0xeb,
0xcc,
0xed,
0xfd,
0xe0,
0x04,
0x0a,
0xc3,
0x07,
0xf9,
0x23,
0x1e,
0xe1,
0x0c,
0x0b,
0xf7,
0x0c,
0xf3,
0xe3,
0xf3,
0x10,
0xfb,
0xe1,
0x0b,
0x05,
0xf3,
0xfa,
0x2a,
0xe7,
0xf4,
0x0d,
0x07,
0x21,
0xff,
0xc1,
0x22,
0x1c,
0x0d,
0xde,
0xf5,
0xf0,
0xc9,
0xfa,
0x0a,
0xf1,
0xf8,
0xd0,
0x0d,
0x07,
0xfe,
0xfc,
0xf1,
0x05,
0xd9,
0xdd,
0x14,
0xfd,
0xe4,
0x11,
0xe8,
0xe5,
0xfc,
0x00,
0xfa,
0xf1,
0xf3,
0x0d,
0x0d,
0xf9,
0x06,
0x15,
0xe9,
0xf6,
0x00,
0xf0,
0xfe,
0x0e,
0xe4,
0xd8,
0x08,
0xe1,
0xfe,
0xf2,
0x16,
0xfa,
0x00,
0x05,
0x11,
0xf5,
0x13,
0xeb,
0xf3,
0x0c,
0xd5,
0x0f,
0xf7,
0xfc,
0xe8,
0x1b,
0xe1,
0xa6,
0xff,
0x17,
0x0a,
0x05,
0xfa,
0xf2,
0x10,
0x0f,
0x07,
0x07,
0xec,
0xea,
0xf9,
0x02,
0x0a,
0xe0,
0x1d,
0xef,
0xfc,
0x1b,
0xec,
0x0a,
0xf3,
0xdf,
0xdd,
0x18,
0x16,
0xb0,
0x0b,
0x01,
0xfe,
0xec,
0x06,
0xf9,
0x04,
0x0a,
0x06,
0xfc,
0x0a,
0x02,
0x0d,
0x0a,
0xf6,
0x04,
0xfa,
0x01,
0xdd,
0x00,
0x14,
0xf8,
0xab,
0x22,
0x1e,
0x01,
0x08,
0x18,
0x0f,
0x11,
0xfd,
0xec,
0x0d,
0x07,
0x0d,
0xf9,
0x19,
0x07,
0x4a,
0x24,
0xfd,
0x0e,
0x08,
0x0a,
0x1e,
0x25,
0x0b,
0x34,
0xfa,
0x0c,
0x2b,
0x5e,
0xf3,
0x51,
0x0f,
0xfa,
0x07,
0x2a,
0x09,
0x0d,
0x0b,
0xfa,
0x1e,
0x17,
0x29,
0x22,
0x03,
0x1d,
0x11};
