/* SPDX-License-Identifier: GPL-2.0 */
/*
 * Copyright (c) 2022 MediaTek Inc.
 *
 * Author: Ming-Hsuan Chiang <ming-hsuan.chiang@mediatek.com>
 *
 */

char fdvt_kernel_bias_loop26_0_frame01_7sp[] = {
0xc8,
0x0e,
0xfa,
0x0a,
0x02,
0xf8,
0xed,
0xed,
0xf4,
0x0e,
0xfb,
0x14,
0x01,
0x07,
0xe8,
0xea,
0x0d,
0xf2,
0x03,
0xfe,
0xff,
0x0d,
0x10,
0xf1,
0x03,
0xef,
0x00,
0xfd,
0x03,
0x0d,
0x0f,
0xf5,
0xee,
0x04,
0x0e,
0x04,
0x09,
0xfc,
0xef,
0xf5,
0x0b,
0x05,
0x0c,
0x07,
0x0a,
0xff,
0xee,
0xf3,
0x13,
0xf1,
0xfb,
0xec,
0x00,
0xfb,
0x0b,
0x09,
0x13,
0xf2,
0xff,
0xed,
0x01,
0xfa,
0x0e,
0x01,
0x0d,
0x11,
0x05,
0x03,
0xf1,
0xf8,
0xfe,
0xf1,
0xfd,
0x11,
0x05,
0x00,
0xf3,
0xf6,
0xfc,
0xf0,
0xfa,
0x27,
0x04,
0x0a,
0xe4,
0xe1,
0xff,
0xe7,
0xfc,
0x24,
0xff,
0x0d,
0xe5,
0xe2,
0xfe,
0xed,
0x07,
0x04,
0x00,
0xfa,
0xf6,
0x07,
0x01,
0xfa,
0x08,
0x05,
0x0a,
0xf9,
0xf8,
0x03,
0x04,
0xf1,
0xd2,
0xf1,
0x05,
0xf4,
0xf6,
0x07,
0xf9,
0xf4,
0xce,
0x00,
0x01,
0xf6,
0xf3,
0xff,
0xf7,
0xfc,
0xef,
0xee,
0x02,
0xfa,
0xea,
0x22,
0x09,
0xf7,
0xf7,
0xeb,
0xfd,
0xf9,
0xea,
0x23,
0x0e,
0xfe,
0x09,
0xf9,
0xff,
0xf8,
0xfe,
0x02,
0x0c,
0xf4,
0x07,
0xfa,
0x02,
0xf3,
0x00,
0x00,
0x0e,
0xf3,
0xfb,
0xf1,
0xfe,
0xf1,
0x08,
0xfa,
0x17,
0x13,
0xf2,
0xef,
0xfd,
0xee,
0x08,
0xfd,
0x1c,
0x0e,
0xec,
0xfe,
0xf6,
0x03,
0xfc,
0xfc,
0x05,
0x0a,
0xda,
0x01,
0xf8,
0x04,
0xfb,
0xfb,
0xff,
0x0a,
0xe4,
0x0d,
0xe8,
0x0b,
0xf4,
0xe9,
0xef,
0xfc,
0xec,
0x05,
0xeb,
0x0e,
0xf7,
0xe7,
0xf2,
0xf4,
0x04,
0x01,
0xf2,
0x06,
0xfd,
0xf8,
0xfa,
0xfb,
0xfe,
0xfb,
0xf6,
0x05,
0xfe,
0xfd,
0xfd,
0xf9,
0xff,
0x0b,
0x0b,
0x01,
0x0f,
0xee,
0x00,
0xe5,
0x03,
0x0d,
0x0a,
0x06,
0x0e,
0xf1,
0xfe,
0xe3,
0xc5,
0xed,
0xff,
0xf1,
0xea,
0xf2,
0xf4,
0xf3,
0xc1,
0xf0,
0x06,
0xf5,
0xeb,
0xf3,
0xf7,
0xef,
0xe8,
0x05,
0xfe,
0x03,
0xfa,
0xfa,
0x0b,
0xea,
0xe2,
0x04,
0xfe,
0xff,
0xf5,
0xf9,
0x13,
0xeb,
0x0a,
0xfe,
0x03,
0x06,
0xee,
0x02,
0x05,
0xff,
0x08,
0xff,
0x03,
0x04,
0xef,
0x03,
0x03,
0xfe,
0x06,
0x01,
0xf6,
0xee,
0xf9,
0xf3,
0xf8,
0x2e,
0xf9,
0x04,
0xfa,
0xef,
0xf5,
0xf4,
0xfa,
0x28,
0xeb,
0x05,
0x00,
0xfb,
0xff,
0xf6,
0xff,
0xfe,
0xdb,
0x06,
0x07,
0xf9,
0x03,
0xf4,
0x03,
0xfc,
0xeb,
0x13,
0x0a,
0x01,
0xf5,
0x02,
0xfe,
0xf5,
0xea,
0x11,
0x08,
0x03,
0xf9,
0x02,
0xff,
0xf7,
0x09,
0xfd,
0xff,
0xfa,
0x03,
0xfe,
0xfb,
0x03,
0x04,
0xfd,
0xfe,
0xfb,
0x03,
0xfc,
0xfb,
0x02,
0x3c,
0x2b,
0x0c,
0x13,
0xe5,
0xee,
0xe7,
0xe3,
0x3b,
0x2c,
0x09,
0x15,
0xe8,
0xef,
0xe5,
0xe7,
0xe2,
0x00,
0x03,
0xf0,
0xf7,
0xec,
0x00,
0xe2,
0xdf,
0xfd,
0xff,
0xec,
0xfa,
0xf3,
0x00,
0xe5,
0xe4,
0x08,
0x02,
0xf9,
0xf6,
0xe6,
0x09,
0xea,
0xdd,
0x06,
0xfe,
0xfb,
0xff,
0xe6,
0x04,
0xef,
0xff,
0x03,
0x01,
0x01,
0x00,
0xfe,
0xe8,
0x12,
0xf9,
0xfd,
0xfe,
0x03,
0xfd,
0x01,
0xeb,
0x15,
0xff,
0xf7,
0x01,
0xfa,
0x08,
0xf9,
0x0b,
0xfc,
0xf4,
0xfd,
0x02,
0xf8,
0x04,
0xf3,
0x0a,
0xf0,
0xe7,
0xf8,
0xff,
0x04,
0xff,
0x03,
0x05,
0xf4,
0xfe,
0xfc,
0x00,
0x03,
0xfe,
0x02,
0x08,
0xee,
0xca,
0x15,
0x08,
0x06,
0xf6,
0xf9,
0xf8,
0xfa,
0x13,
0x13,
0x06,
0x04,
0xf9,
0xf6,
0xf9,
0xf9,
0xf8,
0xf8,
0xf9,
0xfb,
0x06,
0xf8,
0xfe,
0x0e,
0xf7,
0xf9,
0xf7,
0xfd,
0x06,
0xf8,
0x00,
0x0f,
0xfe,
0xcc,
0x78,
0xa8,
0x37,
0xf1,
0xb8,
0xb9,
0x03,
0xce,
0x78,
0xaf,
0x3a,
0xf6,
0xb9,
0xba,
0x02,
0xc6,
0xee,
0xe1,
0x19,
0x08,
0x30,
0x2d,
0x00,
0xcb,
0xee,
0xdf,
0x18,
0x0a,
0x30,
0x33,
0xd5,
0x0b,
0xfb,
0x15,
0xf3,
0x06,
0xe8,
0xf3,
0xfe,
0x08,
0xfb,
0x12,
0xfb,
0x05,
0xea,
0xf1,
0x10,
0xee,
0x04,
0x01,
0xff,
0x0e,
0x09,
0xf2,
0x07,
0xe9,
0x02,
0xfd,
0x05,
0x0f,
0x0c,
0xf2,
0xf7,
0x07,
0x11,
0x08,
0x01,
0xfc,
0xf2,
0xf8,
0x0c,
0x07,
0x0e,
0x05,
0x04,
0xfe,
0xf6,
0xf6,
0x0e,
0xf3,
0xfa,
0xea,
0xfe,
0xfd,
0x0e,
0x05,
0x0d,
0xf2,
0xfa,
0xea,
0x01,
0xfd,
0x13,
0x02,
0x0f,
0x0e,
0x03,
0x03,
0xf3,
0xfa,
0xfc,
0xf3,
0xf3,
0x0f,
0x07,
0x00,
0xf4,
0xf8,
0xfb,
0xf0,
0x04,
0x32,
0x10,
0x05,
0xe0,
0xe2,
0x01,
0xf0,
0x0b,
0x36,
0x0e,
0x0d,
0xdb,
0xe2,
0xfd,
0xf7,
0x05,
0x00,
0x02,
0xf7,
0xff,
0x08,
0xfa,
0xf8,
0x06,
0x03,
0x09,
0xf7,
0x00,
0x05,
0xfe,
0xf2,
0xd2,
0x02,
0x04,
0x01,
0xef,
0x0a,
0xf1,
0xef,
0xd2,
0xf8,
0x08,
0xf9,
0xf2,
0x0b,
0xf6,
0xf5,
0xeb,
0xe9,
0x05,
0xf5,
0xed,
0x20,
0x0a,
0xfe,
0xf5,
0xe8,
0x01,
0xf8,
0xed,
0x21,
0x0d,
0x00,
0x04,
0xfb,
0x06,
0xf2,
0x01,
0x01,
0x12,
0xf0,
0x01,
0xf8,
0x05,
0xf6,
0x00,
0x03,
0x11,
0xf3,
0xf0,
0xfb,
0xff,
0xee,
0x09,
0xf3,
0x12,
0x09,
0xf5,
0xf2,
0x00,
0xf0,
0x09,
0xf6,
0x16,
0x08,
0x0b,
0xf5,
0xed,
0x01,
0x01,
0xfe,
0x0c,
0x11,
0x0f,
0xf9,
0xef,
0x04,
0xff,
0x02,
0x04,
0x0f,
0xfc,
0x17,
0xe5,
0x1b,
0xfa,
0xf2,
0xf0,
0x07,
0xed,
0x16,
0xe4,
0x1b,
0xfd,
0xeb,
0xf5,
0xff,
0xff,
0x01,
0xf7,
0x00,
0xfa,
0xf8,
0xff,
0xfe,
0xf8,
0x00,
0xf8,
0xfe,
0xfd,
0xfa,
0x00,
0xff,
0xe8,
0x0a,
0x09,
0xff,
0x0a,
0xf0,
0x02,
0xf0,
0xe4,
0x0b,
0x07,
0x01,
0x0a,
0xf0,
0x03,
0xf0,
0xc7,
0xed,
0x05,
0xed,
0xeb,
0xf2,
0xfa,
0xf3,
0xc8,
0xea,
0x08,
0xf4,
0xeb,
0xf4,
0xfa,
0xef,
0xea,
0x07,
0xff,
0x09,
0xf7,
0xfc,
0x03,
0xed,
0xe1,
0x06,
0xf9,
0x04,
0xfb,
0xfe,
0x08,
0xea,
0x01,
0xfc,
0x01,
0x02,
0xee,
0xfd,
0x0a,
0x00,
0xfc,
0xfe,
0xff,
0x07,
0xe7,
0x02,
0x07,
0xfe,
0xf3,
0xfb,
0xf2,
0xf2,
0xf9,
0xfa,
0xf5,
0x2f,
0xf2,
0xfc,
0xf3,
0xf4,
0xf6,
0xfb,
0xf8,
0x2b,
0xde,
0x06,
0xf7,
0xf6,
0x07,
0x00,
0xf8,
0x00,
0xde,
0x06,
0x00,
0xfa,
0x09,
0xf8,
0xff,
0xf6,
0x1a,
0x11,
0x09,
0xfc,
0xfb,
0x03,
0x01,
0xf9,
0x1f,
0x10,
0x07,
0x00,
0xf9,
0x03,
0xfd,
0xfb,
0x07,
0xff,
0x00,
0xf9,
0x05,
0xfd,
0xf9,
0xff,
0x0d,
0xfe,
0x00,
0xf8,
0x06,
0x01,
0xf6,
0x02,
0x3f,
0x2c,
0x0f,
0x16,
0xe5,
0xf2,
0xe5,
0xe1,
0x39,
0x2d,
0x0e,
0x13,
0xe5,
0xee,
0xe4,
0xe4,
0xe6,
0x08,
0x02,
0xf0,
0xf9,
0xe3,
0x04,
0xe3,
0xe2,
0x04,
0xfb,
0xea,
0xfa,
0xea,
0xff,
0xe6,
0xe1,
0x06,
0xfe,
0xef,
0xf5,
0xe9,
0x0b,
0xef,
0xde,
0x0d,
0xfd,
0xf1,
0xf4,
0xe9,
0x03,
0xf0,
0x01,
0xff,
0x02,
0x06,
0xfa,
0x03,
0xe7,
0x10,
0xf5,
0xfb,
0xfe,
0x08,
0xf8,
0x07,
0xe9,
0x15,
0xff,
0xf5,
0xff,
0xfe,
0x0d,
0xf7,
0x0e,
0xf7,
0xf4,
0x01,
0xff,
0xfc,
0x07,
0xed,
0x0a,
0xf0,
0x0b,
0xfc,
0xff,
0x04,
0xfe,
0x01,
0x03,
0xf0,
0x0e,
0xfe,
0xfd,
0x03,
0xff,
0xfe,
0x08,
0xef,
0xc2,
0x14,
0x07,
0x04,
0xfd,
0xf8,
0xfb,
0xfe,
0x13,
0x10,
0x04,
0x04,
0xfa,
0xf9,
0xf9,
0xfe,
0xfb,
0xf9,
0xf8,
0xf9,
0x08,
0xfd,
0xfe,
0x08,
0xf9,
0xfa,
0xfa,
0xfc,
0x07,
0xfe,
0xfc,
0x0b,
0x00,
0xcd,
0x76,
0xa4,
0x38,
0xf0,
0xb8,
0xc1,
0x03,
0xd1,
0x77,
0xab,
0x39,
0xf4,
0xbb,
0xbf,
0x00,
0xcb,
0xe4,
0xe0,
0x18,
0x08,
0x33,
0x2e,
0x02,
0xce,
0xe4,
0xdd,
0x16,
0x08,
0x34,
0x33,
0xe4,
0x10,
0xfa,
0x08,
0x01,
0xf4,
0xf5,
0xf2,
0x08,
0x19,
0x04,
0x18,
0x01,
0x02,
0xe6,
0xd9,
0xeb,
0xf4,
0x02,
0xfe,
0x03,
0x0c,
0x0f,
0xf0,
0xec,
0xec,
0x00,
0xfc,
0x06,
0x0d,
0x14,
0xf2,
0xd8,
0x07,
0x0e,
0x03,
0x0b,
0xfb,
0xf3,
0xf0,
0x0f,
0x07,
0x0e,
0x03,
0x0b,
0xfd,
0xf2,
0xf2,
0x26,
0xf2,
0xfc,
0xee,
0x01,
0xfa,
0x0a,
0x07,
0x1f,
0xf0,
0xfd,
0xec,
0x02,
0xfb,
0x0d,
0x07,
0xf1,
0x10,
0x01,
0x05,
0xf3,
0xf9,
0xfe,
0xf4,
0x02,
0x0f,
0x03,
0x01,
0xf6,
0xfa,
0xfe,
0xf3,
0xdf,
0x25,
0x09,
0x07,
0xe7,
0xe3,
0x02,
0xe7,
0xd8,
0x23,
0x02,
0x08,
0xe9,
0xe4,
0xfe,
0xee,
0xfb,
0xff,
0x05,
0xfd,
0xfc,
0x07,
0xfb,
0xfa,
0xf6,
0x05,
0x0a,
0xfc,
0xfe,
0x00,
0x00,
0xf2,
0xd6,
0xfa,
0x04,
0xef,
0xf6,
0x09,
0xfa,
0xf1,
0xd5,
0x00,
0x06,
0xf2,
0xf1,
0x01,
0xf5,
0x02,
0xec,
0xeb,
0x04,
0xf7,
0xeb,
0x23,
0x08,
0xfc,
0xee,
0xe7,
0x03,
0xf7,
0xf1,
0x21,
0x0a,
0xff,
0xfc,
0xfa,
0x01,
0xf5,
0xff,
0x02,
0x0e,
0xf6,
0xfb,
0xfc,
0x03,
0xf3,
0x03,
0xfd,
0x0c,
0xf7,
0xf9,
0xf6,
0xfc,
0xf4,
0x06,
0xf7,
0x11,
0x10,
0xf6,
0xf2,
0xf9,
0xef,
0x06,
0xfd,
0x18,
0x0e,
0xd5,
0xfd,
0xf5,
0x03,
0xfc,
0xfb,
0x08,
0x0b,
0xc7,
0xfe,
0xf1,
0x07,
0xf7,
0x02,
0xff,
0x0d,
0xe9,
0x11,
0xec,
0x11,
0xf4,
0xec,
0xe9,
0x00,
0xe7,
0x0d,
0xee,
0x0e,
0xf4,
0xf2,
0xef,
0xf5,
0x01,
0xff,
0xf4,
0xfe,
0xf3,
0xf9,
0xf8,
0x01,
0xff,
0xf9,
0xf7,
0xfc,
0xf7,
0xfa,
0xfc,
0xfe,
0x00,
0x0a,
0x08,
0x03,
0x0a,
0xf0,
0xfe,
0xee,
0xff,
0x0e,
0x0a,
0x07,
0x0c,
0xef,
0xfa,
0xed,
0xc2,
0xef,
0xfe,
0xf3,
0xeb,
0xf4,
0xf7,
0xf5,
0xbc,
0xed,
0x04,
0xf5,
0xee,
0xf6,
0xfa,
0xee,
0x0b,
0x06,
0x03,
0x0a,
0xfd,
0xfb,
0x07,
0xe3,
0x0e,
0x08,
0x00,
0x09,
0xf7,
0xf6,
0x0d,
0xed,
0x17,
0xfd,
0x03,
0x04,
0xf1,
0x02,
0x06,
0xff,
0x13,
0xfe,
0x04,
0x01,
0xf4,
0x04,
0x00,
0xff,
0x03,
0x02,
0xf8,
0xee,
0xf9,
0xf2,
0xf7,
0x2f,
0xfd,
0x09,
0xfa,
0xf4,
0xf5,
0xf1,
0xf6,
0x28,
0xda,
0x02,
0xfd,
0xfe,
0xfb,
0xfa,
0xfd,
0x01,
0x12,
0x0c,
0x0c,
0xfb,
0xf5,
0xf6,
0x09,
0xf3,
0x0a,
0x11,
0x09,
0x02,
0xf5,
0x03,
0xfc,
0xf8,
0x1e,
0x0e,
0x09,
0x05,
0xf8,
0x03,
0xfc,
0xfa,
0xf9,
0x00,
0xff,
0xfb,
0x01,
0xfc,
0xfa,
0x02,
0xf5,
0x02,
0xff,
0xfe,
0x02,
0xfb,
0xfb,
0xfe,
0x28,
0x2c,
0x10,
0x14,
0xe7,
0xf0,
0xe7,
0xe0,
0x2e,
0x2f,
0x0e,
0x15,
0xea,
0xef,
0xe8,
0xe2,
0xe8,
0xfe,
0x05,
0xf3,
0xf8,
0xe8,
0x06,
0xe5,
0xe3,
0x01,
0xfb,
0xed,
0xf8,
0xed,
0x02,
0xea,
0xee,
0x06,
0x00,
0xf9,
0xf9,
0xe6,
0x0e,
0xea,
0xed,
0x09,
0xfd,
0xf7,
0x01,
0xe5,
0xfe,
0xf4,
0x05,
0x05,
0x00,
0x06,
0xfe,
0xfc,
0xe8,
0x10,
0x02,
0xfe,
0xff,
0x05,
0xf9,
0x02,
0xec,
0x15,
0x04,
0xf4,
0x00,
0xfa,
0x08,
0xfc,
0x0b,
0xfd,
0xf5,
0xff,
0x04,
0xfc,
0x08,
0xf4,
0x0a,
0xee,
0xe7,
0xf9,
0xfd,
0x05,
0xfe,
0x06,
0x02,
0xf3,
0xed,
0x00,
0x04,
0x02,
0xfb,
0x01,
0x07,
0xef,
0x05,
0x14,
0x08,
0x09,
0xf6,
0xfa,
0xf6,
0xf9,
0x05,
0x10,
0x01,
0x06,
0xf9,
0xf7,
0xfa,
0x01,
0xfa,
0xf8,
0xf7,
0xfe,
0x06,
0xf9,
0xfc,
0x10,
0x01,
0xf5,
0xfb,
0xf9,
0x08,
0xf9,
0x04,
0x0f,
0x00,
0xcc,
0x7a,
0xa9,
0x38,
0xf3,
0xbc,
0xbd,
0x00,
0xcf,
0x7b,
0xab,
0x3c,
0xf8,
0xba,
0xbc,
0x00,
0xc8,
0xee,
0xe3,
0x15,
0x09,
0x32,
0x2f,
0x03,
0xcc,
0xed,
0xdc,
0x12,
0x0d,
0x35,
0x36,
0xe2,
0x0d,
0xfa,
0x0f,
0xfa,
0xfc,
0xf4,
0xf5,
0x06,
0x1a,
0x03,
0x1c,
0xf9,
0x02,
0xe7,
0xdf,
0xe7,
0xf3,
0x02,
0xfe,
0x03,
0x0e,
0x0a,
0xf4,
0xea,
0xec,
0x00,
0xfa,
0x09,
0x0b,
0x13,
0xf3,
0xdf,
0x08,
0x0f,
0x04,
0x05,
0xfb,
0xf2,
0xf4,
0x0f,
0x05,
0x10,
0x01,
0x09,
0xfc,
0xf7,
0xf6,
0x27,
0xf4,
0xfc,
0xef,
0xff,
0xfe,
0x0b,
0x04,
0x20,
0xf3,
0xfd,
0xee,
0x02,
0xff,
0x0d,
0x05,
0xf4,
0x0d,
0x00,
0x01,
0xf3,
0xfc,
0xfe,
0xf6,
0xfc,
0x0f,
0x01,
0xff,
0xf4,
0xfc,
0xfc,
0xf4,
0xc4,
0x25,
0x08,
0x06,
0xec,
0xeb,
0xff,
0xe8,
0xbc,
0x21,
0x02,
0x03,
0xe9,
0xea,
0xfe,
0xef,
0xf9,
0xfb,
0x08,
0xfd,
0x05,
0x05,
0xf8,
0xf8,
0xf6,
0x03,
0x0a,
0xfa,
0x03,
0x01,
0xfd,
0xf1,
0xda,
0x07,
0x01,
0xfc,
0xf2,
0xfe,
0xf8,
0xf3,
0xd1,
0xff,
0x0b,
0xf6,
0xf9,
0xfb,
0xf3,
0xfd,
0xef,
0xe9,
0x04,
0xf8,
0xec,
0x1f,
0x0a,
0x00,
0xee,
0xe3,
0x05,
0xf6,
0xf4,
0x23,
0x0a,
0x02,
0x06,
0x00,
0x02,
0xf2,
0x03,
0xff,
0x0f,
0xf5,
0x05,
0x00,
0x01,
0xf7,
0x02,
0xff,
0x09,
0xf9,
0xe9,
0xf5,
0x00,
0xf2,
0x0a,
0xf5,
0x12,
0x0a,
0xf1,
0xf1,
0xfc,
0xef,
0x07,
0xfd,
0x17,
0x0e,
0x09,
0xf5,
0xf1,
0x00,
0x04,
0xfd,
0x0c,
0x0f,
0x13,
0xf7,
0xed,
0x04,
0xfc,
0x08,
0x03,
0x13,
0xf0,
0x17,
0xf3,
0x1c,
0xf6,
0xf4,
0xe9,
0x04,
0xe7,
0x11,
0xf4,
0x14,
0xee,
0xfa,
0xe9,
0xf8,
0xfc,
0x00,
0xf5,
0xfe,
0xf6,
0xf9,
0xff,
0x00,
0xfc,
0xff,
0xf9,
0xfc,
0xfb,
0xfa,
0xfe,
0x00,
0x04,
0x0b,
0x07,
0xff,
0x08,
0xf2,
0x01,
0xf3,
0xfc,
0x0c,
0x0a,
0x02,
0x09,
0xf0,
0xfe,
0xf0,
0xbf,
0xf6,
0x01,
0xf2,
0xea,
0xf8,
0xfb,
0xf4,
0xbf,
0xef,
0x04,
0xf6,
0xeb,
0xfe,
0xf9,
0xed,
0x0a,
0x0b,
0x08,
0x10,
0xfd,
0xf4,
0x00,
0xe4,
0x0b,
0x09,
0x00,
0x0d,
0xfc,
0xf5,
0x03,
0xed,
0xc4,
0xfb,
0xff,
0x03,
0xee,
0x01,
0x06,
0x00,
0xb9,
0xfd,
0x01,
0x00,
0xf4,
0x07,
0xfa,
0x01,
0xfb,
0xff,
0xf6,
0xf1,
0xf5,
0xf6,
0xf7,
0x2f,
0x07,
0x08,
0xf5,
0xf7,
0xf0,
0xf3,
0xf6,
0x2c,
0xd5,
0x03,
0xfc,
0xfc,
0xff,
0xfd,
0xfb,
0x02,
0x15,
0x0b,
0x0a,
0xf8,
0xfd,
0xf8,
0x09,
0xf2,
0x12,
0x11,
0x07,
0x01,
0xfb,
0x01,
0xfe,
0xf9,
0x2b,
0x0f,
0x04,
0x06,
0xf8,
0x02,
0xfb,
0xfb,
0xf3,
0x01,
0xfd,
0xf9,
0x06,
0xf9,
0xfd,
0x00,
0xfc,
0x05,
0xfe,
0xfb,
0x04,
0xf8,
0xfc,
0xfe,
0x2a,
0x2b,
0x11,
0x16,
0xe6,
0xf2,
0xe7,
0xe3,
0x2b,
0x2d,
0x10,
0x13,
0xe8,
0xee,
0xeb,
0xe7,
0xeb,
0xfd,
0x05,
0xf2,
0xfa,
0xe8,
0x0f,
0xe7,
0xe4,
0x00,
0xfe,
0xef,
0xf8,
0xe7,
0x05,
0xe8,
0xe1,
0x01,
0xff,
0xf8,
0xf9,
0xef,
0x07,
0xeb,
0xe5,
0x0d,
0x02,
0xec,
0xf7,
0xe2,
0x04,
0xf8,
0x05,
0x03,
0x03,
0x08,
0xfc,
0xfc,
0xe8,
0x0f,
0xfe,
0x02,
0xff,
0x08,
0xf8,
0x02,
0xeb,
0x15,
0x07,
0xf2,
0xff,
0xf8,
0x0d,
0xfd,
0x0b,
0xfc,
0xf6,
0xfe,
0x05,
0xf9,
0x0b,
0xf4,
0x0b,
0xf0,
0x13,
0xff,
0xff,
0x06,
0xf8,
0x07,
0x03,
0xf2,
0x01,
0x02,
0x03,
0x03,
0xf7,
0x02,
0x07,
0xf2,
0xfa,
0x13,
0x06,
0x06,
0xfb,
0xfa,
0xf9,
0xf9,
0x03,
0x10,
0xff,
0x06,
0xfc,
0xf8,
0xfb,
0xff,
0x00,
0xf9,
0xf5,
0xfc,
0x06,
0xff,
0xfd,
0x11,
0x06,
0xf5,
0xfb,
0xf9,
0x09,
0xfc,
0x03,
0x0f,
0x01,
0xcd,
0x79,
0xa9,
0x3a,
0xf5,
0xc2,
0xc3,
0x00,
0xcf,
0x7b,
0xaa,
0x3d,
0xfa,
0xc0,
0xc1,
0xfd,
0xcd,
0xea,
0xe2,
0x15,
0x09,
0x33,
0x30,
0x02,
0xcf,
0xec,
0xd5,
0x13,
0x0c,
0x38,
0x35,
0xbb,
0x36,
0xfc,
0x00,
0x10,
0xdc,
0xef,
0xcd,
0xbb,
0x30,
0xff,
0xff,
0x0c,
0xdc,
0xeb,
0xd5,
0xc1,
0x4b,
0xfc,
0x01,
0x09,
0xde,
0xeb,
0xc0,
0xc0,
0x5e,
0x08,
0x0c,
0xfc,
0xca,
0xe2,
0xb4};
