/* SPDX-License-Identifier: GPL-2.0 */
/*
 * Copyright (c) 2022 MediaTek Inc.
 *
 * Author: Ming-Hsuan Chiang <ming-hsuan.chiang@mediatek.com>
 *
 */

char fdvt_kernel_bias_loop59_0_frame01_7sp[] = {
0xff,
0xf6,
0x06,
0xee,
0x0e,
0xff,
0x06,
0x0d,
0xf4,
0xf1,
0xf0,
0xfe,
0xf7,
0xec,
0xe9,
0x08,
0x11,
0xf8,
0xee,
0x07,
0x06,
0x05,
0xff,
0xfc,
0x0a,
0xff,
0x0f,
0xfd,
0x04,
0x0a,
0xda,
0x15,
0x13,
0x0b,
0xfc,
0x11,
0x12,
0xfe,
0x08,
0x13,
0xf8,
0xf7,
0x01,
0x02,
0x09,
0x08,
0x00,
0x02,
0x03,
0x00,
0xff,
0xfd,
0x02,
0xfb,
0x0b,
0xfb,
0xf8,
0xfe,
0xf7,
0x09,
0x05,
0x05,
0x05,
0xfc,
0x04,
0xff,
0xf1,
0xf9,
0x01,
0xf5,
0x03,
0xfc,
0xfe,
0xf8,
0xd2,
0x07,
0x02,
0xfa,
0xfa,
0x08,
0x0d,
0x0a,
0x01,
0x0a,
0xee,
0xfb,
0x05,
0xd4,
0x01,
0xe2,
0xea,
0x17,
0xe3,
0xfc,
0x0a,
0xef,
0xee,
0x1b,
0xfa,
0xfd,
0xfa,
0x01,
0xed,
0xff,
0x00,
0xdf,
0xdc,
0xf8,
0xfd,
0xf3,
0xf9,
0xf9,
0xfc,
0x0e,
0x0f,
0x0a,
0xe7,
0xf6,
0xfb,
0xfb,
0xf9,
0xfc,
0x05,
0x00,
0x01,
0xff,
0x00,
0xff,
0xff,
0xfc,
0xfe,
0xfe,
0x00,
0xf5,
0xe0,
0xd2,
0x05,
0x00,
0x02,
0x06,
0xfe,
0x10,
0x02,
0x08,
0xfd,
0xe7,
0x09,
0xf0,
0x15,
0x07,
0xf5,
0x1b,
0x07,
0xf8,
0xf4,
0xe7,
0x0e,
0x0a,
0xfb,
0x16,
0xee,
0x21,
0xfd,
0xf6,
0x08,
0xd5,
0xfb,
0xd4,
0xb4,
0xee,
0xef,
0xc1,
0xfa,
0x1c,
0x17,
0xd9,
0x0a,
0x20,
0xe4,
0x02,
0x22,
0xe5,
0xf9,
0x1a,
0xe4,
0xf0,
0x0b,
0xfc,
0x0f,
0x1d,
0x16,
0x12,
0xf5,
0xef,
0xef,
0x18,
0x07,
0xfb,
0x08,
0x19,
0x0d,
0x1a,
0xed,
0x05,
0xff,
0xf5,
0x08,
0xfc,
0x09,
0x16,
0xf6,
0xde,
0xed,
0xe0,
0xe7,
0x0f,
0x02,
0x1d,
0x0e,
0xf3,
0x18,
0x06,
0xf9,
0x0f,
0xfa,
0xfb,
0x04,
0xf4,
0xfd,
0xff,
0xf5,
0x03,
0x00,
0xf9,
0x13,
0xfd,
0xfd,
0x08,
0xfe,
0xfd,
0x02,
0xfa,
0x05,
0x07,
0x02,
0xff,
0xf9,
0xfb,
0xf8,
0x02,
0xfd,
0xfd,
0x0c,
0x0a,
0x0a,
0x0a,
0x00,
0xfc,
0x03,
0xff,
0xf5,
0xf6,
0xf1,
0x07,
0x0f,
0x04,
0xfd,
0x05,
0x05,
0x05,
0x0f,
0x0c,
0x48,
0x52,
0xd9,
0xf5,
0xd7,
0x00,
0xf4,
0xfa,
0x08,
0x00,
0x01,
0x06,
0x0c,
0x11,
0xfa,
0xfb,
0x08,
0xfb,
0xfb,
0x05,
0xf6,
0xfb,
0x04,
0xfc,
0x03,
0x05,
0x04,
0x08,
0xfb,
0xfc,
0x01,
0xfd,
0xfb,
0x03,
0x05,
0x04,
0xfb,
0x06,
0xfc,
0x09,
0x0a,
0xff,
0xf8,
0x04,
0xf0,
0xfd,
0xfe,
0x04,
0xfa,
0x00,
0x02,
0xfb,
0xff,
0x01,
0xfe,
0x01,
0x04,
0x02,
0x01,
0xff,
0xfa,
0xfa,
0x00,
0xfd,
0xf5,
0xea,
0xf6,
0x10,
0x01,
0x10,
0xf4,
0xed,
0xfb,
0xfa,
0xf6,
0x00,
0x03,
0xd2,
0xb9,
0x13,
0x05,
0xfc,
0x00,
0x07,
0x03,
0x02,
0xff,
0xf4,
0x01,
0x16,
0xf4,
0x03,
0x15,
0xe9,
0xf5,
0x13,
0x07,
0x08,
0xf9,
0x03,
0xff,
0xf7,
0x15,
0xea,
0xfc,
0x04,
0xf2,
0x15,
0xf4,
0x00,
0x12,
0xf5,
0xe8,
0x29,
0xe0,
0xe8,
0x09,
0x04,
0xfd,
0x0b,
0x0b,
0xea,
0xf4,
0x00,
0x02,
0xf1,
0xf8,
0xfd,
0xfa,
0x02,
0xe8,
0xea,
0x12,
0x2d,
0x19,
0xf0,
0xe2,
0xf2,
0xfe,
0x00,
0x01,
0xf8,
0xf8,
0xfa,
0x03,
0x06,
0xfe,
0xff,
0xfe,
0x01,
0x12,
0xf9,
0xe8,
0xe1,
0xec,
0x01,
0x12,
0x15,
0x04,
0x11,
0x09,
0x08,
0x02,
0x10,
0x05,
0xfd,
0x0e,
0xfb,
0x03,
0x08,
0x13,
0x0b,
0xf8,
0x00,
0x05,
0xf4,
0x00,
0xf4,
0xf9,
0x01,
0x0b,
0xfd,
0x0c,
0xf7,
0xe2,
0xfd,
0xea,
0xef,
0x11,
0xff,
0x0c,
0x14,
0xfa,
0xf0,
0x0d,
0x05,
0xf9,
0x0f,
0x06,
0xfd,
0x0d,
0x0b,
0xfe,
0x03,
0xf8,
0xf6,
0xf2,
0xf3,
0xf7,
0xe5,
0xf1,
0x07,
0x05,
0xfa,
0xfa,
0x02,
0xf1,
0xfe,
0xfd,
0xf2,
0x05,
0x08,
0x09,
0x04,
0xfc,
0xfa,
0x09,
0x05,
0x0c,
0x0a,
0xfd,
0x03,
0xf8,
0xfe,
0x0d,
0x02,
0x08,
0x03,
0x05,
0x09,
0xfc,
0xf9,
0xfc,
0xf8,
0x07,
0xfb,
0x00,
0x14,
0xf7,
0x0a,
0x12,
0x0e,
0x06,
0xf7,
0x11,
0x0a,
0x07,
0xfb,
0x1b,
0x12,
0xfa,
0x0c,
0xf5,
0xee,
0xee,
0x0a,
0x04,
0xfa,
0x07,
0x0b,
0x03,
0x0c,
0x06,
0xf0,
0xf6,
0xf9,
0xf7,
0xe8,
0xf0,
0x11,
0x11,
0x05,
0x05,
0x07,
0x0a,
0xfe,
0xfd,
0x05,
0x15,
0x11,
0xe6,
0xec,
0xee,
0x2f,
0x26,
0x34,
0x18,
0xfe,
0x0a,
0x21,
0x00,
0x10,
0xf1,
0xf7,
0x0d,
0xf8,
0xfe,
0x1f,
0xac,
0x1a,
0xff,
0xed,
0xf9,
0xfe,
0xf9,
0x01,
0xf9,
0xfa,
0xfe,
0x02,
0xeb,
0x02,
0x11,
0xfd,
0xfe,
0xff,
0xfd,
0xfe,
0xf7,
0x08,
0xfc,
0xfe,
0xff,
0xfe,
0x11,
0xf4,
0xe8,
0xfc,
0xf5,
0xe0,
0xf3,
0xfd,
0xeb,
0xf6,
0xfc,
0xed,
0xe7,
0xe6,
0xdf,
0x04,
0xf8,
0xff,
0x00,
0xfd,
0x02,
0xfb,
0x0b,
0xfa,
0xe7,
0xdb,
0xff,
0x03,
0x04,
0xfa,
0x00,
0x02,
0x01,
0xfe,
0x05,
0x11,
0x16,
0x08,
0x06,
0xfd,
0x02,
0x00,
0xfa,
0xfb,
0x06,
0xe9,
0x00,
0x03,
0x07,
0xf8,
0x05,
0xfe,
0xf7,
0xfd,
0x11,
0xef,
0x0e,
0x00,
0xf2,
0x11,
0xfe,
0x03,
0xf0,
0xfe,
0x12,
0xf5,
0x1c,
0xee,
0xe5,
0xf2,
0x17,
0xe2,
0x08,
0x17,
0x03,
0x07,
0x16,
0x14,
0xfc,
0xfb,
0x0b,
0x00,
0x03,
0xe6,
0xe5,
0x03,
0x13,
0x0b,
0xfd,
0xf9,
0x07,
0x13,
0x04,
0xff,
0x01,
0xfc,
0x01,
0xfc,
0xfa,
0xfc,
0xfc,
0xfa,
0xff,
0x0a,
0xf4,
0xff,
0x09,
0xf6,
0xf9,
0xe4,
0xf7,
0xe6,
0xf4,
0x08,
0x00,
0xec,
0x01,
0xfa,
0xf3,
0x08,
0xfa,
0xf4,
0x08,
0x1f,
0x0d,
0x02,
0x17,
0x1d,
0x13,
0x04,
0xf9,
0x0d,
0x10,
0xf5,
0x03,
0x08,
0x06,
0xff,
0xf8,
0x01,
0x00,
0x00,
0x04,
0xf5,
0x2d,
0xf9,
0xf1,
0xfc,
0xef,
0xe2,
0xf8,
0xfb,
0xde,
0xef,
0xfc,
0x01,
0x05,
0x03,
0x07,
0xff,
0x06,
0x05,
0x02,
0x09,
0x03,
0x01,
0xe0,
0x04,
0x14,
0x33,
0xfb,
0xf5,
0xf0,
0xf0,
0x03,
0xfc,
0xfd,
0xfb,
0xf5,
0xf4,
0xf0,
0xf4,
0xfd,
0xfe,
0x02,
0x0a,
0xf6,
0x08,
0x0c,
0xf7,
0x0f,
0xfd,
0x04,
0x0b,
0xe9,
0xee,
0x01,
0xef,
0xf0,
0xf5,
0x00,
0xf2,
0xeb,
0x0b,
0x07,
0xfb,
0x05,
0x04,
0xf5,
0xfb,
0xea,
0xe8,
0x00,
0x1a,
0xf8,
0x0d,
0xf0,
0xf1,
0xf2,
0xfa,
0xfb,
0xeb,
0x24,
0x0b,
0x04,
0x06,
0xf6,
0x0f,
0x0f,
0x15,
0xed,
0xe0,
0xf3,
0xfc,
0x0f,
0x01,
0x02,
0xff,
0x00,
0x0c,
0x0a,
0x09,
0x10,
0x0c,
0xdf,
0xf8,
0x03,
0xda,
0xec,
0xd4,
0x02,
0x15,
0x12,
0x0d,
0x14,
0x11,
0xfd,
0xf7,
0xf5,
0x0f,
0xef,
0xfe,
0x0d,
0xe2,
0x09,
0xf3,
0x01,
0xfa,
0xfc,
0x05,
0x00,
0xfb,
0xfc,
0xfd,
0x01,
0xee,
0x08,
0x04,
0x03,
0x00,
0x0b,
0xed,
0xfc,
0x00,
0xeb,
0xf3,
0xfc,
0x0a,
0xe8,
0x10,
0x06,
0xfa,
0x09,
0x04,
0xfb,
0x08,
0x01,
0x05,
0x00,
0x05,
0x0c,
0x0c,
0x06,
0xfd,
0x06,
0xfb,
0x01,
0x02,
0x00,
0xf2,
0x01,
0xee,
0xfe,
0x10,
0xf8,
0x00,
0xf3,
0x02,
0xfd,
0xf3,
0xf8,
0xfd,
0xfa,
0xec,
0xe8,
0x03,
0xfa,
0x0a,
0x09,
0x06,
0xff,
0x03,
0x03,
0x0f,
0x01,
0x16,
0x15,
0xf3,
0xf3,
0xf7,
0x0b,
0x08,
0x01,
0x13,
0xeb,
0xf4,
0x05,
0xdd,
0xfb,
0xe9,
0xe9,
0x11,
0xe9,
0xec,
0x2c,
0xe6,
0xf3,
0x1a,
0x0e,
0xe7,
0x13,
0x05,
0x01,
0x26,
0x27,
0x21,
0xf6,
0x08,
0x12,
0x09,
0x07,
0xed,
0xe1,
0xf7,
0xf1,
0xec,
0xe6,
0x1c,
0x16,
0x15,
0x03,
0x02,
0x04,
0xfc,
0x01,
0xff,
0x06,
0x06,
0x06,
0x02,
0xfc,
0x07,
0xf9,
0xf8,
0xfb,
0xf8,
0xfa,
0xf2,
0x03,
0xf7,
0xf3,
0xfe,
0x14,
0xfb,
0xf4,
0x08,
0xef,
0xf7,
0x04,
0xf3,
0x00,
0xfe,
0x00,
0x02,
0xfa,
0xf7,
0xf6,
0x01,
0x09,
0xfe,
0x04,
0x0e,
0xfe,
0x18,
0xe2,
0x12,
0x3c,
0xfa,
0xfe,
0x20,
0xeb,
0x05,
0xf9,
0xfd,
0xfa,
0x01,
0x04,
0xfb,
0xfd,
0x05,
0xfd,
0xfd,
0x04,
0x00,
0xfd,
0xfd,
0xfb,
0xfe,
0xfc,
0xff,
0xfb,
0xe4,
0xfd,
0x0a,
0x07,
0x15,
0xf3,
0xf2,
0x02,
0xf8,
0xf5,
0x02,
0x11,
0x0e,
0x12,
0x00,
0x06,
0xfe,
0x04,
0xff,
0xfa,
0xfb,
0xf6,
0xd9,
0xd4,
0x26,
0xd9,
0xc5,
0x1c,
0xdf,
0xd5,
0x1c,
0x0c,
0x04,
0x0c,
0x0c,
0xfb,
0x0e,
0x0e,
0xf9,
0x18,
0xfd,
0xf8,
0x0b,
0xf5,
0xfb,
0x0b,
0xf4,
0x14,
0x06,
0xf4,
0x0f,
0x0f,
0xf0,
0x11,
0x0b,
0x0c,
0xfb,
0x04,
0x03,
0xf2,
0xf6,
0xf7,
0xfe,
0xff,
0x02,
0xfd,
0xf9,
0x0d,
0x0e,
0x0f,
0xf6,
0xfb,
0x06,
0x02,
0x04,
0xfb,
0xfc,
0xfe,
0xfb,
0x00,
0x01,
0x07,
0x01,
0x00,
0xf9,
0x02,
0xf0,
0xf6,
0xff,
0xf9,
0x1b,
0x0e,
0x10,
0x0a,
0x0e,
0x16,
0x17,
0x3a,
0x0a,
0x6e,
0x0c,
0x4a,
0x33,
0x25,
0x01,
0x53,
0x28,
0x06,
0x13,
0x18,
0x39};
