/* SPDX-License-Identifier: GPL-2.0 */
/*
 * Copyright (c) 2022 MediaTek Inc.
 *
 * Author: Ming-Hsuan Chiang <ming-hsuan.chiang@mediatek.com>
 *
 */

char fdvt_kernel_bias_loop32_0_frame01_7sp[] = {
0x05,
0xfa,
0x1d,
0xf5,
0xf1,
0x08,
0xf9,
0x0b,
0xf8,
0xf9,
0xec,
0x04,
0x03,
0xf1,
0x02,
0x0a,
0x06,
0xfb,
0x19,
0xfc,
0xef,
0x1a,
0x12,
0xf7,
0x01,
0xfe,
0xf3,
0xfc,
0x11,
0x02,
0x04,
0xf5,
0xf7,
0x00,
0x0b,
0xfd,
0xfb,
0xf5,
0xf4,
0xfe,
0xf9,
0x02,
0xf4,
0xde,
0xf5,
0x02,
0xfb,
0xf4,
0xe6,
0x0c,
0xec,
0x07,
0x11,
0xed,
0xec,
0xe1,
0x0c,
0x09,
0x04,
0x01,
0xff,
0x17,
0xf1,
0x1d,
0x0a,
0xdb,
0x10,
0xf9,
0xe9,
0xea,
0x12,
0xf5,
0x06,
0xd8,
0x12,
0x03,
0x09,
0x03,
0xfb,
0x0a,
0x0c,
0x06,
0xf6,
0x01,
0x05,
0x01,
0x00,
0x15,
0x01,
0xff,
0x06,
0x3f,
0x17,
0xf9,
0x09,
0x06,
0xf6,
0x07,
0xff,
0xfa,
0xfd,
0xf4,
0xf9,
0x2c,
0xf8,
0x03,
0xff,
0xed,
0x0e,
0x03,
0xfd,
0xf9,
0xee,
0xe4,
0x12,
0xfa,
0xe9,
0xf8,
0x0e,
0x00,
0xfa,
0x06,
0x0b,
0x01,
0x0a,
0x13,
0xe6,
0x04,
0x31,
0xf7,
0x01,
0x09,
0xff,
0xfa,
0x04,
0x08,
0xf1,
0x0d,
0x08,
0xfa,
0xfc,
0xff,
0xe6,
0xf6,
0x02,
0xff,
0xff,
0x03,
0x07,
0x08,
0x02,
0x21,
0x29,
0x0e,
0x0d,
0x03,
0x00,
0xf1,
0x0b,
0x10,
0x06,
0x00,
0x02,
0xf6,
0x07,
0x07,
0x0a,
0xe5,
0x0e,
0x05,
0xfc,
0xf7,
0x04,
0xf9,
0x02,
0xfe,
0xee,
0x0f,
0xf9,
0xfe,
0x00,
0xfe,
0xef,
0xf1,
0x0a,
0xf7,
0x02,
0xf2,
0x06,
0x14,
0xf7,
0xe9,
0x04,
0xfd,
0xf2,
0x34,
0x12,
0xff,
0xfe,
0xe3,
0x00,
0xfd,
0xfe,
0xfc,
0x09,
0xfe,
0xf9,
0x18,
0xf4,
0x05,
0xf0,
0xbf,
0x04,
0x25,
0x09,
0x07,
0xc6,
0x07,
0xf7,
0xf9,
0x02,
0x09,
0xfd,
0x1c,
0x01,
0xf7,
0x00,
0x01,
0x02,
0xfc,
0x00,
0x0d,
0xf8,
0xfa,
0x02,
0xee,
0x0e,
0x19,
0xfb,
0xfb,
0xed,
0x0b,
0x0d,
0x03,
0x0e,
0x0c,
0x0b,
0x16,
0xfd,
0x02,
0x13,
0xf9,
0xf5,
0x03,
0x0a,
0xdf,
0x16,
0x22,
0x1a,
0xd9,
0x1e,
0x2b,
0x2d,
0x35,
0x09,
0x0b,
0x2a,
0x2f,
0x41,
0x23,
0x1d,
0x16};
