/* SPDX-License-Identifier: GPL-2.0 */
/*
 * Copyright (c) 2022 MediaTek Inc.
 *
 * Author: Ming-Hsuan Chiang <ming-hsuan.chiang@mediatek.com>
 *
 */

char fdvt_kernel_bias_loop48_0_frame01_7sp[] = {
0x04,
0xff,
0x17,
0x09,
0xff,
0x00,
0x16,
0x0a,
0x06,
0xff,
0x15,
0x08,
0xff,
0xff,
0x14,
0x09,
0x00,
0xfa,
0xf4,
0xf2,
0xf8,
0xfc,
0xf3,
0xf1,
0x02,
0xfd,
0xf1,
0xef,
0xf7,
0xfe,
0xf1,
0xef,
0x06,
0x00,
0xf8,
0xfd,
0x02,
0x00,
0xf7,
0xfb,
0x06,
0xff,
0xf6,
0xfd,
0x01,
0xff,
0xf7,
0xfc,
0xff,
0x00,
0xea,
0xee,
0xfd,
0x00,
0xea,
0xee,
0xfe,
0xfc,
0xe9,
0xed,
0xfd,
0xfc,
0xe9,
0xee,
0x03,
0xff,
0xf9,
0x01,
0xfc,
0xff,
0xf3,
0x01,
0x03,
0xfe,
0xf6,
0xff,
0xf9,
0xfe,
0xf0,
0xff,
0x05,
0xff,
0x0a,
0x09,
0x00,
0x01,
0x0b,
0x06,
0x06,
0xff,
0x0a,
0x08,
0x00,
0x00,
0x0a,
0x05,
0x1c,
0x03,
0x16,
0x09,
0x18,
0x02,
0x15,
0x09,
0x1c,
0x02,
0x17,
0x08,
0x18,
0x02,
0x16,
0x08,
0xf5,
0xfe,
0x11,
0x08,
0x0b,
0x00,
0x14,
0x0c,
0xf6,
0x10,
0x0b,
0x07,
0x09,
0x0d,
0x0e,
0x08,
0x01,
0x07,
0xf2,
0xf4,
0x05,
0x06,
0xf3,
0xf1,
0x04,
0x06,
0xf4,
0xf8,
0x04,
0x08,
0xf6,
0xf4,
0xfc,
0x08,
0xf9,
0xf6,
0xfe,
0x09,
0xfa,
0xf7,
0xfa,
0x0a,
0xf9,
0xf5,
0xfd,
0x0a,
0xf9,
0xf5,
0x03,
0xfe,
0xf7,
0xf6,
0x01,
0xfc,
0xf6,
0xf8,
0x00,
0xfe,
0xf4,
0xf3,
0x00,
0xfc,
0xf2,
0xf5,
0x00,
0x0b,
0xfe,
0xfb,
0xfc,
0x0c,
0xfc,
0xfb,
0x01,
0x09,
0xfe,
0xfb,
0xfe,
0x0b,
0xfb,
0xfa,
0xfd,
0x04,
0xfc,
0xff,
0x00,
0x03,
0xfd,
0x00,
0xfd,
0x04,
0xfc,
0xfd,
0xfc,
0x05,
0xfd,
0xfe,
0x02,
0xe7,
0x12,
0x26,
0xfe,
0xe7,
0x13,
0x25,
0x04,
0xe6,
0x0d,
0x26,
0xfe,
0xe6,
0x0e,
0x25,
0xfe,
0xf3,
0xfd,
0x05,
0xfe,
0xf4,
0xfc,
0x03,
0xfe,
0xf2,
0xfe,
0x06,
0xfe,
0xf3,
0xfd,
0x05,
0x04,
0x02,
0xec,
0xfc,
0xfd,
0x01,
0xed,
0xfc,
0x04,
0x00,
0xf1,
0x00,
0xfd,
0x01,
0xf2,
0x01,
0xff,
0xff,
0x0d,
0x08,
0xfc,
0x00,
0x0f,
0x07,
0x00,
0x01,
0x0d,
0x06,
0xfc,
0x01,
0x0e,
0x06,
0x02,
0x01,
0xfe,
0xfb,
0xfd,
0x01,
0xff,
0xfc,
0x02,
0xfe,
0xfb,
0xf7,
0xfd,
0xff,
0xfc,
0xf8,
0x03,
0x01,
0xfd,
0x05,
0x02,
0x00,
0xfe,
0x05,
0x00,
0xff,
0xfe,
0x06,
0x03,
0xff,
0xfe,
0x06,
0xf5,
0xfc,
0xfd,
0x05,
0xfd,
0xff,
0xf8,
0xfc,
0xf6,
0xff,
0xff,
0x04,
0xfc,
0xfe,
0xfa,
0xfd,
0x01,
0x00,
0xfe,
0x01,
0x01,
0xff,
0xff,
0x02,
0x00,
0x00,
0x02,
0x03,
0x02,
0x00,
0x02,
0x03,
0x01,
0xf0,
0xe6,
0xec,
0xfc,
0xf2,
0xe3,
0xec,
0x02,
0xec,
0xed,
0xf3,
0xfd,
0xee,
0xea,
0xf1,
0xff,
0xfe,
0xfe,
0xff,
0xfc,
0xff,
0xfd,
0xfe,
0xff,
0xfe,
0xff,
0xff,
0xfc,
0xff,
0xfe,
0xfe,
0xe7,
0x01,
0x11,
0x04,
0xf3,
0x01,
0xf8,
0xf9,
0xe7,
0xff,
0x10,
0x02,
0xf2,
0xfd,
0xf6,
0xf5,
0x00,
0xe8,
0xfe,
0x0c,
0xfb,
0xe9,
0xfa,
0x08,
0x01,
0xf1,
0xfb,
0x0f,
0xff,
0xf5,
0xf6,
0x0c,
0xf3,
0x01,
0xf7,
0xfb,
0xf4,
0x01,
0xf9,
0xfb,
0xf3,
0x02,
0xf7,
0xfa,
0xf4,
0x02,
0xfa,
0xfa,
0xe2,
0x03,
0xff,
0x02,
0xd9,
0x01,
0x12,
0x0a,
0xe1,
0xff,
0x00,
0x02,
0xd9,
0x01,
0x14,
0x0a,
0x02,
0x03,
0x06,
0x04,
0x01,
0x03,
0x0a,
0x04,
0x02,
0xff,
0x05,
0x04,
0x00,
0xff,
0x0b,
0x05,
0xfc,
0xfe,
0xf8,
0xff,
0x03,
0x00,
0xf2,
0xfa,
0xfd,
0xff,
0xf8,
0xff,
0x04,
0x01,
0xf2,
0xfa,
0x28,
0x06,
0x15,
0x07,
0x25,
0x07,
0x0e,
0x06,
0x29,
0x00,
0x16,
0x07,
0x24,
0x01,
0x0d,
0x05,
0x01,
0x00,
0x05,
0x01,
0x00,
0x00,
0x03,
0x01,
0x01,
0x00,
0x05,
0x01,
0x01,
0x00,
0x03,
0x01,
0xf3,
0xff,
0x43,
0xe8,
0xfc,
0xfe,
0x42,
0xe7,
0xf4,
0xfd,
0x42,
0xe9,
0xfd,
0xfc,
0x40,
0xe8,
0x00,
0xff,
0x0b,
0x09,
0xfe,
0xfe,
0x0a,
0x0f,
0x02,
0xfd,
0x0b,
0x09,
0xfe,
0xfd,
0x0a,
0x0e,
0xff,
0xf5,
0xfe,
0xf5,
0xfc,
0xf7,
0xfd,
0xf3,
0x00,
0xfc,
0xfb,
0xf0,
0xfb,
0xfa,
0xfa,
0xef,
0x04,
0x00,
0xf7,
0xf8,
0x01,
0x00,
0xf8,
0xf7,
0x03,
0xff,
0xf8,
0xf9,
0x00,
0xfe,
0xf9,
0xf7,
0xff,
0xfc,
0xea,
0xe3,
0xfd,
0xfc,
0xe9,
0xe3,
0xff,
0xf7,
0xe9,
0xe0,
0xfd,
0xf8,
0xe9,
0xe1,
0x05,
0xfa,
0x01,
0x13,
0x00,
0xf7,
0xff,
0x15,
0x05,
0xff,
0xff,
0x15,
0xfe,
0xfd,
0xfd,
0x14,
0x05,
0x00,
0x06,
0x0f,
0x05,
0x05,
0x04,
0x07,
0x07,
0x01,
0x06,
0x0e,
0x05,
0x05,
0x04,
0x07,
0x12,
0x02,
0x0a,
0x07,
0x0f,
0x03,
0x09,
0x08,
0x12,
0x00,
0x09,
0x07,
0x0f,
0x00,
0x09,
0x09,
0xfc,
0x02,
0x06,
0x03,
0x08,
0x04,
0x04,
0x02,
0xfb,
0x0a,
0x05,
0x05,
0x09,
0x0a,
0x04,
0x05,
0xfa,
0x04,
0xf9,
0xf8,
0x04,
0x03,
0xfb,
0xf7,
0xfd,
0x0a,
0xfa,
0xf7,
0x03,
0x0b,
0xfc,
0xf8,
0xf9,
0x08,
0xf7,
0xf2,
0xfc,
0x07,
0xf7,
0xf6,
0xf9,
0x06,
0xf7,
0xf0,
0xfb,
0x06,
0xf6,
0xf2,
0x04,
0xfc,
0xfc,
0xf3,
0x02,
0xfb,
0xfb,
0xf3,
0x02,
0xfd,
0xfa,
0xf0,
0x01,
0xfb,
0xfa,
0xf0,
0x03,
0x09,
0xfe,
0xfd,
0x01,
0x0b,
0xfe,
0xfa,
0x04,
0x0a,
0xfa,
0xf5,
0xff,
0x0b,
0xfa,
0xf3,
0xfc,
0x06,
0xfd,
0xfd,
0x00,
0x04,
0xfe,
0xfe,
0xfc,
0x06,
0xfe,
0xfc,
0xfd,
0x05,
0xff,
0xfc,
0x00,
0xdc,
0x06,
0x2b,
0xfe,
0xdb,
0x08,
0x2d,
0x00,
0xd9,
0x06,
0x2d,
0xff,
0xd9,
0x08,
0x2e,
0xfe,
0xf1,
0xfc,
0x03,
0xff,
0xf2,
0xfb,
0x01,
0xfe,
0xf0,
0xfe,
0x04,
0xfe,
0xf1,
0xfd,
0x02,
0x06,
0x01,
0xfc,
0x0b,
0x00,
0x01,
0x01,
0x0d,
0x06,
0x0e,
0xfe,
0x12,
0xff,
0x0f,
0x02,
0x13,
0xff,
0x00,
0x09,
0x0a,
0xfd,
0x01,
0x09,
0x0a,
0xff,
0x02,
0x09,
0x0a,
0xfd,
0x02,
0x0a,
0x0a,
0x02,
0xff,
0xfa,
0xf4,
0xfe,
0xff,
0xfb,
0xf5,
0x02,
0xfe,
0xfc,
0xf3,
0xfe,
0xff,
0xfd,
0xf4,
0x03,
0x01,
0xfe,
0x07,
0x02,
0x00,
0xfe,
0x07,
0x03,
0x00,
0xfd,
0x0b,
0x03,
0xfe,
0xfd,
0x09,
0x04,
0x01,
0xfb,
0xfe,
0x01,
0x04,
0xfc,
0xfb,
0x07,
0x00,
0xfc,
0xfd,
0x02,
0x00,
0xfe,
0xfa,
0x00,
0x03,
0x04,
0x02,
0x00,
0x02,
0x04,
0x04,
0xff,
0x03,
0x03,
0x02,
0x00,
0x03,
0x03,
0x04,
0xff,
0xfd,
0xf1,
0xe2,
0xfd,
0x00,
0xef,
0xe1,
0xff,
0x04,
0xfb,
0xf5,
0xff,
0x05,
0xf9,
0xf2,
0xff,
0xfe,
0x00,
0xfd,
0xfd,
0xfe,
0x01,
0xfd,
0xfe,
0xfe,
0x01,
0xfe,
0xfd,
0xfe,
0x01,
0xfe,
0xf2,
0xfb,
0x05,
0x01,
0xf6,
0xfb,
0xfd,
0xf7,
0xf1,
0xfb,
0x04,
0xfe,
0xf4,
0xf9,
0xfc,
0xf2,
0x00,
0xda,
0x09,
0x21,
0xfd,
0xdc,
0x08,
0x1f,
0x01,
0xdd,
0x08,
0x21,
0xff,
0xe0,
0x07,
0x1e,
0xf7,
0x03,
0xf7,
0xf4,
0xf7,
0x02,
0xfb,
0xf7,
0xf7,
0x04,
0xf8,
0xf5,
0xf8,
0x03,
0xfc,
0xf7,
0xec,
0x04,
0xfc,
0xf9,
0xe5,
0x03,
0x03,
0xfc,
0xec,
0xff,
0xfd,
0xfa,
0xe6,
0x01,
0x03,
0xfd,
0x00,
0x03,
0x06,
0x02,
0xff,
0x03,
0x05,
0x03,
0xff,
0x00,
0x06,
0x06,
0x00,
0x00,
0x06,
0x08,
0xfb,
0xff,
0xfa,
0xf9,
0xff,
0x00,
0xf8,
0xf8,
0xfb,
0x00,
0xfa,
0xf9,
0x00,
0x01,
0xf8,
0xf8,
0x1f,
0x08,
0x01,
0xf5,
0x1a,
0x07,
0x02,
0xf9,
0x1f,
0x02,
0x01,
0xf5,
0x1a,
0x01,
0x02,
0xf8,
0x01,
0x00,
0x03,
0xfe,
0x00,
0x00,
0x03,
0xff,
0x01,
0x01,
0x03,
0xfe,
0x00,
0x01,
0x03,
0xff,
0xf4,
0xfd,
0x35,
0xda,
0xfd,
0xfc,
0x36,
0xdc,
0xf4,
0xfb,
0x35,
0xd8,
0xfc,
0xf9,
0x35,
0xdb,
0x03,
0x05,
0x44,
0x31,
0xfe,
0x05,
0x45,
0x32,
0x02,
0x00,
0x45,
0x32,
0xfe,
0x00,
0x46,
0x33};
