/* SPDX-License-Identifier: GPL-2.0 */
/*
 * Copyright (c) 2022 MediaTek Inc.
 *
 * Author: Ming-Hsuan Chiang <ming-hsuan.chiang@mediatek.com>
 *
 */

char fdvt_kernel_bias_loop06_1_frame01_7sp[] = {
0xf7,
0x02,
0xee,
0xf7,
0xe8,
0x4f,
0xfd,
0xf9,
0x1e,
0x06,
0x24,
0x13,
0xfa,
0x14,
0xf9,
0x19,
0x03,
0x04,
0xf1,
0xdb,
0x02,
0xea,
0xea,
0x14,
0x02,
0x20,
0xe4,
0x1c,
0xf4,
0xef,
0x1a,
0x09,
0xf1,
0xef,
0x00,
0xfd,
0xf5,
0xf9,
0xe2,
0xf8,
0xef,
0x07,
0xe0,
0x15,
0xfd,
0xe1,
0x10,
0x05,
0x02,
0xf0,
0x03,
0x2f,
0x04,
0xe3,
0xdc,
0xe8,
0xcd,
0xf9,
0x03,
0x06,
0x0c,
0xc7,
0x1a,
0xd7,
0x03,
0xf0,
0xf0,
0xf3,
0xf2,
0xd4,
0x14,
0x02,
0xef,
0xfe,
0x11,
0x03,
0xfb,
0xf4,
0x05,
0x12,
0xea,
0xf7,
0xef,
0xf7,
0x31,
0x13,
0x20,
0xe6,
0xf7,
0xde,
0xe2,
0xeb,
0xe2,
0x1d,
0x02,
0xe6,
0xf2,
0xf5,
0x1e,
0xf3,
0x05,
0x00,
0x0c,
0xf6,
0x0f,
0x20,
0xe9,
0x0a,
0x21,
0x0f,
0x0e,
0xe9,
0x10,
0x1d,
0x09,
0xf8,
0xfa,
0x15,
0xf2,
0xf3,
0xec,
0x1e,
0xfd,
0x03,
0xe3,
0x02,
0x15,
0xf6,
0x03,
0xec,
0xfe,
0xf0,
0x0e,
0xf5,
0xec,
0xe4,
0xf8,
0x06,
0xe7,
0x01,
0xef,
0x0c,
0xdf,
0xe7,
0xe4,
0xfc,
0xf3,
0xfe,
0x0d,
0x08,
0x1e,
0xfd,
0xfc,
0xfd,
0x04,
0x28,
0xfa,
0xec,
0xe6,
0x03,
0xe7,
0xfa,
0xf0,
0x03,
0x21,
0xf2,
0xee,
0xf9,
0xf4,
0xf3,
0xe6,
0x02,
0xe9,
0x1f,
0x0c,
0xf5,
0xf5,
0x1e,
0x19,
0xf6,
0xfc,
0xfa,
0x04,
0xe0,
0xf1,
0x02,
0x03,
0xfe,
0xf1,
0xf3,
0x17,
0x06,
0xec,
0xd7,
0xfd,
0x03,
0x02,
0x27,
0xf5,
0xe0,
0x3d,
0x24,
0xde,
0x02,
0xfe,
0x35,
0xe4,
0xed,
0x1c,
0x2a,
0xe7,
0x15,
0xe4,
0xf3,
0xf6,
0x12,
0x17,
0x11,
0x08,
0xf1,
0x0a,
0xe2,
0xf2,
0xc6,
0xef,
0x00,
0x01,
0x0e,
0xfa,
0x05,
0xd7,
0xe0,
0xe9,
0xfa,
0xd6,
0x22,
0x00,
0xf7,
0xe2,
0xf7,
0x32,
0xf0,
0x03,
0xfe,
0xec,
0xff,
0x0c,
0xfb,
0x0f,
0xfb,
0x0a,
0xf2,
0xfd,
0x01,
0x1d,
0x0c,
0x0f,
0xfa,
0xfe,
0xea,
0x0c,
0x1c,
0x19,
0x0f,
0xf9,
0x06,
0xdb,
0x13,
0xfb,
0x0e,
0x24,
0xfe,
0x16,
0x1b,
0xef,
0xef,
0xc9,
0xea,
0x09,
0x0f,
0x06,
0xfd,
0x00,
0xf5,
0x30,
0x07,
0xeb,
0x1b,
0x18,
0xfd,
0x04,
0x1c,
0x04,
0x21,
0xfb,
0x15,
0x0f,
0xf6,
0xfb,
0xe4,
0x09,
0x19,
0xdd,
0x22,
0xe7,
0x05,
0xef,
0xf0,
0x2b,
0x0a,
0xff,
0xfc,
0xf5,
0x0c,
0xe9,
0xfe,
0x0a,
0xea,
0xec,
0xe9,
0x0a,
0x22,
0x17,
0xf6,
0x20,
0x0c,
0xe4,
0xe5,
0xf5,
0xec,
0xfa,
0x1d,
0xfc,
0x00,
0x13,
0x20,
0x16,
0x0a,
0x36,
0x1c,
0x20,
0x08,
0xf7,
0xf8,
0x09,
0xfb,
0xf5,
0xd4,
0xd0,
0x1a,
0x09,
0x0d,
0x02,
0xf4,
0xf2,
0xd7,
0xfc,
0xc8,
0x11,
0x29,
0x38,
0xe7,
0x14,
0xca,
0xf2,
0x11,
0x19,
0xf1,
0xf8,
0x12,
0xf9,
0x21,
0x1d,
0x06,
0xd1,
0x03,
0xfa,
0xe8,
0xe5,
0xe3,
0x09,
0xe5,
0xf6,
0x15,
0xe8,
0xdf,
0x2a,
0xfb,
0xf6,
0xdf,
0x08,
0xe6,
0x13,
0xd9,
0xf1,
0x0a,
0xf4,
0x31,
0x21,
0x0c,
0xd2,
0xec,
0xec,
0xf9,
0xd8,
0xfe,
0x05,
0x0a,
0xdf,
0xf3,
0x01,
0xea,
0xe4,
0x03,
0x0b,
0xf6,
0xf6,
0xfa,
0x14,
0xd6,
0x0c,
0x02,
0xe0,
0xf4,
0xf9,
0x0b,
0x0b,
0x15,
0xf8,
0xcf,
0xe5,
0x0f,
0x0b,
0x09,
0xfa,
0x09,
0xf3,
0x12,
0x00,
0x10,
0xed,
0xdc,
0x38,
0xf3,
0xf0,
0x1a,
0xd8,
0x05,
0xfb,
0x08,
0xeb,
0x06,
0xfe,
0xed,
0x1a,
0x02,
0x0c,
0xde,
0x06,
0xf9,
0x01,
0x0f,
0xfc,
0x1a,
0x1d,
0xf8,
0x08,
0xdf,
0x09,
0x00,
0x1c,
0xe6,
0x29,
0xf2,
0x34,
0x0f,
0x19,
0xdf,
0x19,
0x10,
0xec,
0x09,
0xf6,
0xfe,
0xf4,
0x08,
0xf9,
0x04,
0x3a,
0xf2,
0x0e,
0xd2,
0x07,
0xf4,
0x07,
0x19,
0xf0,
0x07,
0x07,
0xf7,
0xf7,
0xf7,
0xf2,
0x17,
0x07,
0xfe,
0x2c,
0x0c,
0x01,
0x11,
0x00,
0xf8,
0xf5,
0xc4,
0x35,
0x09,
0x07,
0xff,
0xe9,
0xf8,
0x18,
0x09,
0x0f,
0x0a,
0xf6,
0xee,
0x10,
0x0b,
0xf1,
0xf4,
0x00,
0xea,
0x2e,
0xd7,
0x0d,
0xfb,
0x04,
0xf7,
0x19,
0x11,
0x03,
0x0a,
0x0d,
0x0f,
0x0a,
0x26,
0xfa,
0xf3,
0xf0,
0x1d,
0xf6,
0xf0,
0xe5,
0x06,
0xf2,
0xe9,
0xec,
0x22,
0xe9,
0x03,
0x09,
0x0a,
0xce,
0x0d,
0x05,
0xea,
0x6b,
0xec,
0x10,
0x1c,
0xe5,
0xe6,
0xed,
0x27,
0x17,
0xf7,
0x08,
0x20,
0xf1,
0x08,
0xf4,
0xff,
0x09,
0x0e,
0xff,
0xe3,
0x1d,
0x04,
0x0a,
0xdf,
0x08,
0x11,
0x02,
0xf5,
0xf7,
0x03,
0xf6,
0x2c,
0xf1,
0x02,
0x1f,
0xea,
0xe7,
0xe6,
0xeb,
0x34,
0xd7,
0x16,
0x10,
0xff,
0x00,
0x26,
0xf7,
0x03,
0x03,
0x10,
0x01,
0x18,
0x15,
0xdc,
0xeb,
0xf6,
0x26,
0xfa,
0xe6,
0x06,
0xe9,
0xf3,
0xec,
0xfb,
0x02,
0xff,
0x13,
0xf9,
0x30,
0x01,
0x16,
0xe2,
0x0a,
0xfc,
0x05,
0xfb,
0x14,
0x18,
0xf5,
0x11,
0xf3,
0xee,
0x25,
0xea,
0x07,
0xfb,
0x0c,
0xfd,
0x15,
0xf7,
0xfe,
0x1b,
0x10,
0x1a,
0x12,
0xfa,
0xe5,
0x20,
0x06,
0xd9,
0xf7,
0x0e,
0xee,
0x15,
0x0e,
0x00,
0xff,
0xdd,
0x3e,
0x14,
0xf4,
0xeb,
0xe3,
0xd5,
0xe8,
0xe4,
0xef,
0xe3,
0xf4,
0x2d,
0xf3,
0xf6,
0xf4,
0x11,
0xdb,
0xee,
0xe2,
0x14,
0xf6,
0xee,
0xe2,
0x32,
0x33,
0x08,
0xf5,
0xf6,
0xf7,
0xf5,
0x2c,
0xf9,
0xf4,
0xd3,
0x0b,
0x24,
0xfb,
0xf7,
0x13,
0xd0,
0x00,
0x18,
0xf3,
0xde,
0x0c,
0x09,
0xff,
0x06,
0x11,
0x12,
0xda,
0xed,
0xeb,
0x14,
0xf5,
0xe4,
0x1f,
0x1b,
0xfc,
0x04,
0x1c,
0xf4,
0x0a,
0xd9,
0x00,
0xd5,
0xfd,
0x0a,
0xd4,
0x1d,
0xf3,
0x05,
0x13,
0xf3,
0xfc,
0xf3,
0xdc,
0x0c,
0xd4,
0x00,
0x02,
0x02,
0xf4,
0x1c,
0x09,
0xdc,
0x06,
0x22,
0x1a,
0xf5,
0x02,
0xf5,
0x04,
0x05,
0x0d,
0xe1,
0xef,
0x01,
0x00,
0xf0,
0x01,
0xe9,
0x07,
0x25,
0x0e,
0xf5,
0x1d,
0x0e,
0xb0,
0xea,
0xd5,
0x0b,
0xe3,
0x08,
0xf2,
0x07,
0xf5,
0x0d,
0xf9,
0x13,
0x0c,
0xff,
0x03,
0xf5,
0xda,
0x0c,
0x09,
0xcc,
0x1b,
0xea,
0xdb,
0xfd,
0xe6,
0x29,
0xf9,
0x36,
0xe4,
0xfd,
0xfe,
0xf9,
0xda,
0x08,
0x10,
0x12,
0x02,
0xdd,
0xf5,
0x14,
0x1c,
0xe2,
0xfc,
0x0a,
0xef,
0xef,
0xf2,
0x1b,
0x0f,
0x2e,
0xd8,
0x06,
0xef,
0x04,
0xd6,
0xf4,
0xf4,
0xe4,
0x04,
0xf4,
0xe2,
0x01,
0xec,
0x23,
0x24,
0x30,
0xfb,
0x0d,
0xf1,
0x0e,
0xde,
0xdf,
0x06,
0xfa,
0x13,
0xec,
0x44,
0xcf,
0x20,
0x18,
0xf5,
0xfd,
0x14,
0x36,
0xf5,
0x08,
0xfc,
0xfd,
0x0d,
0xff,
0xfa,
0x15,
0xea,
0xfa,
0xf4,
0xf8,
0xe4,
0xe6,
0xf0,
0xf2,
0x0b,
0xf4,
0xf4,
0x01,
0x1a,
0xdd,
0x0b,
0x14,
0xfc,
0xfa,
0x05,
0x15,
0xf7,
0x07,
0x15,
0xf5,
0xf9,
0x08,
0x09,
0x08,
0x0f,
0x1b,
0x3a,
0x03,
0x02,
0xf6,
0xf6,
0x05,
0x06,
0xfd,
0xe7,
0xfd,
0xe8,
0xee,
0x07,
0x24,
0x07,
0xdd,
0x24,
0xbc,
0x10,
0x00,
0xd7,
0x25,
0x0a,
0x26,
0x05,
0x13,
0xf7,
0x00,
0xf5,
0xf9,
0xf7,
0x0f,
0xfb,
0x17,
0xfe,
0xe6,
0xf2,
0xef,
0xed,
0xf2,
0x13,
0x10,
0xe3,
0xf5,
0xf6,
0x0f,
0x00,
0x02,
0xe9,
0xf1,
0xeb,
0x0d,
0xf1,
0xf8,
0xf5,
0xf4,
0xf1,
0x02,
0x30,
0x0d,
0x10,
0x19,
0xf0,
0xf0,
0xdd,
0x17,
0x00,
0x2f,
0x07,
0x1e,
0xfd,
0xfe,
0x12,
0xfc,
0xf9,
0xe8,
0xe6,
0x1e,
0x0f,
0xd3,
0x07,
0x06,
0xda,
0xec,
0x0b,
0x05,
0xf0,
0xf7,
0x26,
0xf7,
0xe0,
0xe7,
0xe9,
0x0c,
0xee,
0xf5,
0x05,
0xfd,
0x04,
0xec,
0xf0,
0xff,
0x12,
0xf5,
0x03,
0x18,
0x17,
0xdd,
0x00,
0xf9,
0xf0,
0x16,
0xe9,
0xf2,
0x02,
0xdb,
0x13,
0xf8,
0x01,
0x17,
0x26,
0x22,
0x30,
0x12,
0x4c,
0x14,
0x08,
0x55,
0x0c,
0x3e,
0x07,
0x1e,
0x03,
0xc2,
0xf8,
0x1a};
