/* SPDX-License-Identifier: GPL-2.0 */
/*
 * Copyright (c) 2022 MediaTek Inc.
 *
 * Author: Ming-Hsuan Chiang <ming-hsuan.chiang@mediatek.com>
 *
 */

char fdvt_kernel_bias_loop40_1_frame01_7sp[] = {
0xf8,
0xf8,
0x0f,
0x00,
0x10,
0xf7,
0xef,
0x04,
0x09,
0xf2,
0xe1,
0xfb,
0xf7,
0xfa,
0xeb,
0xec,
0xf0,
0xf8,
0x15,
0xf7,
0xff,
0xf3,
0xe2,
0xec,
0x03,
0xff,
0xfb,
0xf5,
0xfe,
0x01,
0xec,
0xf8,
0x0b,
0xf0,
0xfe,
0x01,
0xff,
0x01,
0xf4,
0xee,
0x1d,
0xf8,
0x17,
0x08,
0xff,
0x02,
0xf6,
0x0b,
0xf4,
0x0f,
0x0a,
0x03,
0xe8,
0x0a,
0xed,
0xf4,
0x14,
0x05,
0x1c,
0x14,
0x0f,
0xf0,
0x26,
0x00,
0x01,
0xf6,
0xf7,
0xfa,
0xfe,
0x01,
0xf5,
0xfe,
0xf5,
0x0a,
0xe6,
0x03,
0xfc,
0x05,
0x01,
0x02,
0x0a,
0xf9,
0x07,
0xfa,
0x01,
0x06,
0xfb,
0x01,
0x0b,
0xf2,
0x03,
0x0b,
0x06,
0xf9,
0x10,
0x14,
0xf6,
0xf7,
0x08,
0x03,
0x06,
0x00,
0xfa,
0xfb,
0x04,
0x03,
0xf7,
0xfc,
0xff,
0xfd,
0xe8,
0xfa,
0xfb,
0xf9,
0xed,
0x04,
0x03,
0xf9,
0x02,
0xfd,
0x04,
0xfb,
0xfa,
0xfc,
0xff,
0x02,
0x10,
0x04,
0xff,
0xfc,
0x08,
0x04,
0x06,
0xfc,
0xeb,
0x02,
0xf3,
0x04,
0xfe,
0x01,
0x01,
0xfa,
0x05,
0xfd,
0xf8,
0xf1,
0x05,
0xfa,
0x02,
0xfd,
0x09,
0xf9,
0x11,
0x02,
0x06,
0xfd,
0xfb,
0x01,
0x04,
0x05,
0xf0,
0x03,
0x2c,
0xf9,
0xff,
0xfa,
0xf9,
0x02,
0x05,
0xff,
0x15,
0x08,
0x0f,
0x05,
0xf7,
0x12,
0x01,
0xfe,
0x01,
0xfc,
0xf9,
0x0a,
0xfb,
0xf8,
0x00,
0x09,
0xfb,
0xf8,
0xfd,
0x05,
0xf6,
0xf5,
0x06,
0xff,
0xfd,
0xfa,
0x08,
0xfd,
0x0e,
0x00,
0xef,
0xf8,
0xee,
0x07,
0xf7,
0x0c,
0xf9,
0x0d,
0x06,
0xf8,
0xee,
0x02,
0x04,
0xf6,
0x08,
0xeb,
0xfa,
0x08,
0xeb,
0xf2,
0xff,
0x0e,
0xfc,
0xf8,
0x04,
0x08,
0xf6,
0xf6,
0x05,
0xff,
0xf6,
0xff,
0xed,
0xf2,
0xd2,
0xf6,
0x00,
0xf7,
0xf4,
0xef,
0xfc,
0xfc,
0xff,
0x09,
0xf8,
0x0a,
0x00,
0xfe,
0xfa,
0x0f,
0x0c,
0xfa,
0xfd,
0x01,
0x03,
0x08,
0xfe,
0x0d,
0x00,
0x08,
0xfa,
0x08,
0xf4,
0xf0,
0x06,
0x06,
0x0a,
0xf7,
0x04,
0xf3,
0xfc,
0xf7,
0xfd,
0xf1,
0x06,
0x00,
0xf4,
0x02,
0x02,
0x02,
0xf4,
0x0f,
0x0b,
0xfd,
0xfe,
0xf3,
0x09,
0xf4,
0xff,
0xfd,
0x0a,
0x08,
0x10,
0xfc,
0xfc,
0xf7,
0x10,
0x00,
0xf5,
0xf9,
0x04,
0xfb,
0xec,
0xff,
0xfc,
0x07,
0xf8,
0xf7,
0x08,
0x06,
0x0b,
0xe2,
0xf4,
0xf7,
0xf1,
0xe8,
0xfc,
0xee,
0x07,
0x0c,
0x03,
0xfb,
0xe4,
0x09,
0x02,
0x0c,
0x05,
0x06,
0x09,
0xff,
0x0f,
0xfe,
0x02,
0x07,
0x01,
0xfa,
0x03,
0xf6,
0xff,
0x07,
0x02,
0xfc,
0x00,
0xff,
0x14,
0xf5,
0xfa,
0x0e,
0xff,
0xfd,
0xfc,
0x04,
0x12,
0xfb,
0x02,
0xfc,
0x0f,
0xe0,
0xf1,
0x11,
0xef,
0x08,
0xe0,
0x0b,
0x02,
0xf7,
0xf0,
0x1a,
0x13,
0x03,
0xea,
0x01,
0xf8,
0x0f,
0x19,
0x0c,
0xed,
0xfd,
0x06,
0x08,
0xfe,
0x02,
0x0a,
0x15,
0x08,
0xf9,
0xfe,
0xfe,
0x02,
0x00,
0xfb,
0x09,
0xe9,
0x03,
0xd9,
0xf4,
0xf5,
0xf5,
0xf0,
0xf6,
0x0d,
0x02,
0xf3,
0xfe,
0x01,
0xfc,
0x13,
0x1c,
0xfa,
0xfa,
0xc9,
0xff,
0x00,
0xef,
0xf5,
0x17,
0xfa,
0x02,
0xf0,
0x00,
0x06,
0x02,
0x01,
0xf5,
0xf8,
0xfd,
0x00,
0x08,
0xf8,
0xfd,
0xf9,
0x08,
0x08,
0x06,
0x02,
0xfd,
0x00,
0xf3,
0xfb,
0xf7,
0xf4,
0xfa,
0x02,
0xff,
0xf9,
0x05,
0x04,
0x04,
0x06,
0xf8,
0xff,
0x02,
0x07,
0x01,
0xfc,
0x08,
0x02,
0x05,
0xf5,
0xef,
0xf8,
0xee,
0xfe,
0xfb,
0xeb,
0xfc,
0xf0,
0x0c,
0xfd,
0xfa,
0xf5,
0xe8,
0xeb,
0x06,
0xe8,
0xf3,
0xff,
0xfb,
0xff,
0xee,
0x09,
0xf9,
0x0f,
0x05,
0x0f,
0xf1,
0xf3,
0xfb,
0xff,
0x01,
0xeb,
0x06,
0xfc,
0x08,
0xf2,
0x05,
0xff,
0x05,
0x0f,
0x02,
0x06,
0xf6,
0xfd,
0x03,
0x07,
0x07,
0x1f,
0x00,
0xfe,
0xfd,
0x04,
0x04,
0xfd,
0xf0,
0x0d,
0xff,
0x07,
0x07,
0x06,
0xf1,
0xfa,
0x07,
0xe5,
0xfc,
0xf8,
0xfe,
0xf5,
0xfe,
0xed,
0xf2,
0x13,
0xf6,
0xef,
0x06,
0x01,
0xeb,
0xfb,
0x01,
0x05,
0x00,
0xf5,
0x08,
0xea,
0x0a,
0xf6,
0xf8,
0xf9,
0x0e,
0xfd,
0x12,
0x12,
0xed,
0x03,
0x08,
0x07,
0xf7,
0x06,
0x0d,
0x16,
0xed,
0xf9,
0x05,
0xee,
0xf7,
0xff,
0x02,
0xfb,
0xf8,
0xf6,
0x00,
0xf3,
0xfb,
0xf9,
0x03,
0xfe,
0xf4,
0x01,
0x0c,
0x00,
0x01,
0x02,
0xfa,
0xfc,
0xef,
0x09,
0xeb,
0x10,
0xf7,
0xfb,
0x0b,
0xf9,
0xfe,
0x08,
0xfa,
0x03,
0xfd,
0x07,
0x19,
0xff,
0x08,
0x10,
0xff,
0x0d,
0xf2,
0xfa,
0xf7,
0x03,
0xf7,
0x02,
0x0f,
0x0b,
0xff,
0x07,
0x0b,
0x0a,
0xfd,
0x11,
0xff,
0x01,
0x09,
0xff,
0x02,
0xe8,
0x04,
0xec,
0xfe,
0x00,
0xf9,
0x05,
0xf8,
0x11,
0x02,
0xf8,
0x0c,
0xf3,
0xf8,
0xfe,
0x05,
0x0a,
0xf8,
0xff,
0xe7,
0x0b,
0xf6,
0x00,
0x05,
0xfe,
0x0a,
0x04,
0x05,
0x00,
0x04,
0x04,
0x04,
0xfa,
0xff,
0xfc,
0xfe,
0x03,
0xff,
0x05,
0xf5,
0xf8,
0xe4,
0xfd,
0xf7,
0xf8,
0xf7,
0x02,
0x01,
0x08,
0xfb,
0xfe,
0xf7,
0xfc,
0x08,
0xfb,
0x05,
0x0c,
0xfe,
0xf3,
0xf6,
0xfe,
0x03,
0xf3,
0x0e,
0xf5,
0x03,
0xe6,
0xf5,
0x0b,
0x08,
0x07,
0x02,
0x08,
0xff,
0xeb,
0x06,
0xf3,
0xfd,
0xf9,
0xf9,
0x00,
0x0a,
0x15,
0x03,
0x21,
0xe2,
0x07,
0xfd,
0x07,
0x07,
0x11,
0xf7,
0x01,
0x0c,
0xf8,
0x16,
0x0a,
0x05,
0x06,
0x00,
0x0c,
0x05,
0x04,
0xfd,
0x05,
0x0d,
0x05,
0x12,
0x01,
0xff,
0x01,
0xff,
0xf7,
0x0e,
0xf3,
0x05,
0x07,
0xf7,
0x01,
0x0d,
0xf6,
0xef,
0x02,
0x0d,
0xfe,
0x05,
0x07,
0x06,
0x0a,
0xf8,
0x08,
0x02,
0xed,
0xf6,
0xfb,
0x05,
0x0f,
0xf9,
0xf8,
0x06,
0xc6,
0xf3,
0xfa,
0xfc,
0x16,
0xfd,
0x16,
0x06,
0x0c,
0xfe,
0xfc,
0xfe,
0x00,
0x07,
0x05,
0x16,
0xfe,
0x04,
0xf6,
0x00,
0x02,
0x0a,
0xf3,
0x0b,
0x0f,
0xfa,
0x13,
0xf2,
0xf3,
0x02,
0xff,
0xfb,
0xea,
0xf7,
0xfa,
0x02,
0x09,
0x16,
0x06,
0xef,
0xf1,
0xf9,
0x1c,
0x16,
0x02,
0xf7,
0xf9,
0xdd,
0x00,
0x01,
0xf5,
0x03,
0x25,
0x0a,
0x06,
0x0e,
0xef,
0x07,
0xf1,
0xf2,
0xf9,
0x04,
0xee,
0x1b,
0xe5,
0xf6,
0x0e,
0x34,
0x1b,
0xfa,
0x08,
0xfd,
0x09,
0x01,
0xf3,
0x01,
0x05,
0xfa,
0x04,
0x1b,
0xfd,
0xf4,
0x09,
0xfd,
0x19,
0xf7,
0x09,
0x03,
0x0c,
0x11,
0xf8,
0xfc,
0xee,
0x00,
0xf4,
0x04,
0x0b,
0xec,
0xf6,
0x06,
0x17,
0x18,
0x05,
0xfa,
0x13,
0x05,
0xf8,
0xf3,
0xfa,
0xf7,
0xf6,
0xfe,
0xf9,
0x13,
0xe7,
0x0a,
0xf9,
0xf0,
0x33,
0x32,
0x0f,
0x0a,
0x08,
0x14,
0xf3,
0x01,
0xf4,
0xf8,
0xf4,
0x12,
0xfd,
0x19,
0x04,
0xf5,
0xf6,
0xf2,
0xf1,
0xfc,
0xf0,
0x1c,
0xeb,
0xf5,
0xea,
0xea,
0x06,
0xec,
0xfb,
0x09,
0xfa,
0x2f,
0xef,
0xf9,
0xf9,
0xfb,
0xe5,
0x0a,
0x1a,
0x0d,
0xf2,
0xe4,
0xdb,
0x0e,
0x28,
0xf6,
0x05,
0x0e,
0xfc,
0xe6,
0xff,
0xf7,
0xf4,
0xee,
0x17,
0xf5,
0xe6,
0xf8,
0xf4,
0xda,
0xfb,
0x00,
0x04,
0xfb,
0xeb,
0xf2,
0xee,
0x29,
0xf9,
0xfa,
0x13,
0xfe,
0xf8,
0xeb,
0xe5,
0x10,
0x00,
0x15,
0x20,
0x14,
0xf0,
0x14,
0xfa,
0xe7,
0xf7,
0xf3,
0xf0,
0xeb,
0x03,
0x17,
0x14,
0x29,
0xf9,
0x05,
0xf9,
0xff,
0x33,
0x1e,
0xef,
0xe8,
0xea,
0x0b,
0xf4,
0xf4,
0x07,
0xef,
0xee,
0x18,
0x12,
0xe5,
0x18,
0xfd,
0x05,
0xd8,
0x08,
0xe5,
0xea,
0xfd,
0x30,
0x1c,
0x18,
0xe9,
0xdb,
0xdd,
0x15,
0xf4,
0x19,
0xf0,
0xf7,
0x11,
0xf1,
0xeb,
0x01,
0x05,
0xf0,
0xe9,
0xfc,
0x0f,
0x06,
0x11,
0xf7,
0xf4,
0xf8,
0x04,
0x03,
0x02,
0xef,
0x00,
0xeb,
0xf9,
0x06,
0xf5,
0x00,
0xfe,
0xfb,
0x01,
0x01,
0x0a,
0x16,
0x14,
0x05,
0x02,
0xfa,
0x01,
0xf6,
0xf1,
0xfd,
0xf9,
0xf7,
0xfd,
0x04,
0x02,
0x07,
0x07,
0xfc,
0x13,
0x06,
0xfd,
0xfc,
0xf9,
0xf7,
0x13,
0xf9,
0x0a,
0xfc,
0x0b,
0x00,
0xfb,
0x0a,
0x02,
0x07,
0x02,
0xf3,
0x1a,
0x06,
0xf9,
0x08,
0x05,
0xfb,
0x02,
0x0c,
0x0f,
0x0a,
0x04,
0x05,
0x09,
0xcf,
0xd4,
0xef,
0xfa,
0xf3,
0x05,
0x00,
0xf6,
0xfd,
0xe9,
0xfd,
0xed,
0x0d,
0x0a,
0x02,
0xfb,
0xf3,
0xfd,
0xf7,
0x09,
0xff,
0x02,
0xfc,
0x06,
0x04,
0x04,
0xfb,
0xf2,
0x01,
0xfe,
0x03,
0xee,
0xf6,
0x1f,
0x05,
0xee,
0xf8,
0xff,
0xf6,
0xfe,
0xfc,
0x01,
0x06,
0xf9,
0x03,
0x07,
0xf7,
0x07,
0xeb,
0x07,
0x06,
0xff,
0xf2,
0xfe,
0xfd,
0xfb,
0x03,
0xf1,
0xfd,
0xfa,
0xf1,
0x09,
0xfc,
0x04,
0x10,
0xfd,
0xfb,
0xfa,
0xf7,
0x03,
0x06,
0x05,
0x06,
0xf9,
0xfe,
0xfb,
0x05,
0x06,
0x03,
0xfd,
0x06,
0x1a,
0x0b,
0xf7,
0x01,
0x01,
0x01,
0x02,
0x00,
0x01,
0xfc,
0x0d,
0x01,
0x08,
0x02,
0xf3,
0xe2,
0xea,
0xf8,
0x05,
0xf9,
0x06,
0xfd,
0x0a,
0x00,
0x0d,
0x02,
0xfa,
0xf2,
0xf9,
0x00,
0x10,
0x07,
0x19,
0x05,
0xfd,
0xf6,
0xf8,
0xf5,
0x05,
0xfc,
0x03,
0x01,
0xfc,
0xfc,
0x05,
0xfc,
0x02,
0x08,
0xfd,
0xf9,
0x07,
0x06,
0xff,
0x04,
0xf5,
0x0e,
0xfa,
0xfe,
0x00,
0x00,
0xfd,
0xfe,
0xf7,
0x11,
0xfe,
0x05,
0x00,
0xf6,
0x04,
0x01,
0xfd,
0xfb,
0x04,
0xf8,
0xf3,
0xfe,
0x04,
0xff,
0xfa,
0x02,
0xfa,
0x07,
0xfe,
0xeb,
0x08,
0xed,
0xf9,
0xfa,
0x02,
0xff,
0xfc,
0x00,
0x0c,
0x09,
0x0c,
0xfd,
0xf2,
0x00,
0x0a,
0x00,
0xfe,
0xec,
0x04,
0xfe,
0xf4,
0x0e,
0xfe,
0x06,
0xf5,
0xff,
0x09,
0xed,
0xf8,
0xfd,
0x08,
0xfc,
0x01,
0xfb,
0x05,
0xfe,
0x11,
0xf5,
0x07,
0xf4,
0x06,
0x00,
0x03,
0xfa,
0xfa,
0x07,
0x05,
0xe7,
0xfc,
0xf6,
0x06,
0x03,
0xf1,
0x02,
0xfe,
0x00,
0x03,
0xf6,
0x07,
0xf8,
0xed,
0xff,
0x0f,
0xfc,
0x07,
0xf0,
0xf8,
0xf5,
0x04,
0x00,
0x05,
0xf3,
0x01,
0x0b,
0x07,
0x0c,
0xfd,
0x07,
0x00,
0x03,
0x02,
0x05,
0xf0,
0x08,
0x01,
0xea,
0xf2,
0xfb,
0x00,
0x03,
0xf9,
0x02,
0xf7,
0x04,
0xfb,
0xf0,
0xfc,
0x0c,
0xfc,
0x08,
0x02,
0xf5,
0x03,
0x00,
0x05,
0xfb,
0x04,
0xed,
0xf0,
0xfd,
0x0a,
0xf8,
0x03,
0x0a,
0x14,
0x01,
0x03,
0xf8,
0xfa,
0xfd,
0x04,
0xf2,
0xfd,
0x00,
0x0d,
0xfe,
0x05,
0x15,
0x0a,
0x04,
0x09,
0x09,
0xf2,
0xe7,
0xfd,
0x0b,
0x06,
0xfb,
0xf1,
0x1a,
0x19,
0x09,
0xf3,
0x04,
0xf4,
0x01,
0x01,
0xff,
0xf4,
0x03,
0x06,
0x0f,
0xef,
0xff,
0x02,
0xfc,
0xeb,
0xfb,
0xe8,
0xff,
0x04,
0xf7,
0x0c,
0x04,
0xf4,
0xfe,
0xff,
0x05,
0x02,
0x0a,
0xfe,
0x08,
0x0d,
0xff,
0x05,
0x06,
0xff,
0x03,
0xfa,
0x09,
0xff,
0xe4,
0xf3,
0x03,
0xfd,
0xff,
0xfb,
0x19,
0x18,
0xf3,
0x05,
0x12,
0x05,
0xf8,
0xff,
0x01,
0xfa,
0x04,
0x02,
0x0e,
0x06,
0xff,
0xf7,
0xf0,
0x01,
0xfd,
0x03,
0x0a,
0xfd,
0xfa,
0x0a,
0x07,
0xfc,
0xf9,
0xfc,
0x03,
0x02,
0xf6,
0xe7,
0x04,
0xfa,
0x07,
0x09,
0x05,
0xf7,
0xfd,
0xef,
0x04,
0xfa,
0x07,
0x05,
0xfb,
0x00,
0xfe,
0x05,
0xf7,
0x06,
0xf1,
0xef,
0xfa,
0x0c,
0x12,
0xeb,
0x05,
0x03,
0xef,
0xfc,
0x02,
0x06,
0x04,
0xfc,
0x00,
0xf5,
0xfe,
0x19,
0x08,
0x0c,
0xf6,
0xfb,
0xff,
0x06,
0xf2,
0x00,
0x06,
0x04,
0xf9,
0x06,
0x0d,
0x01,
0xf9,
0x12,
0x0e,
0x04,
0x09,
0xfb,
0x03,
0x03,
0x06,
0xfe,
0x00,
0x07,
0x08,
0xf9,
0x1a,
0xfc,
0x0d,
0xee,
0x07,
0x07,
0x01,
0x01,
0x12,
0xfd,
0xfa,
0xf3,
0xfb,
0xfc,
0xf0,
0x13,
0xff,
0xfd,
0x07,
0xf4,
0xf3,
0xef,
0xf7,
0x03,
0x11,
0x0f,
0x06,
0xea,
0x0b,
0x0f,
0xec,
0x01,
0xe7,
0xf6,
0xfa,
0xfe,
0xff,
0x07,
0xfd,
0xf8,
0xfe,
0xf5,
0xe5,
0xf6,
0xfe,
0xfa,
0xee,
0x06,
0xf4,
0xef,
0xff,
0xf8,
0x03,
0xff,
0x01,
0xf9,
0x07,
0x05,
0x0e,
0xfb,
0xf9,
0x05,
0x11,
0xf7,
0x00,
0x01,
0x0a,
0x00,
0xea,
0xee,
0xfc,
0xfa,
0x01,
0x14,
0xf5,
0x00,
0xf3,
0xf4,
0xf0,
0xfa,
0xf9,
0xf2,
0xfd,
0x02,
0xfb,
0xf0,
0x04,
0xe5,
0x03,
0xfb,
0xf0,
0x13,
0x03,
0x18,
0xf3,
0xfd,
0xf8,
0x0c,
0xf9,
0xf2,
0x0f,
0x09,
0x09,
0x0a,
0x0d,
0x09,
0x07,
0xf3,
0xfb,
0xf2,
0xf9,
0xfe,
0xf5,
0xff,
0xf8,
0x07,
0x02,
0x01,
0x10,
0x0e,
0xff,
0x11,
0x00,
0xf8,
0xee,
0x06,
0xfc,
0x04,
0xea,
0xf7,
0x12,
0xf2,
0x06,
0xec,
0x09,
0xfa,
0x1b,
0x07,
0xf9,
0xf3,
0xf9,
0x11,
0xf7,
0xf6,
0x1a,
0x1a,
0x04,
0x0b,
0x0d,
0xfb,
0x05,
0x03,
0x05,
0x02,
0x00,
0xfd,
0xfb,
0x09,
0xfb,
0xed,
0xf1,
0xf8,
0xf8,
0xf5,
0xf7,
0xf4,
0xfa,
0x2e,
0x0c,
0x02,
0x00,
0xf6,
0xf2,
0x09,
0x05,
0xf1,
0xd5,
0xfb,
0xfa,
0xfc,
0x03,
0xfd,
0x00,
0xfc,
0x16,
0xfb,
0x00,
0x09,
0x05,
0x00,
0x05,
0x09,
0xf6,
0xfd,
0x01,
0xe7,
0x06,
0xf8,
0xf2,
0xf5,
0x19,
0xee,
0xf7,
0xf8,
0x07,
0x11,
0xe6,
0xea,
0x1f,
0x07,
0x01,
0x0f,
0xfa,
0xff,
0x06,
0xf3,
0x02,
0xfd,
0x0b,
0x04,
0xf9,
0x07,
0xfb,
0x0b,
0x1c,
0x09,
0xfa,
0x06,
0xf7,
0x01,
0x0b,
0xff,
0x0a,
0xfa,
0x00,
0x01,
0x0f,
0x07,
0x03,
0x09,
0xf8,
0xfa,
0x0e,
0xf8,
0x01,
0xea,
0xf2,
0x09,
0x0d,
0xf6,
0x0b,
0x08,
0x08,
0x05,
0x09,
0x0b,
0x00,
0x01,
0xfb,
0xf6,
0x18,
0xf6,
0x0b,
0xde,
0xea,
0xf3,
0x09,
0xe0,
0xea,
0x0e,
0xfc,
0xe0,
0x1d,
0x08,
0xf0,
0xeb,
0xea,
0x21,
0xfe,
0xf0,
0x07,
0x0b,
0xfc,
0x18,
0xee,
0x01,
0xf2,
0xfa,
0x06,
0x12,
0xfe,
0x07,
0xed,
0x08,
0xff,
0x20,
0x00,
0x06,
0x10,
0xe6,
0xf3,
0x04,
0x07,
0x0d,
0x1a,
0x09,
0xea,
0xfb,
0x27,
0xf6,
0xef,
0xfe,
0xf9,
0x07,
0x14,
0x37,
0xf9,
0x00,
0x15,
0x00,
0xf6,
0x03,
0x3a,
0xfc,
0xea,
0x10,
0x09,
0x02,
0xf8,
0xf9,
0x11,
0xf5,
0x00,
0x02,
0xfb,
0xfd,
0x0c,
0x00,
0xf8,
0xf8,
0xde,
0x21,
0xff,
0xef,
0xfb,
0xf9,
0x0e,
0x10,
0xfd,
0xf5,
0x10,
0x00,
0xf7,
0x07,
0x07,
0x0e,
0xd3,
0xeb,
0xed,
0x18,
0x17,
0x2f,
0xe7,
0x07,
0x0e,
0x10,
0x09,
0xfd,
0xe5,
0xf4,
0xee,
0xf9,
0xfe,
0xf5,
0x10,
0x16,
0x11,
0xf2,
0x0a,
0xdd,
0xfa,
0x13,
0xf7,
0x07,
0xf0,
0xf4,
0x0f,
0xe9,
0xfc,
0xf8,
0xdd,
0xeb,
0xfc,
0xf3,
0xe0,
0x03,
0x0c,
0x24,
0x02,
0x1b,
0xf4,
0xf8,
0xdb,
0xcf,
0xe2,
0xe6,
0xd4,
0xf9,
0xe5,
0x03,
0x11,
0xff,
0x2e,
0x05,
0x0b,
0x01,
0x05,
0x29,
0xe6,
0x00,
0x02,
0xfe,
0x38,
0x1b,
0x00,
0x01,
0xf8,
0xf0,
0xfc,
0xdc,
0x12,
0x01,
0xde,
0xe9,
0xf9,
0xfa,
0xfb,
0x10,
0xff,
0x05,
0x01,
0x0d,
0x1e,
0x03,
0xfb,
0x06,
0x06,
0xfa,
0x00,
0xfd,
0x01,
0x08,
0xea,
0xf5,
0x13,
0x10,
0xf1,
0x01,
0xfe,
0xf2,
0xf3,
0xfe,
0xfe,
0xe3,
0xee,
0xef,
0xff,
0xfb,
0xed,
0xe8,
0xf7,
0xf6,
0x15,
0x2d,
0x17,
0xfc,
0x12,
0x09,
0x2d,
0xf4,
0xf3,
0xf1,
0xd9,
0x2e,
0xfa,
0x0f,
0xfe,
0xde,
0xec,
0xf8,
0xee,
0xf1,
0x0c,
0xf3,
0xfa,
0xfe,
0x20,
0x2c,
0xf3,
0xdb,
0x0e,
0x02,
0x05,
0x05,
0xfc,
0x13,
0xf8,
0x0a,
0xff,
0xfd,
0xe9,
0x0c,
0x13,
0xf0,
0xf9,
0xf8,
0x09,
0x09,
0x04,
0xfd,
0x07,
0x02,
0x05,
0x00,
0x00,
0xf6,
0xfd,
0xef,
0xfc,
0x10,
0xea,
0xf7,
0xfe,
0xf7,
0x08,
0xf9,
0xff,
0x05,
0x01,
0xfb,
0xf2,
0xfd,
0x04,
0xff,
0x09,
0xfc,
0x05,
0x07,
0x0c,
0x12,
0x04,
0xeb,
0x05,
0xfd,
0xfd,
0x00,
0x09,
0xf1,
0x06,
0xf8,
0x00,
0x10,
0x0f,
0xfb,
0x0b,
0x19,
0xe9,
0xdb,
0xff,
0xf5,
0xfc,
0x1b,
0x09,
0x0f,
0x08,
0x06,
0xfb,
0xfb,
0xf8,
0x03,
0xff,
0x01,
0xeb,
0xf8,
0xfe,
0x06,
0x02,
0xf6,
0xf2,
0x01,
0xf9,
0x02,
0x04,
0x07,
0x00,
0x0e,
0x06,
0xef,
0xf4,
0xf0,
0xf3,
0x00,
0x04,
0xee,
0xfb,
0x0e,
0xf8,
0x05,
0xf7,
0xf8,
0x03,
0xff,
0x02,
0xf5,
0xf6,
0x0e,
0x01,
0x0b,
0x02,
0x02,
0xea,
0x01,
0x03,
0x03,
0xf4,
0x12,
0x05,
0x00,
0x00,
0xff,
0xf4,
0x00,
0x09,
0xfc,
0xf5,
0x07,
0xfd,
0xfc,
0xff,
0x04,
0x06,
0x00,
0x06,
0x02,
0xfb,
0xfb,
0xfc,
0xff,
0x04,
0xfd,
0x00,
0x06,
0xfa,
0x06,
0x02,
0x04,
0x01,
0xfa,
0xf6,
0xf0,
0x05,
0xf8,
0x03,
0xf9,
0xfd,
0x0b,
0xf9,
0x00,
0xff,
0x13,
0xf9,
0x03,
0xf5,
0xfb,
0xf4,
0x1a,
0x04,
0x00,
0x07,
0x00,
0xf9,
0x04,
0x03,
0xf5,
0xf5,
0x05,
0x07,
0x07,
0xf8,
0xe6,
0xfa,
0x03,
0x00,
0x08,
0xee,
0xf4,
0x02,
0xfc,
0x03,
0xf6,
0x04,
0xf6,
0x01,
0x0f,
0xfc,
0xf7,
0x12,
0xff,
0xff,
0xfa,
0x09,
0x09,
0x05,
0x04,
0xfd,
0x0e,
0xfe,
0xfb,
0xf5,
0xfb,
0xf7,
0x07,
0x0e,
0x00,
0x01,
0xfb,
0x00,
0x09,
0x04,
0x07,
0x03,
0xfa,
0x01,
0xf4,
0x02,
0xf7,
0xfa,
0xfb,
0xf7,
0xf6,
0x07,
0x12,
0xed,
0xf5,
0x0b,
0xf3,
0x07,
0x0a,
0x06,
0xf5,
0xf4,
0xf7,
0x00,
0x0a,
0xfe,
0xfe,
0x0c,
0x13,
0xff,
0x05,
0x01,
0x03,
0x05,
0xff,
0xf7,
0xf8,
0x07,
0xee,
0x02,
0x05,
0x00,
0x02,
0xfe,
0xff,
0xf8,
0xef,
0xff,
0x06,
0x07,
0xf7,
0x09,
0x01,
0xfe,
0x0e,
0x05,
0x02,
0xf1,
0xf3,
0xff,
0x06,
0x03,
0x0d,
0x04,
0x07,
0x0b,
0xf7,
0x0d,
0x0c,
0x00,
0x0b,
0xfe,
0xfb,
0xf1,
0xfb,
0xfe,
0x07,
0x08,
0xfa,
0x0a,
0x00,
0x00,
0x0d,
0x03,
0xeb,
0x00,
0xf8,
0x02,
0x0d,
0x01,
0xfa,
0xfd,
0xfc,
0xf7,
0x1a,
0xf9,
0xf7,
0xfe,
0x01,
0x05,
0xff,
0xee,
0x03,
0x00,
0x0d,
0xfe,
0xfa,
0x03,
0x05,
0xfc,
0x07,
0x04,
0xfb,
0xf7,
0x00,
0x0c,
0xf8,
0x06,
0x00,
0xf6,
0x08,
0xff,
0x0d,
0x01,
0xf5,
0x05,
0xf5,
0x01,
0x00,
0xf3,
0xf5,
0x01,
0xfb,
0x08,
0xf7,
0x08,
0xf4,
0x17,
0x18,
0xf9,
0xff,
0x02,
0x08,
0xfb,
0x1e,
0xfa,
0xf8,
0xed,
0x0b,
0xee,
0xf7,
0x09,
0xf7,
0x0e,
0xf5,
0xf6,
0x00,
0xf8,
0x16,
0x09,
0x03,
0xfe,
0xee,
0xf7,
0xf5,
0xfb,
0x02,
0x07,
0xf9,
0xef,
0xfc,
0xed,
0xf4,
0xee,
0x08,
0x0c,
0x00,
0x07,
0xfe,
0xf9,
0x03,
0xf9,
0xfb,
0xf4,
0xfd,
0x04,
0xfa,
0xfa,
0x0b,
0xfd,
0x07,
0xef,
0x06,
0xf7,
0xed,
0x12,
0x04,
0xf1,
0xfb,
0x11,
0x14,
0x10,
0xf2,
0x03,
0xf8,
0xff,
0xfc,
0x00,
0x01,
0x00,
0x14,
0x00,
0x03,
0xf8,
0x05,
0xf7,
0xef,
0x12,
0x03,
0xf4,
0xfd,
0xf5,
0xfd,
0xf7,
0xfe,
0xfa,
0xfa,
0x0a,
0x02,
0xf1,
0x09,
0xf2,
0xfc,
0xf9,
0xf8,
0xff,
0x07,
0xfd,
0xf7,
0xfc,
0xfe,
0xff,
0xfa,
0xf8,
0xfb,
0x04,
0xf6,
0xfd,
0xf5,
0x01,
0xfe,
0xfc,
0x13,
0xf2,
0x00,
0xff,
0xfb,
0x00,
0xf5,
0xfd,
0x0b,
0x02,
0x04,
0xfa,
0x15,
0xf2,
0x07,
0xff,
0xfe,
0xff,
0xf7,
0xf9,
0xf0,
0x04,
0x04,
0x04,
0x01,
0xfd,
0x0f,
0xfd,
0x00,
0xf6,
0x08,
0xfb,
0xfc,
0x09,
0x05,
0xfb,
0x05,
0xff,
0x01,
0xfd,
0x01,
0x00,
0x11,
0x02,
0xf7,
0x23,
0x12,
0x05,
0xfe,
0xfc,
0x11,
0x06,
0xfa,
0xff,
0xff,
0x04,
0x06,
0x03,
0xea,
0xfa,
0x06,
0x10,
0x12,
0xec,
0x13,
0xf2,
0xe3,
0xdf,
0xfa,
0xf4,
0xf6,
0x0f,
0x0d,
0x06,
0xe5,
0x0b,
0x0b,
0x0b,
0x01,
0x0f,
0xff,
0x0d,
0x0c,
0x02,
0xf2,
0xfc,
0xf9,
0x02,
0xf9,
0x1c,
0x02,
0x09,
0xf7,
0x0c,
0x03,
0x0c,
0xfb,
0x02,
0xfe,
0xff,
0x15,
0xf4,
0xff,
0x05,
0x03,
0xf8,
0x03,
0xf1,
0x01,
0x1b,
0xf1,
0xf9,
0xf5,
0x03,
0x01,
0x08,
0xef,
0x0b,
0xf4,
0x06,
0xf3,
0xed,
0xf3,
0xf8,
0xff,
0xe8,
0xec,
0xf8,
0x0e,
0x04,
0x0c,
0x00,
0x04,
0x0b,
0xfe,
0x04,
0x11,
0x11,
0x0e,
0xf2,
0xf8,
0xf4,
0x08,
0xfe,
0x01,
0x03,
0xfe,
0xfb,
0x0a,
0xfb,
0x06,
0xfe,
0xf2,
0xfb,
0x00,
0xf3,
0xf5,
0x12,
0x09,
0x03,
0x0a,
0xf6,
0xf8,
0xf4,
0x01,
0xfb,
0xed,
0xf2,
0x05,
0xec,
0x00,
0x02,
0xeb,
0x08,
0x05,
0xf7,
0x06,
0x03,
0x06,
0xf8,
0x08,
0x03,
0xe6,
0x05,
0xfc,
0xf1,
0xf5,
0xff,
0x02,
0x0d,
0xf3,
0x0c,
0x06,
0xfb,
0xfd,
0x0c,
0xf9,
0x05,
0x06,
0xfa,
0xfb,
0x0b,
0xf7,
0x01,
0x0a,
0x00,
0x0c,
0xfb,
0xfd,
0xf9,
0xe8,
0x0d,
0xfa,
0xf1,
0xf6,
0x10,
0x02,
0xfd,
0x00,
0xfc,
0xf6,
0x07,
0xf5,
0xff,
0x15,
0xf9,
0x0f,
0xf7,
0xf7,
0x0b,
0x06,
0xf0,
0xfd,
0xf0,
0x01,
0xf5,
0xf2,
0x15,
0xff,
0xf8,
0x00,
0x06,
0x08,
0xf1,
0xff,
0x12,
0xfe,
0x0c,
0xf9,
0xff,
0xfd,
0xf8,
0x2d,
0xfd,
0x05,
0x00,
0x0c,
0x03,
0xf8,
0x02,
0x0e,
0xfd,
0x07,
0xf2,
0xfe,
0x07,
0xf4,
0x04,
0x09,
0xe9,
0x0b,
0xf1,
0xf6,
0xfb,
0x15,
0xf2,
0x0d,
0x07,
0xeb,
0xeb,
0x05,
0x01,
0x11,
0xfc,
0x06,
0x03,
0xfe,
0x05,
0x05,
0x08,
0x0c,
0x01,
0xf9,
0x07,
0x02,
0x00,
0xfd,
0x05,
0xf5,
0xf6,
0x08,
0x13,
0x06,
0xfd,
0x30,
0xe3,
0x0c,
0xdf,
0xe9,
0x0e,
0x0f,
0x1f,
0x00,
0xfb,
0xf2,
0xfa,
0x00,
0xf6,
0x02,
0xf8,
0x09,
0xeb,
0x06,
0xf5,
0x06,
0xfe,
0xdc,
0xfa,
0xff,
0x02,
0xf8,
0x0e,
0x03,
0xf3,
0xf0,
0xff,
0x21,
0xf9,
0xe2,
0x07,
0x0c,
0xff,
0x11,
0x0a,
0xfd,
0x10,
0xfd,
0x1a,
0xe2,
0xfc,
0xff,
0xe9,
0xf5,
0x0f,
0xf5,
0x01,
0x01,
0xf0,
0x0d,
0x13,
0x0b,
0xfb,
0x05,
0x06,
0xf6,
0xd7,
0x0a,
0xf0,
0xef,
0x12,
0xf3,
0x07,
0xea,
0x02,
0x08,
0x03,
0x0b,
0xf3,
0x22,
0x10,
0xfd,
0x15,
0xf6,
0x0b,
0x09,
0xeb,
0xea,
0x35,
0x00,
0xfe,
0xed,
0xfc,
0xf4,
0xf6,
0x03,
0x0e,
0xe3,
0x01,
0xf3,
0xf0,
0x00,
0x0f,
0xe9,
0xda,
0xf2,
0xf7,
0x14,
0xd9,
0x13,
0x02,
0xe9,
0xf8,
0x02,
0x0f,
0xff,
0xf1,
0x01,
0xf0,
0xf7,
0xfc,
0x0a,
0xf9,
0xee,
0xfe,
0x08,
0x20,
0x19,
0xe7,
0xf7,
0xf2,
0x02,
0x16,
0x0b,
0x04,
0xe3,
0xe9,
0x00,
0x01,
0xf0,
0xf9,
0xfa,
0x14,
0x08,
0xe6,
0xf7,
0x09,
0x0e,
0xeb,
0x24,
0xe8,
0xe1,
0xf4,
0xcb,
0xe2,
0xe6,
0x45,
0x14,
0xe0,
0xe6,
0x04,
0xf0,
0xf8,
0xec,
0xf0,
0x04,
0x02,
0xf3,
0xf0,
0xee,
0x0c,
0xe8,
0x09,
0xfc,
0xff,
0x14,
0x23,
0x1e,
0x21,
0xfd,
0x0e,
0xec,
0x08,
0xf9,
0xf4,
0xfe,
0x22,
0xfb,
0x10,
0xe7,
0xfc,
0x08,
0x01,
0xfa,
0x01,
0xfd,
0x22,
0xe8,
0x18,
0xf4,
0x05,
0xec,
0x12,
0xf4,
0xf1,
0xef,
0x01,
0x2b,
0xe3,
0xf7,
0x0b,
0xfe,
0xde,
0x0b,
0x14,
0xdd,
0xe0,
0xf7,
0xed,
0x10,
0xf4,
0x19,
0xf1,
0xd9,
0xed,
0x0e,
0x39,
0x00,
0xe9,
0x12,
0xcb,
0xfd,
0x10,
0xec,
0xe4,
0xd1,
0xe7,
0x11,
0xeb,
0xf0,
0x0f,
0x0c,
0x20,
0x04,
0xed,
0x0a,
0xfb,
0x19,
0x1a,
0xf9,
0x1f,
0xe8,
0xf0,
0xfb,
0xe8,
0xfb,
0x08,
0x32,
0xfa,
0xec,
0x0b,
0x09,
0xfc,
0xf2,
0x0a,
0xf7,
0xfa,
0xfa,
0xff,
0xfc,
0x0b,
0xfb,
0x04,
0x01,
0x09,
0xff,
0x0a,
0x08,
0x00,
0x0f,
0x0b,
0xff,
0xfc,
0xfd,
0xf7,
0x06,
0x02,
0x06,
0xff,
0x04,
0x05,
0xfe,
0x0c,
0xf6,
0xfd,
0x04,
0x07,
0x05,
0xfd,
0xf7,
0x08,
0xfb,
0x11,
0xfb,
0x0b,
0x02,
0xfb,
0x0c,
0xf3,
0xff,
0x04,
0xfd,
0xfa,
0x0e,
0x03,
0x0a,
0xf9,
0x0d,
0xfb,
0x05,
0xf7,
0xff,
0x07,
0x01,
0x10,
0xfb,
0xfa,
0x08,
0x0c,
0xf8,
0xf8,
0x00,
0x02,
0xe5,
0xf4,
0x08,
0xfc,
0xfb,
0x03,
0xfc,
0x08,
0xff,
0xfb,
0xfc,
0xf4,
0x07,
0x05,
0x09,
0x08,
0x02,
0xfd,
0x10,
0xf9,
0xfa,
0x02,
0xfb,
0x04,
0xfd,
0xfe,
0xfd,
0x0c,
0xfc,
0xfc,
0x02,
0xfd,
0x06,
0xfa,
0x04,
0xff,
0xfe,
0x01,
0xfb,
0x00,
0x03,
0x04,
0x0f,
0x0a,
0xfe,
0x00,
0xf4,
0xff,
0x0a,
0xfb,
0xf7,
0xfe,
0xfe,
0x02,
0xfa,
0x0e,
0x00,
0xf7,
0xfa,
0x07,
0x02,
0xf9,
0xf7,
0xf9,
0x0a,
0xf9,
0x05,
0x01,
0xfa,
0x00,
0x0f,
0xf9,
0xf3,
0xf7,
0x02,
0x09,
0x0c,
0x0e,
0xfc,
0xf3,
0xfc,
0xed,
0x02,
0xfb,
0xfc,
0xfb,
0x03,
0xfd,
0xeb,
0x08,
0x01,
0x09,
0x18,
0x07,
0xf8,
0x0b,
0xfc,
0xf4,
0x0d,
0xfd,
0x01,
0xfc,
0x02,
0x07,
0x0a,
0xfa,
0xfb,
0x00,
0x00,
0xfd,
0xfb,
0x00,
0xff,
0x0c,
0x07,
0xff,
0xff,
0xfa,
0xf5,
0xff,
0x00,
0x0f,
0xf3,
0xff,
0xfc,
0xf1,
0x0a,
0x00,
0xfb,
0xfc,
0xf7,
0xf1,
0x0b,
0xf4,
0xf8,
0xf2,
0x00,
0xfc,
0xfe,
0xf1,
0x0b,
0xf0,
0xeb,
0x00,
0x14,
0x0b,
0xf9,
0xf5,
0x05,
0xf0,
0xfe,
0x06,
0x0b,
0xee,
0xf1,
0x05,
0x06,
0x01,
0xfd,
0x08,
0x11,
0x11,
0xff,
0x07,
0xfa,
0x04,
0xf6,
0x04,
0x05,
0xf8,
0xf4,
0x00,
0xfa,
0xff,
0x03,
0xf9,
0xfc,
0x03,
0x14,
0xfd,
0x03,
0xfe,
0x0b,
0x09,
0xfe,
0xeb,
0xff,
0x04,
0xfc,
0x08,
0xf3,
0x0a,
0x05,
0x09,
0x06,
0x09,
0xf8,
0x06,
0xf0,
0xfe,
0x08,
0xfd,
0x0c,
0xfa,
0xf6,
0x03,
0xfe,
0xfc,
0xf9,
0xfd,
0x08,
0xfd,
0x03,
0xfd,
0xfe,
0x00,
0xf2,
0x02,
0x00,
0xfa,
0xfb,
0xfa,
0x01,
0xfc,
0x13,
0xf6,
0xfe,
0x01,
0x05,
0x0b,
0x04,
0xfd,
0x04,
0xf8,
0xfc,
0xf8,
0xf5,
0x0f,
0xfe,
0x13,
0x05,
0x07,
0xed,
0xfe,
0x00,
0xfc,
0x07,
0x00,
0xfe,
0xf1,
0xf5,
0x07,
0xf7,
0xfc,
0xfc,
0xfa,
0x0c,
0x11,
0xf0,
0x0d,
0xfe,
0xfb,
0x05,
0x00,
0xfe,
0xfe,
0xfd,
0x05,
0x0a,
0x09,
0xf8,
0xfa,
0xfc,
0x0c,
0xf2,
0x05,
0xfc,
0xfb,
0xf9,
0x01,
0x01,
0xf6,
0x0d,
0xff,
0xee,
0xfe,
0x02,
0x12,
0xfc,
0x08,
0xf4,
0x04,
0x01,
0xeb,
0xed,
0xf9,
0xfd,
0xf1,
0xf3,
0xf8,
0x05,
0xfc,
0xf6,
0xfe,
0x02,
0xf8,
0xfa,
0x0d,
0x04,
0xf7,
0xf9,
0x06,
0x08,
0xf0,
0xf6,
0xfb,
0xff,
0xf7,
0x09,
0xf0,
0xfc,
0xf4,
0xf7,
0x00,
0x02,
0xfc,
0x00,
0xff,
0x00,
0x18,
0xf1,
0x08,
0xff,
0x19,
0x03,
0x05,
0x0b,
0x01,
0xed,
0x00,
0xfd,
0x02,
0x08,
0xfe,
0x08,
0xfa,
0x03,
0xfb,
0xfc,
0x03,
0x0b,
0x01,
0x00,
0x08,
0xff,
0xfd,
0x00,
0xff,
0x16,
0xf8,
0x02,
0xf3,
0x0d,
0xff,
0x00,
0x0a,
0xfc,
0xf5,
0xfd,
0xf9,
0xfb,
0xfd,
0xfe,
0x06,
0x06,
0x0a,
0x03,
0xff,
0xf5,
0x01,
0xf7,
0x03,
0x03,
0x06,
0xff,
0xf9,
0x01,
0x00,
0xfe,
0x01,
0x09,
0x02,
0x05,
0x02,
0x07,
0xfa,
0xfb,
0x12,
0x03,
0x07,
0xf8,
0xf7,
0x02,
0x06,
0xfc,
0xfe,
0xf7,
0x05,
0xf7,
0xf4,
0xee,
0xf1,
0xf9,
0x11,
0x00,
0xfc,
0x0f,
0xff,
0xfe,
0x01,
0xfd,
0xfa,
0xf7,
0xf8,
0xfa,
0xfc,
0x02,
0xfb,
0xff,
0x04,
0xfe,
0xfc,
0xfe,
0xfa,
0xff,
0x01,
0x08,
0x09,
0xfd,
0xf7,
0xfe,
0x09,
0xef,
0xf8,
0xea,
0x0b,
0xf5,
0x07,
0xf7,
0x01,
0xff,
0x08,
0xfb,
0x01,
0xe7,
0xf3,
0x0c,
0x03,
0x03,
0xeb,
0xe9,
0x21,
0xfa,
0xe0,
0xf7,
0x09,
0x02,
0x12,
0x03,
0x18,
0xf6,
0xfe,
0xf7,
0xff,
0xff,
0xfd,
0x01,
0x04,
0xeb,
0xe5,
0x03,
0xfe,
0xfc,
0x05,
0x01,
0xff,
0x03,
0xfa,
0xfb,
0x0f,
0x02,
0x0d,
0xff,
0x0d,
0x0b,
0xf0,
0x01,
0xf9,
0x0c,
0xfd,
0xfa,
0xf7,
0x14,
0x07,
0x0f,
0x0f,
0xe5,
0x03,
0x0f,
0xfc,
0xf5,
0x0d,
0x12,
0xf5,
0x00,
0x05,
0xf9,
0x0e,
0x07,
0x15,
0x0f,
0xe8,
0xee,
0xf3,
0xf9,
0xe9,
0x06,
0x01,
0x17,
0xfc,
0x03,
0x03,
0xfb,
0xef,
0x05,
0x07,
0xfe,
0x08,
0xda,
0x04,
0xfa,
0x0a,
0xf8,
0x03,
0xfd,
0xf9,
0x02,
0xf9,
0x0e,
0x0c,
0xf9,
0x07,
0x0d,
0xfc,
0x02,
0xe7,
0xfc,
0xfe,
0x00,
0xe4,
0x07,
0x04,
0x08,
0xf8,
0x04,
0x12,
0x05,
0x0b,
0x0a,
0xf4,
0xec,
0xfb,
0xf9,
0xfd,
0xfe,
0x0b,
0x03,
0xff,
0xf5,
0x0e,
0x10,
0x0d,
0xfb,
0x0c,
0x07,
0xff,
0x0b,
0xfa,
0x06,
0xf5,
0x0a,
0xff,
0x14,
0xfa,
0xf5,
0xf5,
0x0e,
0xf8,
0xec,
0x02,
0x06,
0xf4,
0x00,
0x05,
0x0c,
0x04,
0xf2,
0xe0,
0xfc,
0x09,
0xf5,
0x0e,
0xfa,
0x05,
0xed,
0xff,
0xed,
0xfa,
0xe7,
0x00,
0x0c,
0x0b,
0x0d,
0x05,
0x01,
0xef,
0x09,
0xfd,
0x09,
0xe7,
0x0c,
0xf9,
0x0e,
0xf4,
0xf2,
0xf4,
0x02,
0xeb,
0xee,
0x07,
0x12,
0x19,
0xfa,
0x02,
0xf9,
0xf1,
0xf8,
0x00,
0xfa,
0xfe,
0x04,
0x0a,
0xff,
0x00,
0xf7,
0xf6,
0xf5,
0xfe,
0x00,
0x06,
0x03,
0xff,
0xf1,
0xfc,
0xfd,
0x02,
0xf7,
0x06,
0xfb,
0x00,
0xf4,
0x00,
0xfe,
0x02,
0xf3,
0xf4,
0xfd,
0xf9,
0xee,
0x04,
0x13,
0x03,
0xf3,
0x0b,
0xf8,
0xf8,
0x05,
0xee,
0xf5,
0xfd,
0x00,
0x03,
0xfa,
0x02,
0xfe,
0xff,
0xe5,
0xf1,
0xe9,
0x22,
0x01,
0xf5,
0xfa,
0x1b,
0x07,
0xe6,
0x01,
0x01,
0x06,
0xf2,
0xf8,
0xed,
0x1d,
0xfe,
0x02,
0xf6,
0x0e,
0xea,
0x01,
0x01,
0xea,
0xfa,
0x26,
0x22,
0xfe,
0xfc,
0xef,
0x04,
0x09,
0xf8,
0xf8,
0xf8,
0x05,
0xfb,
0xff,
0x0e,
0x0b,
0xf4,
0x13,
0xe4,
0x1e,
0xfe,
0xf7,
0xfb,
0x01,
0xfe,
0xf8,
0xf7,
0xff,
0x08,
0x05,
0x01,
0x16,
0x10,
0x02,
0xf4,
0x2a,
0xf0,
0x04,
0xf1,
0xe8,
0x14,
0xec,
0xf4,
0xec,
0x0e,
0x1e,
0xf2,
0x01,
0x10,
0x09,
0x23,
0x0a,
0x15,
0x03,
0xfc,
0xe0,
0xf3,
0x02,
0xf5,
0x03,
0xef,
0xf7,
0xff,
0xf9,
0xfb,
0xeb,
0x0e,
0x01,
0xff,
0x44,
0xee,
0x10,
0xdf,
0x0f,
0xdd,
0xe4,
0xeb,
0xd0,
0xf7,
0xfe,
0x00,
0x09,
0xff,
0xe9,
0x06,
0xf8,
0xec,
0xf7,
0x3b,
0xf9,
0xfb,
0x00,
0x12,
0xf5,
0xe9,
0xfc,
0x04,
0xf1,
0xfa,
0xfb,
0x0a,
0x0f,
0xe6,
0xf1,
0xf4,
0x18,
0xed,
0xf9,
0xf2,
0x0c,
0x14,
0xf5,
0xfa,
0xd7,
0xef,
0x1b,
0xe3,
0x25,
0xcf,
0xdc,
0xe1,
0xd5,
0xef,
0xda,
0x0c,
0x24,
0xeb,
0xf5,
0x1a,
0x0a,
0xd6,
0xe9,
0x1f,
0x0b,
0xfe,
0xf1,
0xf7,
0xf4,
0xee,
0xe4,
0xd8,
0x08,
0x01,
0xf7,
0x00,
0xf9,
0xf8,
0x03,
0xed,
0x20,
0x1e,
0xf9,
0x16,
0x1f,
0x00,
0xf9,
0x04,
0xf1,
0x0d,
0xee,
0xf0,
0x01,
0x1f,
0x0e,
0x0e,
0xff,
0x0e,
0x13,
0xfe,
0x09,
0xf8,
0xf9,
0x0b,
0x07,
0x1f,
0xf0,
0xed,
0xea,
0xed,
0xed,
0xdc,
0xee,
0x12,
0xf3,
0xf2,
0x0f,
0xf7,
0xf7,
0xe5,
0x15,
0x10,
0x01,
0x1f,
0xef,
0xf7,
0xe6,
0xf5,
0xe2,
0xf3,
0xeb,
0x0d,
0x02,
0xdf,
0xf5,
0x01,
0xfb,
0xed,
0x21,
0x0f,
0x03,
0xfb,
0xd2,
0xea,
0x07,
0x00,
0xf7,
0x14,
0xfb,
0x0b,
0x15,
0xfd,
0x0e,
0x07,
0xf6,
0xfe,
0xf9,
0xca,
0x1c,
0x29,
0x20,
0x0a,
0x1c,
0xe4,
0x1c,
0x57,
0xf7,
0x16,
0xfe,
0x10,
0xff,
0xe9,
0x29,
0x18,
0x07,
0xfb,
0x08,
0x24,
0x14,
0x21,
0x21,
0x20,
0x40,
0x2e,
0x0f,
0x16,
0x09,
0xe7,
0x21,
0x1e,
0x02};
