/* SPDX-License-Identifier: GPL-2.0 */
/*
 * Copyright (c) 2022 MediaTek Inc.
 *
 * Author: Ming-Hsuan Chiang <ming-hsuan.chiang@mediatek.com>
 *
 */

char fdvt_kernel_bias_loop83_1_frame01_7sp[] = {
0xf2,
0x02,
0x01,
0x00,
0xfc,
0x04,
0xfd,
0x03,
0x01,
0x03,
0x03,
0x00,
0xfc,
0x03,
0xfc,
0x01,
0xdf,
0x08,
0x06,
0x04,
0x03,
0xfe,
0xff,
0xf5,
0xe1,
0x07,
0x05,
0x05,
0x05,
0xfe,
0x00,
0xf8,
0x0e,
0xf8,
0xfd,
0xfb,
0x03,
0x00,
0x00,
0xf6,
0x0e,
0xf7,
0xfd,
0xfb,
0x02,
0x01,
0xff,
0xf6,
0xd9,
0xf9,
0xf7,
0xfc,
0xf9,
0x00,
0x0e,
0x05,
0xdf,
0xfd,
0xf6,
0xfd,
0xf8,
0x01,
0x0d,
0x04,
0xdb,
0x10,
0x04,
0x03,
0x03,
0xf2,
0xf6,
0xfb,
0xdf,
0x0f,
0x05,
0x03,
0x04,
0xf1,
0xf8,
0xfa,
0xc8,
0x05,
0xf8,
0x02,
0xfc,
0xfd,
0xff,
0x07,
0xcd,
0x0a,
0xfa,
0x07,
0xfa,
0xfc,
0xfb,
0x03,
0xf6,
0xf7,
0xf9,
0xfe,
0x02,
0x04,
0x05,
0xfd,
0xf5,
0xf5,
0xf9,
0xfe,
0x01,
0x06,
0x07,
0xfd,
0x2d,
0x01,
0xfe,
0xfd,
0xff,
0xfe,
0xfd,
0x07,
0x31,
0x00,
0xfd,
0xfd,
0xff,
0xff,
0xfd,
0x07,
0xe6,
0xf9,
0xfc,
0xfa,
0xfb,
0xfe,
0xfd,
0x04,
0xdf,
0xfb,
0xfe,
0xfd,
0xfa,
0x00,
0xfa,
0x03,
0xfc,
0xff,
0xfc,
0xf7,
0xf9,
0xfd,
0xea,
0x1c,
0x00,
0xfe,
0xfa,
0xf8,
0xf9,
0xfe,
0xeb,
0x1d,
0x03,
0xf4,
0xe1,
0x3b,
0xff,
0x19,
0xee,
0xe4,
0xff,
0xf3,
0xe1,
0x39,
0x02,
0x17,
0xea,
0xe3,
0xe8,
0x07,
0x04,
0xff,
0xf8,
0xfb,
0x03,
0xfc,
0xe3,
0x08,
0x07,
0xfe,
0xfa,
0xf6,
0x04,
0xfd,
0x0a,
0x0a,
0x07,
0x07,
0xfd,
0x02,
0xf5,
0xf6,
0x11,
0x0a,
0x07,
0x07,
0xfe,
0x01,
0xf7,
0xf5,
0xe4,
0x00,
0xff,
0x05,
0x00,
0x03,
0xfc,
0xf9,
0xe2,
0x01,
0x00,
0x08,
0x00,
0x01,
0x00,
0xf5,
0x00,
0x1c,
0x0c,
0xfb,
0xf2,
0xee,
0xf4,
0xf4,
0xfc,
0x1c,
0x0c,
0xfa,
0xf4,
0xf2,
0xf6,
0xf3,
0x34,
0x06,
0xfe,
0xfe,
0xfd,
0x06,
0xfb,
0x05,
0xf6,
0x05,
0xfe,
0xfd,
0xfd,
0x05,
0xfc,
0x03,
0xe1,
0x0c,
0x0a,
0x00,
0xfb,
0xf4,
0xf6,
0xf9,
0xde,
0x0c,
0x09,
0xff,
0xf7,
0xf2,
0xfa,
0xfb,
0xf2,
0xf1,
0x02,
0xf6,
0x0a,
0x00,
0x0a,
0x04,
0xf1,
0xf1,
0x02,
0xf7,
0x0b,
0x00,
0x09,
0x05,
0x00,
0xff,
0x00,
0xfe,
0xfe,
0x02,
0x10,
0xf6,
0x03,
0x00,
0xff,
0xff,
0xfd,
0x04,
0x0e,
0xf8,
0xe8,
0xff,
0xfe,
0xfe,
0xfc,
0xfd,
0x01,
0x08,
0xe3,
0xfd,
0xfd,
0xfe,
0xfa,
0xff,
0x00,
0x0a,
0x03,
0x12,
0x08,
0x06,
0xf9,
0x02,
0xfb,
0xf8,
0x09,
0x12,
0x0a,
0x05,
0xfa,
0x02,
0xfa,
0xf8,
0x1e,
0x07,
0xf9,
0x00,
0x00,
0xfa,
0x04,
0xff,
0x17,
0x07,
0xf8,
0x01,
0xfd,
0xfb,
0x03,
0x00,
0x01,
0xf5,
0xfb,
0xf4,
0x09,
0xf7,
0x03,
0x09,
0x03,
0xf8,
0xfd,
0xf4,
0x08,
0xf7,
0x00,
0x08,
0xf3,
0x04,
0x01,
0x00,
0xfb,
0xff,
0xf8,
0xff,
0xfa,
0x06,
0x02,
0xfe,
0xfd,
0xfb,
0xfc,
0xfd,
0xf1,
0x06,
0x01,
0x03,
0xfa,
0xff,
0xfc,
0xfd,
0xf5,
0x05,
0x02,
0x01,
0xfd,
0xfd,
0xfe,
0xfc,
0xf7,
0x00,
0x00,
0xf7,
0x00,
0xfd,
0x03,
0x0a,
0xff,
0x03,
0x00,
0xf7,
0x00,
0xf8,
0x03,
0x08,
0xdc,
0xff,
0xf7,
0xeb,
0x00,
0xec,
0x27,
0x09,
0xd4,
0xfb,
0xf6,
0xea,
0x01,
0xec,
0x2a,
0x08,
0xef,
0xe7,
0xe7,
0xf7,
0x38,
0xde,
0x32,
0xed,
0xf5,
0xe6,
0xe6,
0xfa,
0x37,
0xdd,
0x32,
0xee,
0xfb,
0xfd,
0x01,
0x01,
0x05,
0xfe,
0x04,
0xf5,
0xe3,
0xfd,
0x01,
0x02,
0x05,
0xfe,
0x02,
0xf5,
0x06,
0xeb,
0xf8,
0x03,
0xf4,
0x16,
0x09,
0x07,
0x19,
0xea,
0xf8,
0x01,
0xf8,
0x14,
0x0b,
0x06,
0xec,
0xe0,
0xe7,
0x08,
0xe2,
0x45,
0xee,
0x29,
0xec,
0xe0,
0xe5,
0x06,
0xde,
0x45,
0xeb,
0x29,
0xed,
0xff,
0xff,
0xff,
0xfd,
0x00,
0xff,
0x04,
0xe3,
0x00,
0x01,
0xff,
0xfc,
0x01,
0xff,
0x02,
0x16,
0x04,
0x03,
0x02,
0xfc,
0x04,
0xfb,
0x00,
0x2b,
0x04,
0x05,
0x01,
0xfd,
0x03,
0xfc,
0xfe,
0xe0,
0x09,
0x06,
0x06,
0x02,
0xfe,
0x00,
0xf5,
0xe0,
0x08,
0x06,
0x06,
0x02,
0xfd,
0xfe,
0xf7,
0x0d,
0xf7,
0xfd,
0xfb,
0x01,
0x00,
0xff,
0xf9,
0x0f,
0xf5,
0xfc,
0xfa,
0x02,
0x01,
0xff,
0xf8,
0xdc,
0xfc,
0xf5,
0xfc,
0xf8,
0x00,
0x09,
0x06,
0xdd,
0x00,
0xf8,
0xfe,
0xf7,
0x00,
0x08,
0x05,
0xdc,
0x11,
0x06,
0x02,
0x04,
0xf1,
0xf5,
0xfa,
0xdf,
0x10,
0x07,
0x03,
0x04,
0xf0,
0xf6,
0xf9,
0xb7,
0x06,
0xf8,
0x03,
0xf9,
0xfd,
0x00,
0x05,
0xc5,
0x09,
0xfb,
0x07,
0xf8,
0xfd,
0xfd,
0x01,
0xf6,
0xf7,
0xfc,
0xfe,
0x02,
0x04,
0x05,
0xfd,
0xf4,
0xf6,
0xfd,
0xfd,
0x02,
0x04,
0x07,
0xfd,
0x28,
0x01,
0xfe,
0xfd,
0xff,
0xff,
0xfb,
0x07,
0x2b,
0x00,
0xfd,
0xfe,
0xff,
0x00,
0xfb,
0x06,
0xe7,
0xf9,
0xfb,
0xf9,
0xfb,
0xfe,
0xfe,
0x07,
0xdf,
0xfb,
0xfb,
0xfc,
0xfa,
0xff,
0xfb,
0x06,
0xf9,
0xff,
0xfb,
0xf8,
0xf7,
0xfe,
0xe9,
0x1c,
0xfc,
0x00,
0xfb,
0xf9,
0xf9,
0xfe,
0xea,
0x1c,
0x03,
0xf3,
0xe4,
0x3a,
0x00,
0x16,
0xee,
0xe2,
0xfd,
0xf3,
0xe3,
0x39,
0x01,
0x16,
0xea,
0xe4,
0xf5,
0x09,
0x05,
0xfe,
0xfb,
0xf6,
0x05,
0xfa,
0xf2,
0x07,
0x04,
0xfa,
0x00,
0xef,
0x0a,
0xfc,
0x3b,
0x0a,
0x07,
0x07,
0xfd,
0x01,
0xf5,
0xf5,
0x3f,
0x0b,
0x08,
0x07,
0xfd,
0x00,
0xf7,
0xf5,
0xe4,
0xff,
0xfb,
0x05,
0x03,
0x04,
0xff,
0xf9,
0xe2,
0xfc,
0xfb,
0x06,
0x03,
0x03,
0x02,
0xf9,
0xfa,
0x1d,
0x0b,
0xfb,
0xf0,
0xf2,
0xf4,
0xf0,
0xf6,
0x1d,
0x0d,
0xfb,
0xf1,
0xf4,
0xf7,
0xf0,
0x2b,
0x05,
0xfe,
0xfd,
0xff,
0x05,
0xfc,
0x05,
0xed,
0x05,
0xfe,
0xfc,
0xfe,
0x05,
0xfe,
0x04,
0xdd,
0x0f,
0x04,
0xff,
0xf9,
0xf7,
0xf6,
0xfd,
0xd5,
0x0d,
0x08,
0xfe,
0xf8,
0xf2,
0xf8,
0xfe,
0xfc,
0xed,
0x01,
0xf4,
0x0c,
0x02,
0x0c,
0x07,
0xfb,
0xee,
0x02,
0xf6,
0x0c,
0x00,
0x0b,
0x06,
0xfc,
0x00,
0x00,
0xff,
0xfd,
0x04,
0x10,
0xf5,
0xfe,
0x00,
0xff,
0x00,
0xfd,
0x04,
0x0f,
0xf6,
0xe5,
0xfe,
0x00,
0xfd,
0xfb,
0xfd,
0x00,
0x07,
0xe3,
0xfd,
0xfd,
0xfe,
0xf8,
0x00,
0x00,
0x09,
0x06,
0x11,
0x0a,
0x04,
0xfa,
0x00,
0xfb,
0xf7,
0x0c,
0x11,
0x0b,
0x02,
0xfa,
0x01,
0xfc,
0xf9,
0x17,
0x06,
0xf8,
0x00,
0xff,
0xfb,
0x04,
0x00,
0x0f,
0x06,
0xf7,
0x01,
0xfe,
0xfc,
0x04,
0x01,
0xf3,
0xf7,
0xff,
0xf6,
0x09,
0xf6,
0x06,
0x08,
0xf6,
0xfb,
0x01,
0xf6,
0x08,
0xf6,
0x02,
0x07,
0xf7,
0x05,
0xff,
0x01,
0xfa,
0xff,
0xfb,
0xfd,
0xfc,
0x06,
0x00,
0xff,
0xfd,
0xfb,
0xfe,
0xfc,
0xf2,
0x09,
0x05,
0x04,
0xfd,
0xff,
0xf8,
0xfc,
0xfb,
0x08,
0x05,
0x03,
0xfe,
0xff,
0xfa,
0xfb,
0x00,
0x01,
0x00,
0xf6,
0x00,
0xfc,
0x03,
0x0a,
0xf9,
0x03,
0x01,
0xf5,
0x01,
0xf9,
0x03,
0x08,
0xdf,
0xff,
0xf7,
0xec,
0xfe,
0xec,
0x27,
0x0b,
0xdb,
0xfd,
0xf6,
0xea,
0xff,
0xec,
0x2a,
0x0a,
0xf2,
0xe9,
0xe7,
0xfa,
0x37,
0xdf,
0x30,
0xed,
0xf6,
0xe4,
0xe8,
0xf9,
0x37,
0xe0,
0x30,
0xf1,
0x03,
0xfe,
0x01,
0x02,
0x05,
0xfe,
0x04,
0xf5,
0xec,
0xfe,
0x02,
0x02,
0x06,
0xfe,
0x02,
0xf5,
0xf6,
0xeb,
0xfa,
0x01,
0xf4,
0x14,
0x0a,
0x07,
0x0b,
0xec,
0xfa,
0x00,
0xf7,
0x14,
0x0b,
0x07,
0xef,
0xdf,
0xeb,
0x06,
0xe2,
0x43,
0xf1,
0x28,
0xef,
0xe1,
0xe9,
0x05,
0xdf,
0x43,
0xec,
0x28,
0xe4,
0x00,
0x01,
0xff,
0xfd,
0x02,
0xfb,
0x04,
0xe1,
0xfe,
0x01,
0xfd,
0x00,
0x03,
0xfd,
0x03,
0x11,
0x02,
0x00,
0x02,
0xfc,
0x06,
0xfa,
0x03,
0x00,
0x03,
0x00,
0x01,
0xfb,
0x05,
0xfb,
0x02,
0xfa,
0x09,
0x09,
0x03,
0x07,
0xfe,
0xfe,
0xf2,
0xec,
0x0a,
0x08,
0x04,
0x09,
0xfd,
0xff,
0xf3,
0xf8,
0xf5,
0xfc,
0xfb,
0x05,
0xfe,
0xfd,
0xf8,
0xf5,
0xf2,
0xf9,
0xf8,
0x03,
0x01,
0xfb,
0xf9,
0xdd,
0xfd,
0xf2,
0xfc,
0xf8,
0xff,
0x0d,
0x04,
0xdf,
0xfb,
0xf0,
0xfd,
0xf7,
0x03,
0x0c,
0x07,
0xd4,
0x11,
0x05,
0x03,
0x03,
0xf0,
0xf5,
0xf7,
0xc6,
0x10,
0x04,
0x03,
0x02,
0xef,
0xf7,
0xf7,
0xcd,
0x08,
0xf9,
0x03,
0xfb,
0xfe,
0xfe,
0x06,
0xd5,
0x0b,
0xf9,
0x05,
0xf8,
0xfe,
0xfc,
0x05,
0xdd,
0xf5,
0xf7,
0xfc,
0x04,
0x06,
0x06,
0xff,
0xe3,
0xf4,
0xf6,
0xfb,
0x04,
0x07,
0x08,
0x00,
0x47,
0x02,
0x00,
0xfd,
0xfe,
0xfc,
0xfc,
0x05,
0x45,
0x03,
0xff,
0xfe,
0xfd,
0xfc,
0xfd,
0x05,
0xe2,
0xfd,
0x00,
0xff,
0xfb,
0xff,
0xf9,
0xfe,
0xd3,
0xfe,
0x01,
0x01,
0xfa,
0x00,
0xf7,
0xfe,
0x03,
0xfd,
0xfb,
0xf6,
0xfa,
0xfe,
0xed,
0x1b,
0x05,
0xfd,
0xfa,
0xf6,
0xf9,
0xfe,
0xed,
0x1c,
0x02,
0xf6,
0xe1,
0x3e,
0xfc,
0x1d,
0xef,
0xe2,
0x06,
0xf5,
0xe1,
0x3c,
0x01,
0x1a,
0xee,
0xe4,
0xec,
0x02,
0x05,
0xfc,
0xfc,
0xf7,
0x00,
0xff,
0xe5,
0x02,
0x06,
0xfb,
0xff,
0xf5,
0x01,
0xfe,
0xde,
0x08,
0x07,
0x05,
0xff,
0x02,
0xf6,
0xf7,
0xe2,
0x07,
0x07,
0x05,
0x00,
0x02,
0xf8,
0xf6,
0xf5,
0xfe,
0xfc,
0x01,
0x00,
0x05,
0xff,
0xfa,
0xf7,
0xfe,
0xf9,
0x03,
0x00,
0x05,
0x00,
0xf9,
0x0d,
0x1f,
0x10,
0xfc,
0xf6,
0xec,
0xf3,
0xf4,
0x0b,
0x1f,
0x0f,
0xfc,
0xf6,
0xef,
0xf6,
0xf2,
0xf2,
0x06,
0xfd,
0xfe,
0xfb,
0x04,
0xfb,
0x07,
0x26,
0x05,
0xfd,
0xfd,
0xfb,
0x05,
0xfc,
0x06,
0xca,
0x0b,
0x0a,
0xfb,
0xff,
0xf2,
0xfa,
0xf7,
0xc8,
0x09,
0x0a,
0xf9,
0xfa,
0xf3,
0xfd,
0xf7,
0x06,
0xef,
0x01,
0xf4,
0x0a,
0xff,
0x0b,
0x05,
0x02,
0xf0,
0x03,
0xf4,
0x0a,
0xfd,
0x08,
0x05,
0x07,
0xff,
0x00,
0xfe,
0xff,
0x03,
0x12,
0xf5,
0x03,
0xff,
0xff,
0xff,
0xfd,
0x03,
0x10,
0xf8,
0xe9,
0xfd,
0xfb,
0xfe,
0xfd,
0xfe,
0x03,
0x09,
0xea,
0xfd,
0xfc,
0xff,
0xfb,
0xff,
0x00,
0x09,
0xfa,
0x15,
0x08,
0x08,
0xf9,
0x01,
0xf7,
0xf8,
0xfa,
0x14,
0x0a,
0x06,
0xfa,
0x01,
0xf9,
0xf8,
0x22,
0x06,
0xf7,
0xff,
0xff,
0xfc,
0x05,
0xff,
0x27,
0x06,
0xf6,
0x01,
0xfd,
0xfe,
0x03,
0x00,
0x0f,
0xf7,
0xfd,
0xf3,
0x08,
0xf5,
0x06,
0x07,
0x10,
0xf9,
0xfe,
0xf1,
0x07,
0xf3,
0x03,
0x08,
0xce,
0x03,
0x01,
0x03,
0xf7,
0x00,
0xfb,
0xfe,
0xd2,
0x03,
0x02,
0x02,
0xf8,
0xfc,
0xfc,
0xfb,
0xff,
0x0b,
0x06,
0x05,
0xfb,
0xfc,
0xf7,
0xfa,
0x02,
0x0a,
0x06,
0x03,
0xfe,
0xfa,
0xfa,
0xf7,
0xfc,
0x03,
0xfe,
0xf7,
0xfe,
0xfd,
0x02,
0x0a,
0x01,
0x02,
0xff,
0xf2,
0x01,
0xfc,
0x05,
0x0a,
0xff,
0x00,
0xf6,
0xec,
0x02,
0xec,
0x27,
0x07,
0xfc,
0xfe,
0xf5,
0xea,
0x02,
0xec,
0x2a,
0x07,
0x05,
0xe0,
0xe7,
0xf1,
0x38,
0xe0,
0x33,
0xec,
0x07,
0xdf,
0xe7,
0xf3,
0x38,
0xdd,
0x32,
0xeb,
0x36,
0xfc,
0xff,
0x02,
0x05,
0xff,
0x02,
0xf5,
0xfa,
0xfd,
0x00,
0x02,
0x06,
0xfe,
0x02,
0xf4,
0x0c,
0xec,
0xf7,
0x03,
0xf4,
0x15,
0x08,
0x07,
0x01,
0xeb,
0xf6,
0x01,
0xf5,
0x15,
0x0b,
0x07,
0x02,
0xdb,
0xdf,
0x09,
0xdc,
0x46,
0xea,
0x2b,
0x03,
0xdd,
0xe1,
0x08,
0xd8,
0x47,
0xe6,
0x2b,
0x01,
0xfd,
0xff,
0xfe,
0xfd,
0x01,
0xff,
0x08,
0xea,
0xfd,
0xfe,
0xfe,
0xfb,
0x01,
0x01,
0x08,
0xf0,
0x01,
0xfe,
0x01,
0xfd,
0x06,
0xfb,
0x03,
0xe4,
0x01,
0xff,
0x00,
0xfd,
0x04,
0xfd,
0x01,
0xf7,
0x0a,
0x09,
0x04,
0x06,
0xfe,
0xfe,
0xf1,
0xea,
0x0b,
0x09,
0x05,
0x08,
0xfc,
0xfd,
0xf1,
0xf6,
0xf5,
0xfc,
0xfb,
0x04,
0xff,
0xfd,
0xfb,
0xf4,
0xf0,
0xf8,
0xf7,
0x04,
0x02,
0xfc,
0xfe,
0xd9,
0xf9,
0xf2,
0xf9,
0xfa,
0x00,
0x0b,
0x07,
0xdb,
0xfa,
0xf3,
0xfc,
0xf8,
0x03,
0x0a,
0x08,
0xde,
0x12,
0x06,
0x03,
0x03,
0xef,
0xf4,
0xf6,
0xd2,
0x11,
0x05,
0x04,
0x03,
0xee,
0xf7,
0xf6,
0xb2,
0x0a,
0xfa,
0x04,
0xf8,
0xfd,
0xff,
0x04,
0xbe,
0x0c,
0xfa,
0x04,
0xf7,
0xfd,
0xfe,
0x03,
0xda,
0xf5,
0xf9,
0xfc,
0x04,
0x05,
0x07,
0xfd,
0xdf,
0xf4,
0xf8,
0xfa,
0x05,
0x05,
0x09,
0xff,
0x44,
0x02,
0xff,
0xfe,
0xfd,
0xfe,
0xfb,
0x06,
0x42,
0x03,
0xff,
0xff,
0xfe,
0xfd,
0xfc,
0x04,
0xe2,
0xfd,
0xfe,
0xff,
0xf9,
0xff,
0xf9,
0x01,
0xd0,
0xfe,
0xff,
0x02,
0xf9,
0x01,
0xf8,
0x00,
0x00,
0xfd,
0xfb,
0xf7,
0xf9,
0xfe,
0xeb,
0x1b,
0x01,
0xfd,
0xfa,
0xf7,
0xfa,
0xfe,
0xec,
0x1b,
0x00,
0xf6,
0xe1,
0x3d,
0xfe,
0x1a,
0xeb,
0xe1,
0x03,
0xf5,
0xe1,
0x3c,
0x02,
0x19,
0xeb,
0xe4,
0xf6,
0x03,
0x05,
0xfa,
0xfb,
0xf3,
0x07,
0x00,
0xec,
0x05,
0x06,
0xfa,
0xff,
0xf0,
0x08,
0xfd,
0x0f,
0x07,
0x07,
0x04,
0xfe,
0x02,
0xf7,
0xf6,
0x13,
0x07,
0x08,
0x04,
0xff,
0x02,
0xf9,
0xf5,
0xf2,
0xfc,
0xf8,
0x03,
0x01,
0x08,
0x00,
0xfb,
0xf7,
0xfb,
0xf6,
0x04,
0x00,
0x08,
0x01,
0xfd,
0x03,
0x1c,
0x0c,
0xfa,
0xf1,
0xf1,
0xf6,
0xf7,
0xff,
0x1d,
0x0c,
0xfa,
0xf1,
0xf3,
0xf8,
0xf6,
0xef,
0x05,
0xfe,
0xfd,
0xfd,
0x04,
0xfa,
0x07,
0x24,
0x04,
0xfc,
0xfd,
0xfb,
0x06,
0xfc,
0x06,
0xc4,
0x0a,
0x08,
0xfa,
0x01,
0xf6,
0xf6,
0xf8,
0xc2,
0x07,
0x08,
0xf6,
0xfb,
0xf4,
0xfd,
0xfa,
0xfc,
0xec,
0x02,
0xf3,
0x0b,
0xff,
0x0b,
0x05,
0xf7,
0xef,
0x04,
0xf4,
0x0c,
0xfd,
0x09,
0x05,
0x01,
0x00,
0x00,
0xff,
0xfe,
0x03,
0x12,
0xf4,
0xfc,
0xff,
0xff,
0xff,
0xfd,
0x04,
0x10,
0xf6,
0xed,
0xfc,
0xfc,
0xfc,
0xfb,
0xfe,
0x03,
0x08,
0xee,
0xfd,
0xfd,
0xfd,
0xf9,
0xff,
0x02,
0x08,
0x06,
0x15,
0x0a,
0x06,
0xf8,
0xff,
0xf6,
0xf6,
0x07,
0x14,
0x0b,
0x04,
0xf9,
0x00,
0xf7,
0xf8,
0x13,
0x06,
0xf6,
0x01,
0xff,
0xfc,
0x05,
0xff,
0x19,
0x06,
0xf6,
0x02,
0xfd,
0xfe,
0x03,
0x00,
0x02,
0xf8,
0xff,
0xf2,
0x0a,
0xf6,
0x09,
0x07,
0x07,
0xfb,
0x00,
0xf3,
0x0a,
0xf4,
0x05,
0x08,
0xd1,
0x04,
0x01,
0x03,
0xf7,
0xff,
0xfb,
0xfe,
0xd4,
0x04,
0x02,
0x03,
0xf7,
0xfd,
0xfc,
0xfb,
0xf4,
0x0c,
0x08,
0x05,
0xfb,
0xfc,
0xf4,
0xf9,
0xf7,
0x0b,
0x08,
0x04,
0xfe,
0xfc,
0xf7,
0xf7,
0x03,
0x02,
0xfe,
0xf5,
0xfe,
0xfe,
0x03,
0x0c,
0xfc,
0x00,
0xff,
0xf2,
0x00,
0xfd,
0x04,
0x0b,
0x08,
0x04,
0xf5,
0xee,
0xff,
0xeb,
0x27,
0x07,
0x07,
0x01,
0xf4,
0xec,
0x00,
0xec,
0x2a,
0x08,
0x09,
0xe3,
0xe8,
0xf5,
0x38,
0xdd,
0x31,
0xed,
0x0a,
0xe2,
0xe8,
0xf4,
0x38,
0xde,
0x31,
0xef,
0x49,
0xfc,
0xff,
0x01,
0x06,
0xfe,
0x03,
0xf4,
0x0a,
0xfc,
0xff,
0x02,
0x07,
0xfd,
0x04,
0xf3,
0xff,
0xee,
0xfa,
0x02,
0xf3,
0x15,
0x08,
0x08,
0xf8,
0xec,
0xf8,
0x00,
0xf3,
0x16,
0x0a,
0x0a,
0x03,
0xd8,
0xe6,
0x08,
0xdc,
0x45,
0xeb,
0x2b,
0x05,
0xdb,
0xe6,
0x07,
0xd9,
0x45,
0xe7,
0x2b,
0xf6,
0xff,
0x02,
0xfe,
0xff,
0xfe,
0xfc,
0x04,
0xe3,
0xfe,
0x01,
0x00,
0xff,
0x00,
0xfd,
0x04,
0xc4,
0x3a,
0xf7,
0x17,
0xd6,
0xf7,
0xf7,
0xde,
0xc6,
0x40,
0xf6,
0x1a,
0xd6,
0xf3,
0xf7,
0xda,
0xb2,
0x2a,
0xf4,
0x1f,
0xd1,
0x00,
0xf8,
0xe8,
0xbc,
0x31,
0xf7,
0x23,
0xca,
0xfe,
0xf9,
0xdf};
