/* SPDX-License-Identifier: GPL-2.0 */
/*
 * Copyright (c) 2022 MediaTek Inc.
 *
 * Author: Ming-Hsuan Chiang <ming-hsuan.chiang@mediatek.com>
 *
 */

char fdvt_kernel_bias_loop26_1_frame01_7sp[] = {
0x25,
0x08,
0x02,
0x00,
0xf8,
0x09,
0xff,
0x00,
0x23,
0x06,
0x06,
0xfc,
0xf8,
0x04,
0xfe,
0x01,
0x1f,
0x0e,
0x06,
0x0f,
0xff,
0xfa,
0xfb,
0xe2,
0xc6,
0x0d,
0x05,
0x10,
0x00,
0xfc,
0xf9,
0xed,
0x09,
0xff,
0xfd,
0x02,
0xfe,
0x03,
0xf1,
0xeb,
0x08,
0x00,
0x00,
0x02,
0xfb,
0x02,
0xf7,
0xe6,
0xef,
0x02,
0xfc,
0xf4,
0xf2,
0xee,
0x21,
0xf4,
0x06,
0x01,
0xfd,
0xf5,
0xef,
0xf0,
0x22,
0xf6,
0xf9,
0x19,
0xfe,
0x09,
0xfd,
0xea,
0xe9,
0x04,
0xfa,
0x1d,
0x04,
0x07,
0xfc,
0xe8,
0xe2,
0x06,
0xfa,
0x0a,
0xf4,
0x0b,
0xf6,
0xfb,
0xf3,
0x05,
0x08,
0x0c,
0xf8,
0x0c,
0xf5,
0xfd,
0xf1,
0x01,
0xf1,
0xf9,
0xfc,
0xff,
0xf2,
0xfc,
0x03,
0xfc,
0xf5,
0xf5,
0xf8,
0xfe,
0xf9,
0xfd,
0xff,
0x01,
0x0b,
0x03,
0x03,
0x02,
0xfd,
0x05,
0xf1,
0xf8,
0x0c,
0x03,
0x04,
0x00,
0xfb,
0x06,
0xf1,
0xfb,
0xdb,
0xe0,
0xef,
0xf1,
0xf4,
0xf4,
0xf2,
0x09,
0xde,
0xdc,
0xef,
0xf6,
0xf4,
0xfa,
0xf6,
0x0c,
0xfd,
0x0a,
0xfa,
0xf7,
0xee,
0xf8,
0xc3,
0x46,
0x02,
0x05,
0xf6,
0xf6,
0xee,
0xf8,
0xc8,
0x46,
0x01,
0xe6,
0xbb,
0x78,
0xf7,
0x30,
0xab,
0xbb,
0x03,
0xe5,
0xc2,
0x77,
0xfb,
0x2f,
0xb1,
0xb8,
0x0e,
0x16,
0x06,
0x07,
0xe6,
0xe3,
0xff,
0xfd,
0x19,
0x13,
0x08,
0x02,
0xeb,
0xe4,
0x05,
0x01,
0xe5,
0x18,
0x0b,
0x0d,
0xfb,
0x01,
0xe4,
0xf4,
0xe3,
0x16,
0x0b,
0x0d,
0xfc,
0x02,
0xe8,
0xf0,
0x10,
0x05,
0x00,
0x0c,
0xee,
0x04,
0xf7,
0xef,
0x0c,
0x02,
0x03,
0x0e,
0xed,
0x08,
0xfb,
0xeb,
0xe7,
0x28,
0x0c,
0xf6,
0xe3,
0xef,
0xea,
0xd7,
0xec,
0x2d,
0x10,
0xf3,
0xe3,
0xf1,
0xef,
0xd8,
0x07,
0x10,
0x01,
0x05,
0xf9,
0x0f,
0xf6,
0x04,
0x00,
0x14,
0x04,
0xfb,
0xf9,
0x08,
0xfd,
0xf8,
0x0f,
0xf5,
0xf8,
0xe6,
0xe7,
0xf9,
0xff,
0x18,
0x0a,
0xfc,
0xf6,
0xea,
0xe7,
0xf6,
0x04,
0x14,
0xc9,
0xe7,
0xdd,
0xe6,
0x02,
0x07,
0x18,
0x10,
0xd7,
0xe3,
0xe3,
0xe8,
0x04,
0x06,
0x16,
0x0b,
0xf8,
0x05,
0xfc,
0x04,
0xf7,
0x01,
0x23,
0xea,
0xfd,
0x06,
0xfd,
0x06,
0xf7,
0x01,
0x1d,
0xea,
0xda,
0x01,
0xf9,
0xf3,
0xf2,
0xfa,
0xff,
0x0c,
0xe1,
0x03,
0xf8,
0xf5,
0xef,
0xf9,
0xff,
0x10,
0xd6,
0x11,
0x06,
0x01,
0xfc,
0xfe,
0xef,
0xf3,
0xcd,
0x13,
0x08,
0x03,
0xfb,
0xfa,
0xf1,
0xf7,
0xe5,
0x19,
0xf7,
0x00,
0xfc,
0xf0,
0xf7,
0xfb,
0xe4,
0x1a,
0xf0,
0x00,
0xf8,
0xf3,
0xfa,
0x00,
0xf5,
0xf6,
0xfd,
0xf3,
0x00,
0xf9,
0xf5,
0x05,
0xf2,
0xf9,
0xfc,
0xf2,
0x01,
0xf9,
0xf7,
0x09,
0x93,
0x00,
0x00,
0x00,
0x00,
0x00,
0x00,
0x00,
0x90,
0x00,
0x00,
0x00,
0x00,
0x00,
0x00,
0x00,
0xf5,
0xf3,
0xf2,
0x03,
0xfc,
0x01,
0xfb,
0x00,
0xf7,
0xf0,
0xf4,
0x04,
0xfb,
0x01,
0xfc,
0x01,
0xe8,
0x04,
0x01,
0xf2,
0xff,
0xf3,
0xf3,
0x15,
0x06,
0x07,
0xff,
0xf2,
0xfd,
0xf2,
0xf5,
0x19,
0xfc,
0xfa,
0xe3,
0xde,
0xed,
0xe6,
0x46,
0x15,
0xfe,
0xf6,
0xe3,
0xdd,
0xef,
0xe6,
0x47,
0x11,
0xfd,
0xc0,
0xc0,
0xe8,
0x69,
0xb7,
0x61,
0xd4,
0x00,
0xbe,
0xbf,
0xe7,
0x66,
0xba,
0x5f,
0xde,
0x08,
0x01,
0x0c,
0xfe,
0x04,
0xfb,
0x06,
0xec,
0x08,
0x02,
0x0a,
0xfe,
0x09,
0xfa,
0xff,
0xed,
0xfb,
0xdc,
0xf8,
0x01,
0xf6,
0x1a,
0x11,
0x0a,
0xed,
0xdd,
0xf7,
0xfd,
0xfc,
0x16,
0x11,
0x0c,
0xfa,
0xb5,
0xc5,
0xfa,
0xbb,
0x7a,
0xd8,
0x4e,
0xfe,
0xb3,
0xc4,
0xf9,
0xbd,
0x7a,
0xd5,
0x54,
0xeb,
0xfb,
0x05,
0xff,
0x02,
0xf8,
0xf4,
0x03,
0xc3,
0x00,
0x04,
0xff,
0x07,
0xf1,
0xf2,
0xfd,
0xdb,
0x04,
0xff,
0xfe,
0x01,
0x0d,
0xfd,
0xfb,
0xeb,
0x04,
0x03,
0xfd,
0x02,
0x0a,
0xfc,
0xfc,
0x1e,
0x13,
0x08,
0x0f,
0x00,
0xf6,
0xfc,
0xe4,
0xc3,
0x0e,
0x08,
0x0d,
0x00,
0xf8,
0x00,
0xeb,
0x05,
0xfd,
0xff,
0x01,
0xf8,
0x02,
0xf3,
0xeb,
0x07,
0xfc,
0xfd,
0x02,
0xfc,
0x04,
0xf9,
0xe6,
0xf3,
0xfc,
0xf9,
0xf3,
0xef,
0xee,
0x25,
0xfb,
0xfb,
0xff,
0xfc,
0xf3,
0xef,
0xe8,
0x27,
0xf7,
0xf4,
0x1f,
0x05,
0x08,
0x04,
0xe1,
0xe4,
0xfe,
0xf7,
0x23,
0x0a,
0x0b,
0x01,
0xe2,
0xdc,
0xff,
0xfa,
0x0c,
0xf3,
0x10,
0xf3,
0xfa,
0xf5,
0x01,
0x11,
0x0b,
0xf6,
0x11,
0xf3,
0xfd,
0xf4,
0xfe,
0xee,
0xf6,
0xff,
0xff,
0xf2,
0xfb,
0x07,
0xf8,
0xec,
0xf7,
0xfa,
0xfd,
0xf4,
0xfc,
0x08,
0xfd,
0x12,
0x01,
0x01,
0x02,
0xfe,
0x01,
0xf2,
0xfd,
0x16,
0x01,
0x03,
0x04,
0xfc,
0x05,
0xed,
0xfd,
0xd4,
0xdf,
0xec,
0xf4,
0xf6,
0xfd,
0xf5,
0x06,
0xd9,
0xda,
0xeb,
0xf7,
0xf5,
0xff,
0xf7,
0x08,
0x01,
0x07,
0xf7,
0xf5,
0xe9,
0xf7,
0xc5,
0x44,
0x03,
0x06,
0xf6,
0xf6,
0xeb,
0xf8,
0xca,
0x46,
0x02,
0xe6,
0xba,
0x75,
0xf8,
0x2e,
0xb9,
0xbc,
0x04,
0xe6,
0xbd,
0x74,
0xfa,
0x2e,
0xbb,
0xba,
0x03,
0x17,
0x09,
0x01,
0xef,
0xde,
0x01,
0xf9,
0xfd,
0x16,
0x09,
0xfe,
0xf3,
0xe0,
0x04,
0xfc,
0xe0,
0x1a,
0x0f,
0x0e,
0xf8,
0xfd,
0xe2,
0xe5,
0xd8,
0x18,
0x0f,
0x0e,
0xf9,
0xfd,
0xe9,
0xe6,
0xdb,
0xf8,
0xee,
0x00,
0xff,
0x0d,
0x05,
0xf6,
0xdd,
0xfe,
0xf7,
0x0b,
0xf3,
0x08,
0x04,
0xf4,
0xf1,
0x35,
0x14,
0xf5,
0xe1,
0xee,
0xeb,
0xda,
0xf9,
0x37,
0x1b,
0xf3,
0xe3,
0xea,
0xef,
0xdb,
0x06,
0x14,
0x03,
0x05,
0x01,
0x0b,
0xf4,
0x02,
0xff,
0x1b,
0x08,
0xff,
0x01,
0x08,
0xf8,
0xf3,
0x0b,
0xfe,
0xf5,
0xec,
0xe3,
0xfa,
0x04,
0x17,
0x01,
0x00,
0xf3,
0xed,
0xe1,
0xf9,
0x03,
0x18,
0xd6,
0xda,
0xf2,
0xe4,
0x0f,
0x07,
0x1f,
0x0f,
0xdf,
0xdc,
0xf7,
0xea,
0x11,
0x03,
0x20,
0x06,
0xf9,
0x01,
0xf9,
0x05,
0xf5,
0x02,
0x24,
0xef,
0xff,
0x03,
0xfa,
0x07,
0xf3,
0x03,
0x20,
0xef,
0xce,
0xff,
0xfe,
0xf9,
0xef,
0xf9,
0xf7,
0x0a,
0xdd,
0xfc,
0xf7,
0xf5,
0xee,
0xfa,
0xfe,
0x0f,
0xcf,
0x12,
0x05,
0x00,
0xf6,
0xff,
0xf2,
0xee,
0xca,
0x13,
0x03,
0x01,
0xf9,
0xfd,
0xf6,
0xf5,
0xe3,
0x14,
0xf0,
0x01,
0xf4,
0xf5,
0xf7,
0xff,
0xdc,
0x15,
0xef,
0xfd,
0xf6,
0xf6,
0xfe,
0x03,
0xfc,
0xf9,
0x04,
0xf3,
0x01,
0xf5,
0xfa,
0x0d,
0xfe,
0xfc,
0x09,
0xf0,
0xff,
0xf6,
0xf7,
0x0d,
0xa1,
0x00,
0x00,
0x00,
0x00,
0x00,
0x01,
0x00,
0xa4,
0x00,
0x00,
0x00,
0xff,
0x00,
0x01,
0x00,
0x03,
0xfe,
0xfa,
0x00,
0xf0,
0xfc,
0xf9,
0x00,
0x01,
0xfb,
0xf8,
0x00,
0xf5,
0xfd,
0xf7,
0x03,
0x09,
0xff,
0x04,
0xef,
0x00,
0xf6,
0xfb,
0x12,
0xef,
0x07,
0x08,
0xee,
0xfc,
0xf4,
0xf3,
0x15,
0x02,
0xfa,
0xe9,
0xdd,
0xf1,
0xe4,
0x46,
0x19,
0x00,
0xf4,
0xe7,
0xda,
0xf6,
0xe6,
0x4a,
0x14,
0xfb,
0xc2,
0xc5,
0xe6,
0x68,
0xb7,
0x63,
0xd3,
0xf9,
0xbc,
0xc4,
0xe4,
0x65,
0xb6,
0x63,
0xdc,
0x08,
0xfd,
0x0b,
0xfb,
0x0b,
0xfe,
0x00,
0xec,
0x0c,
0xff,
0x0e,
0xfb,
0x0d,
0xfd,
0xfc,
0xeb,
0xf9,
0xe1,
0xf5,
0x09,
0xee,
0x18,
0x0e,
0x06,
0xed,
0xe4,
0xf7,
0x05,
0xf6,
0x15,
0x0b,
0x04,
0xf9,
0xba,
0xd1,
0xfa,
0xbb,
0x78,
0xdb,
0x4d,
0xfa,
0xb9,
0xd0,
0xf9,
0xb9,
0x77,
0xd4,
0x53,
0xe2,
0xf9,
0xfe,
0xfe,
0xff,
0x02,
0xfa,
0x05,
0xcb,
0xfb,
0xf8,
0xfb,
0x04,
0x04,
0xf1,
0x01,
0x18,
0x06,
0x03,
0x00,
0xfc,
0x07,
0x01,
0xfc,
0x27,
0x03,
0x03,
0x00,
0xf7,
0x07,
0x02,
0xfe,
0xfd,
0x0e,
0x04,
0x0e,
0x02,
0xfb,
0xfc,
0xe4,
0xf3,
0x0f,
0x05,
0x0f,
0x06,
0xfa,
0xfa,
0xed,
0x00,
0xfc,
0xfe,
0x02,
0xfd,
0x01,
0xf0,
0xeb,
0x00,
0xf9,
0xfe,
0x00,
0xfa,
0x02,
0xfa,
0xe7,
0xf9,
0x00,
0xfd,
0xf3,
0xf5,
0xef,
0x22,
0xf6,
0x01,
0x03,
0xfc,
0xf5,
0xf0,
0xf1,
0x23,
0xf5,
0xf4,
0x16,
0x01,
0x04,
0xff,
0xea,
0xec,
0x05,
0xeb,
0x18,
0x04,
0x05,
0x02,
0xe8,
0xe5,
0x09,
0x0e,
0x0b,
0xf2,
0x0c,
0xf5,
0xfb,
0xf4,
0x07,
0x03,
0x0b,
0xf6,
0x0e,
0xf4,
0xfd,
0xf1,
0x02,
0x09,
0xf2,
0xfa,
0xfb,
0xf5,
0xfe,
0xfe,
0x00,
0x0a,
0xee,
0xf5,
0xff,
0xf8,
0x02,
0x01,
0xfb,
0xff,
0x01,
0xfe,
0x00,
0xfd,
0x06,
0xf4,
0xff,
0xfe,
0x01,
0xff,
0x00,
0xfd,
0x06,
0xf2,
0xff,
0xd8,
0xe1,
0xed,
0xee,
0xf7,
0xfa,
0xf2,
0x09,
0xdc,
0xdd,
0xf5,
0xf4,
0xf5,
0xfb,
0xf5,
0x0e,
0xfe,
0x06,
0xf7,
0xf6,
0xee,
0xfa,
0xc6,
0x43,
0xff,
0x02,
0xf4,
0xf5,
0xee,
0xf9,
0xc9,
0x44,
0x01,
0xe7,
0xbd,
0x78,
0xf3,
0x31,
0xac,
0xbf,
0xff,
0xe4,
0xc3,
0x75,
0xf7,
0x31,
0xb8,
0xbb,
0xd4,
0x15,
0x04,
0x07,
0xe4,
0xe3,
0x02,
0xfe,
0xe0,
0x13,
0x0c,
0x01,
0xe7,
0xe1,
0x02,
0x02,
0x04,
0x19,
0x0c,
0x0f,
0xfc,
0xfe,
0xe1,
0xf0,
0x0a,
0x19,
0x0d,
0x0e,
0xfb,
0xfd,
0xea,
0xed,
0xcb,
0x02,
0xfc,
0x0b,
0xec,
0x04,
0xfb,
0xfa,
0xc7,
0x03,
0xff,
0x0c,
0xec,
0x06,
0xfc,
0xf4,
0xd9,
0x2e,
0x11,
0xf6,
0xe1,
0xed,
0xe9,
0xd9,
0xdc,
0x2d,
0x10,
0xf1,
0xe2,
0xf2,
0xea,
0xe2,
0x31,
0x11,
0x05,
0x01,
0xfb,
0x0e,
0xf8,
0x05,
0xcd,
0x13,
0x05,
0xfc,
0xfb,
0x06,
0x02,
0xf5,
0x03,
0xf7,
0xfd,
0xe7,
0xeb,
0xfa,
0xff,
0x17,
0x04,
0x00,
0xf5,
0xec,
0xea,
0xf3,
0x00,
0x17,
0xce,
0xe7,
0xeb,
0xea,
0x05,
0x09,
0x13,
0x0f,
0xd0,
0xdd,
0xf3,
0xe3,
0x0b,
0x07,
0x15,
0x0f,
0xfa,
0x04,
0xfb,
0x03,
0xf6,
0x00,
0x23,
0xea,
0xff,
0x05,
0xfb,
0x07,
0xf6,
0x04,
0x1c,
0xeb,
0xe6,
0x02,
0xfa,
0xf4,
0xf5,
0xfa,
0xfd,
0x0c,
0xe5,
0xfb,
0xf6,
0xf4,
0xeb,
0xfe,
0x06,
0x13,
0xc8,
0x11,
0x07,
0x04,
0xf8,
0xff,
0xf3,
0xf3,
0xba,
0x17,
0x0d,
0x01,
0xf4,
0xfe,
0xf2,
0xfa,
0xe7,
0x1a,
0xf6,
0x01,
0xfa,
0xf1,
0xf9,
0xfc,
0xec,
0x18,
0xf2,
0x03,
0xf7,
0xf7,
0xfc,
0xfe,
0xef,
0xf7,
0xfd,
0xf5,
0xff,
0xf7,
0xf7,
0x06,
0xf0,
0xfb,
0xfb,
0xf6,
0x04,
0xf6,
0xf4,
0x06,
0xe6,
0x00,
0x00,
0x00,
0x00,
0x00,
0x00,
0x00,
0xdf,
0x00,
0x00,
0x00,
0x00,
0x00,
0x00,
0x00,
0xf9,
0xf5,
0xf5,
0xfd,
0xf6,
0xfc,
0xff,
0x03,
0xff,
0xf3,
0xf2,
0x00,
0xf1,
0xfd,
0x00,
0x04,
0xec,
0x04,
0x01,
0xf5,
0xfe,
0xf5,
0xf4,
0x14,
0xfc,
0x05,
0x01,
0xf4,
0xff,
0xf5,
0xf6,
0x14,
0x09,
0xf8,
0xe4,
0xdb,
0xee,
0xe7,
0x48,
0x1a,
0x06,
0xf3,
0xeb,
0xde,
0xf4,
0xe7,
0x47,
0x11,
0x00,
0xc0,
0xc6,
0xe6,
0x6b,
0xb7,
0x61,
0xd1,
0x02,
0xb9,
0xc3,
0xe3,
0x66,
0xb7,
0x5e,
0xdb,
0xf4,
0xff,
0x0d,
0xfe,
0x07,
0xfa,
0x02,
0xec,
0xef,
0xfe,
0x0c,
0xfc,
0x10,
0xfb,
0xfe,
0xe9,
0xfc,
0xdc,
0xf5,
0x01,
0xf3,
0x1d,
0x11,
0x0e,
0x03,
0xe1,
0xf5,
0xff,
0xf6,
0x1b,
0x0f,
0x10,
0xff,
0xba,
0xcb,
0xfc,
0xbd,
0x7b,
0xdc,
0x4d,
0x01,
0xb3,
0xc5,
0xfe,
0xbd,
0x7c,
0xd6,
0x52,
0x02,
0xfb,
0x04,
0x00,
0x01,
0xfa,
0xf8,
0x06,
0xca,
0xfd,
0xfc,
0xfb,
0x00,
0xf9,
0xfe,
0x03,
0xfc,
0x04,
0x04,
0x01,
0x03,
0x08,
0xff,
0xfa,
0x1c,
0x02,
0x01,
0x02,
0xfb,
0x08,
0xff,
0xfd,
0xfe,
0x11,
0x04,
0x0d,
0x02,
0xfb,
0xfe,
0xe5,
0xf3,
0x10,
0x08,
0x0e,
0x05,
0xf9,
0xfb,
0xe7,
0xfc,
0xfd,
0x01,
0x02,
0xfa,
0x02,
0xf2,
0xeb,
0xff,
0xfa,
0x00,
0x00,
0xfb,
0x00,
0xf8,
0xe9,
0xfb,
0xfc,
0xff,
0xf5,
0xf4,
0xef,
0x20,
0xfa,
0xf9,
0x03,
0xff,
0xf4,
0xec,
0xf0,
0x22,
0xfa,
0xf2,
0x1b,
0x05,
0x08,
0x03,
0xe5,
0xe9,
0xfe,
0xeb,
0x20,
0x0a,
0x0a,
0x05,
0xde,
0xe2,
0xff,
0x0c,
0x0d,
0xf3,
0x0d,
0xf5,
0xf8,
0xf8,
0x04,
0x07,
0x0d,
0xf7,
0x10,
0xf3,
0xfb,
0xf4,
0xff,
0x0b,
0xf1,
0xfb,
0xfb,
0xf7,
0x01,
0x04,
0xff,
0x0d,
0xf0,
0xf7,
0xfb,
0xf8,
0x05,
0x09,
0xf8,
0x05,
0x01,
0xfe,
0xff,
0x00,
0x03,
0xf6,
0x00,
0x07,
0x02,
0xff,
0x00,
0xfe,
0x05,
0xee,
0xff,
0xd7,
0xe4,
0xf0,
0xf1,
0xf6,
0xff,
0xf2,
0x0b,
0xda,
0xdf,
0xf4,
0xf6,
0xf7,
0xfd,
0xf1,
0x10,
0x00,
0x05,
0xf7,
0xf7,
0xed,
0xf7,
0xc8,
0x41,
0xfe,
0x02,
0xf3,
0xf8,
0xed,
0xfa,
0xcb,
0x45,
0x03,
0xe7,
0xbc,
0x78,
0xf3,
0x32,
0xb8,
0xc2,
0x01,
0xe4,
0xc0,
0x75,
0xf8,
0x34,
0xbf,
0xc0,
0x27,
0x18,
0x07,
0x06,
0xe4,
0xe1,
0x01,
0xfa,
0x1f,
0x16,
0x0e,
0x02,
0xe6,
0xe0,
0xfe,
0xfc,
0xfc,
0x1a,
0x0e,
0x0f,
0xf6,
0x00,
0xe4,
0xeb,
0xfc,
0x1a,
0x11,
0x0c,
0xf9,
0xfa,
0xed,
0xe6,
0xca,
0xf9,
0xf1,
0xfb,
0xff,
0x0f,
0xff,
0xf9,
0xd6,
0xfd,
0xf7,
0x0d,
0xf4,
0x0a,
0xfe,
0xf2,
0xe1,
0x36,
0x12,
0xf5,
0xe3,
0xed,
0xe8,
0xdb,
0xe5,
0x31,
0x0f,
0xf0,
0xe7,
0xed,
0xef,
0xe8,
0x30,
0x12,
0x04,
0x02,
0xff,
0x0d,
0xf8,
0x04,
0xcd,
0x14,
0x07,
0xfe,
0xfd,
0x06,
0xfe,
0xf7,
0x04,
0xfa,
0xf9,
0xec,
0xec,
0xfc,
0x01,
0x12,
0x05,
0x02,
0xf3,
0xef,
0xeb,
0xf4,
0x01,
0x16,
0xd8,
0xe0,
0xf1,
0xed,
0x0b,
0x07,
0x1c,
0x10,
0xd9,
0xde,
0xf7,
0xe8,
0x0f,
0x03,
0x1c,
0x0e,
0xfb,
0x02,
0xfb,
0x04,
0xf6,
0x00,
0x25,
0xec,
0xfe,
0x05,
0xfa,
0x0a,
0xf2,
0x05,
0x1e,
0xec,
0xda,
0x03,
0xff,
0xf9,
0xf3,
0xf9,
0xf7,
0x09,
0xdb,
0xfd,
0xf9,
0xf3,
0xeb,
0xff,
0x05,
0x10,
0xc5,
0x13,
0x06,
0x04,
0xf1,
0x02,
0xf5,
0xf1,
0xba,
0x16,
0x0c,
0x01,
0xf4,
0xfe,
0xf7,
0xfa,
0xe9,
0x15,
0xf2,
0x02,
0xf8,
0xf4,
0xfd,
0x00,
0xe8,
0x14,
0xef,
0xff,
0xf7,
0xf6,
0x03,
0xff,
0xf1,
0xf6,
0xfb,
0xf6,
0x02,
0xf5,
0xff,
0x09,
0xf7,
0xfb,
0xfc,
0xf8,
0x03,
0xf5,
0xf5,
0x05,
0xe9,
0x00,
0x00,
0xff,
0x00,
0x00,
0x00,
0x00,
0xe1,
0x00,
0x00,
0x00,
0x01,
0x00,
0x00,
0xff,
0x00,
0xfd,
0xfc,
0x03,
0xf2,
0x00,
0xfe,
0x03,
0x02,
0xfc,
0xf8,
0x03,
0xed,
0xfc,
0x00,
0x06,
0x04,
0x00,
0x01,
0xf2,
0xff,
0xf5,
0x00,
0x12,
0xe7,
0x08,
0x06,
0xf5,
0xfb,
0xf5,
0xfa,
0x0c,
0x07,
0xf9,
0xe8,
0xdc,
0xeb,
0xe8,
0x47,
0x1d,
0x01,
0xf2,
0xea,
0xde,
0xf5,
0xea,
0x49,
0x15,
0x02,
0xc3,
0xc9,
0xe9,
0x68,
0xbd,
0x5e,
0xd4,
0x01,
0xb6,
0xc7,
0xe2,
0x66,
0xb6,
0x5f,
0xde,
0xf4,
0xfb,
0x0d,
0xfe,
0x0c,
0xfb,
0xff,
0xec,
0xf0,
0xfa,
0x0d,
0xfc,
0x14,
0xfc,
0xfb,
0xec,
0xf4,
0xe1,
0xf7,
0x03,
0xee,
0x1a,
0x10,
0x0a,
0xfd,
0xe4,
0xf6,
0xfd,
0xf3,
0x1a,
0x10,
0x12,
0x00,
0xbf,
0xd5,
0xfd,
0xc2,
0x79,
0xe3,
0x4b,
0xff,
0xb4,
0xcd,
0xff,
0xbe,
0x7a,
0xdb,
0x52,
0x01,
0xf7,
0x01,
0xfe,
0x00,
0x02,
0xf4,
0x08,
0xcf,
0xf7,
0xf7,
0xf8,
0xff,
0x03,
0xfb,
0x0f,
0xbc,
0x3a,
0xfe,
0xf9,
0x25,
0xde,
0xcb,
0xd4,
0xc1,
0x3e,
0xf9,
0x06,
0x21,
0xd7,
0xc6,
0xd7,
0xbc,
0x58,
0xff,
0xf2,
0x12,
0xde,
0xd1,
0xca,
0xbe,
0x5a,
0x02,
0x13,
0x0e,
0xcb,
0xd2,
0xb7};
