/* SPDX-License-Identifier: GPL-2.0 */
/*
 * Copyright (c) 2022 MediaTek Inc.
 *
 * Author: Ming-Hsuan Chiang <ming-hsuan.chiang@mediatek.com>
 *
 */

char fdvt_kernel_bias_loop20_0_frame01_7sp[] = {
0x08,
0xfe,
0x08,
0x0b,
0xf7,
0x02,
0x03,
0x07,
0x07,
0x04,
0x07,
0x0b,
0xf4,
0xfc,
0x01,
0x06,
0x00,
0xfe,
0xf1,
0xf6,
0xf9,
0xfe,
0xf0,
0xf5,
0x05,
0x01,
0xeb,
0xf3,
0xf7,
0x02,
0xeb,
0xf3,
0x0d,
0x00,
0x09,
0x06,
0x0b,
0x01,
0x0a,
0x08,
0x0e,
0x02,
0x06,
0x04,
0x0a,
0xfe,
0x07,
0x06,
0x00,
0x04,
0x20,
0x0d,
0xff,
0x04,
0x23,
0x0e,
0xff,
0xff,
0x1d,
0x0b,
0xfe,
0xfe,
0x22,
0x0d,
0x00,
0xfe,
0xeb,
0xf4,
0xf8,
0xfd,
0xed,
0xf5,
0x01,
0xfb,
0xea,
0xf4,
0xf5,
0xfb,
0xee,
0xf5,
0x06,
0xfd,
0x01,
0xff,
0xff,
0xfd,
0x00,
0xfe,
0x07,
0xfd,
0x05,
0x00,
0xff,
0xfe,
0x04,
0xfe,
0x24,
0x0a,
0x16,
0x09,
0x26,
0x08,
0x23,
0x12,
0x21,
0x02,
0x15,
0x07,
0x24,
0x01,
0x24,
0x12,
0xf0,
0xf8,
0xfe,
0xff,
0x06,
0xf9,
0x03,
0x04,
0xee,
0x0b,
0x02,
0x02,
0x08,
0x0a,
0x01,
0x04,
0xfc,
0x06,
0xef,
0xf7,
0x09,
0x02,
0xf4,
0xf6,
0xfc,
0x01,
0xf5,
0xfa,
0x0a,
0x03,
0xfe,
0xfa,
0xfc,
0x00,
0xf6,
0xf9,
0x04,
0xfc,
0xe9,
0xf0,
0xf5,
0x0b,
0x0e,
0x05,
0x01,
0x05,
0x05,
0x00,
0x00,
0xfc,
0xf9,
0xf9,
0x03,
0xfc,
0x01,
0xfe,
0xfd,
0xfc,
0xf5,
0xf5,
0x00,
0xff,
0xfa,
0xf8,
0x02,
0x12,
0x03,
0xfe,
0xf9,
0x14,
0x05,
0x00,
0x04,
0x11,
0x09,
0x00,
0xfa,
0x11,
0x0c,
0x03,
0xfc,
0x09,
0x0c,
0x09,
0x0a,
0x00,
0x08,
0x06,
0xfc,
0x0a,
0x02,
0x03,
0xfb,
0x08,
0x04,
0x05,
0xff,
0xe5,
0x0a,
0x2d,
0xfb,
0xe6,
0x06,
0x28,
0x01,
0xe3,
0x06,
0x2d,
0xfc,
0xe5,
0x02,
0x29,
0xff,
0xea,
0xfc,
0x05,
0xff,
0xe9,
0xfe,
0x06,
0xfe,
0xec,
0xf3,
0x02,
0x00,
0xe9,
0xf5,
0x03,
0xfd,
0x02,
0xec,
0xf8,
0xf8,
0x03,
0xe6,
0xf3,
0xff,
0xfd,
0xef,
0xf9,
0xf9,
0xfe,
0xee,
0xf6,
0x06,
0xfe,
0x00,
0x02,
0xf9,
0xff,
0x03,
0x05,
0x07,
0xff,
0x02,
0x02,
0xfb,
0xff,
0x05,
0x05,
0x00,
0x04,
0x07,
0x01,
0x00,
0x04,
0x0b,
0x03,
0x00,
0x00,
0x03,
0xfe,
0x01,
0x01,
0x06,
0x01,
0xff,
0x00,
0x01,
0xfd,
0x01,
0x02,
0x05,
0x01,
0xfc,
0x01,
0x04,
0xfe,
0x00,
0x02,
0x06,
0x03,
0xf7,
0xff,
0xfc,
0xfe,
0x01,
0x02,
0xfe,
0x01,
0xfc,
0xfd,
0xf9,
0xfd,
0x03,
0xfc,
0xfd,
0x01,
0x06,
0x01,
0x06,
0x06,
0x01,
0xff,
0xfb,
0xfd,
0x02,
0xf9,
0xfb,
0xfe,
0xff,
0xf6,
0xf1,
0xf8,
0x08,
0xe2,
0xf5,
0xfa,
0xf9,
0xe5,
0xee,
0xf6,
0x08,
0xdc,
0xf9,
0xfc,
0xfb,
0xdb,
0xf1,
0xf7,
0xff,
0xfe,
0xfa,
0xff,
0xfd,
0xfd,
0xfa,
0xff,
0x00,
0xfe,
0xfc,
0x00,
0xfc,
0xfe,
0xfb,
0xff,
0xf7,
0x05,
0x01,
0xfc,
0xf9,
0x06,
0xf4,
0xf6,
0xf5,
0x01,
0xfd,
0xf9,
0xf7,
0xf8,
0xef,
0xf2,
0xf9,
0xe4,
0xf7,
0xfb,
0x06,
0xe5,
0xf9,
0xfc,
0xfa,
0x08,
0xf7,
0xfd,
0x09,
0x0d,
0xf9,
0xfd,
0xf0,
0x01,
0x10,
0x08,
0xf1,
0x03,
0x0a,
0x02,
0xf2,
0x01,
0x10,
0x07,
0xef,
0xff,
0x08,
0x01,
0xd8,
0x04,
0xfe,
0x00,
0xc9,
0x00,
0x12,
0x0d,
0xd7,
0xfd,
0xfd,
0xff,
0xc8,
0x02,
0x12,
0x0d,
0xff,
0x01,
0xfe,
0xfe,
0x03,
0x05,
0x00,
0xfe,
0x01,
0xfe,
0x00,
0xff,
0x03,
0x03,
0xff,
0xfd,
0xfd,
0xfd,
0xf5,
0xfc,
0x06,
0xff,
0xf5,
0xf8,
0xff,
0xfe,
0xf7,
0xfd,
0x08,
0x00,
0xf6,
0xfa,
0x2c,
0x03,
0x0e,
0x09,
0x2b,
0x07,
0x02,
0x02,
0x31,
0xfb,
0x12,
0x0a,
0x2c,
0xfe,
0x02,
0x03,
0x01,
0x00,
0x03,
0xfe,
0x01,
0x00,
0x01,
0xfd,
0x00,
0xff,
0x02,
0xfe,
0x01,
0xff,
0xff,
0xfd,
0xf3,
0xfe,
0x37,
0xe4,
0xf5,
0x00,
0x35,
0xe5,
0xf7,
0xfe,
0x2f,
0xe2,
0xf9,
0xff,
0x2c,
0xe1,
0x09,
0x00,
0xff,
0x0b,
0xf7,
0x00,
0xfc,
0x04,
0x08,
0xfe,
0xfc,
0x08,
0xf5,
0xfc,
0xfa,
0x02,
0x00,
0xfc,
0xfa,
0xf6,
0xfd,
0xfd,
0xf9,
0xf5,
0x02,
0x03,
0xf6,
0xf3,
0xfd,
0x03,
0xf6,
0xf4,
0x08,
0x01,
0x07,
0x08,
0x08,
0x02,
0x06,
0x0a,
0x08,
0x01,
0x04,
0x04,
0x07,
0xff,
0x05,
0x07,
0xfd,
0x05,
0x0c,
0x09,
0xff,
0x05,
0x0e,
0x0b,
0xfd,
0xfc,
0x09,
0x04,
0x00,
0xfc,
0x0c,
0x06,
0x01,
0xfe,
0xf3,
0xf1,
0xfb,
0xfc,
0xf6,
0xf3,
0x03,
0xfa,
0xf4,
0xf1,
0xfa,
0xfb,
0xf7,
0xf4,
0x04,
0xf9,
0xfb,
0xfa,
0x01,
0xfa,
0xf9,
0xf5,
0x05,
0xfd,
0xff,
0xfc,
0xff,
0xfe,
0xfe,
0xf9,
0x10,
0x0a,
0x02,
0xfb,
0x17,
0x0a,
0x0d,
0x0e,
0x10,
0x04,
0x03,
0xfb,
0x16,
0x02,
0x0f,
0x10,
0xf4,
0xf7,
0x00,
0xfc,
0x07,
0xf9,
0x06,
0x07,
0xf2,
0x03,
0x02,
0x00,
0x0b,
0xfe,
0x02,
0x06,
0xfd,
0x08,
0xf2,
0xef,
0x05,
0x04,
0xf3,
0xef,
0xfd,
0x01,
0xf5,
0xf2,
0x02,
0x04,
0xf8,
0xf3,
0xfc,
0x08,
0x02,
0x02,
0x02,
0x05,
0xfc,
0xf9,
0xf8,
0x13,
0x0e,
0x0f,
0x00,
0x10,
0x0d,
0x0d,
0x01,
0xfc,
0xfd,
0xf5,
0x04,
0xf9,
0x02,
0xfd,
0xff,
0xfb,
0xf9,
0xf2,
0x02,
0xf9,
0xfe,
0xf6,
0x01,
0x18,
0x06,
0x01,
0xfc,
0x1a,
0x08,
0x04,
0x03,
0x15,
0x07,
0xff,
0xfd,
0x17,
0x0a,
0x01,
0xf5,
0x08,
0x02,
0x06,
0x0d,
0xff,
0xfe,
0x04,
0xfb,
0x0a,
0xfd,
0x01,
0xfd,
0x08,
0xfe,
0x03,
0x01,
0xcf,
0x13,
0x49,
0xfc,
0xd0,
0x12,
0x47,
0x04,
0xcd,
0x11,
0x46,
0xfc,
0xcf,
0x10,
0x46,
0xff,
0xe5,
0x01,
0x0b,
0x00,
0xe5,
0x02,
0x0b,
0xff,
0xe6,
0xfd,
0x08,
0x00,
0xe5,
0xfe,
0x0a,
0xfe,
0x01,
0xf2,
0xee,
0xfc,
0x00,
0xf4,
0xed,
0xff,
0x02,
0xf4,
0xf2,
0xfe,
0x05,
0xf9,
0xf4,
0x05,
0x00,
0xf6,
0xf8,
0xfa,
0x01,
0xf6,
0xf7,
0x04,
0x00,
0xfa,
0xfc,
0xfb,
0x00,
0xf9,
0xfb,
0x00,
0x02,
0x06,
0x02,
0xfe,
0x01,
0x08,
0x05,
0xfe,
0xfc,
0x04,
0xfd,
0x00,
0xfd,
0x05,
0xff,
0xfc,
0xff,
0x03,
0x00,
0xfb,
0xff,
0x07,
0x07,
0xfb,
0x02,
0x04,
0x02,
0xff,
0x02,
0x06,
0x05,
0x08,
0xff,
0xff,
0x01,
0x05,
0x07,
0xfe,
0xfe,
0x09,
0xfc,
0xff,
0x02,
0x05,
0xfc,
0xfe,
0xff,
0x06,
0xfd,
0xf5,
0xf5,
0x02,
0xfa,
0xee,
0xed,
0x02,
0xf8,
0xf7,
0xf8,
0x00,
0xf6,
0xf1,
0xf2,
0x05,
0xde,
0xf9,
0xf8,
0xfc,
0xe2,
0xf5,
0xf2,
0x07,
0xdd,
0x04,
0x04,
0xfd,
0xde,
0x01,
0xff,
0x00,
0xfe,
0xfe,
0xff,
0xfe,
0xfd,
0xfe,
0xff,
0x01,
0xff,
0xff,
0x00,
0xfd,
0xff,
0xff,
0xff,
0xf9,
0x04,
0xf7,
0xef,
0xf7,
0x03,
0xf9,
0xf3,
0xf5,
0xfe,
0xf5,
0xe9,
0xf1,
0xf8,
0xf7,
0xee,
0xf2,
0xe9,
0xfd,
0xff,
0x0e,
0xeb,
0xff,
0x00,
0xf2,
0xf6,
0xfc,
0x02,
0x14,
0xfc,
0xfc,
0xff,
0xf5,
0x02,
0x0a,
0x08,
0xf9,
0x02,
0x01,
0xfd,
0xf5,
0x01,
0x0a,
0x07,
0xf8,
0xff,
0xff,
0xfb,
0xe2,
0x05,
0xfa,
0xf9,
0xd4,
0x03,
0xff,
0x00,
0xe3,
0xfd,
0xfa,
0xfa,
0xd4,
0x00,
0x00,
0x00,
0xfe,
0x05,
0x00,
0x00,
0xfe,
0x04,
0xff,
0xfc,
0x00,
0x02,
0x02,
0xff,
0xfe,
0x03,
0x00,
0xfc,
0xfd,
0xfe,
0xf9,
0xf9,
0x02,
0x00,
0xfc,
0xfa,
0xff,
0xfe,
0xfc,
0xfa,
0x05,
0xff,
0xfd,
0xfb,
0x25,
0x06,
0xfe,
0xfd,
0x21,
0x0a,
0xfc,
0xfa,
0x29,
0xfc,
0x00,
0xfe,
0x20,
0xff,
0xfc,
0xfa,
0x00,
0xff,
0x05,
0xfd,
0xff,
0xfe,
0x04,
0xfe,
0x00,
0xff,
0x04,
0xfe,
0x00,
0xff,
0x03,
0xfd,
0xf7,
0xfe,
0x2c,
0xdf,
0xf9,
0x00,
0x2a,
0xdf,
0xf8,
0xfd,
0x29,
0xdd,
0xfc,
0xfd,
0x27,
0xdc,
0x04,
0x05,
0x42,
0x2f,
0xfa,
0x05,
0x41,
0x30,
0x04,
0xfe,
0x42,
0x30,
0xfb,
0xff,
0x41,
0x30};
