/* SPDX-License-Identifier: GPL-2.0 */
/*
 * Copyright (c) 2022 MediaTek Inc.
 *
 * Author: Ming-Hsuan Chiang <ming-hsuan.chiang@mediatek.com>
 *
 */

char fdvt_kernel_bias_loop31_0_frame01_7sp[] = {
0x05,
0xf6,
0xfb,
0xfa,
0xf7,
0x06,
0x05,
0x14,
0xfa,
0x02,
0xff,
0xff,
0x05,
0xfd,
0x05,
0x00,
0xfa,
0xf9,
0xf0,
0xfd,
0xff,
0xf4,
0x0c,
0xf5,
0xfa,
0x0a,
0x09,
0x0e,
0x0e,
0x02,
0xf8,
0xfc,
0x02,
0x0c,
0x06,
0x04,
0x03,
0x07,
0x08,
0xfd,
0xf8,
0xf6,
0x02,
0xf8,
0x0e,
0x04,
0xff,
0x02,
0x02,
0x01,
0x00,
0x07,
0xf9,
0x02,
0xfe,
0xe6,
0xfa,
0x0d,
0x0d,
0x06,
0x05,
0x09,
0xfe,
0xfc,
0x14,
0xf9,
0xdf,
0xe4,
0x09,
0x07,
0x00,
0xe0,
0x01,
0x04,
0xef,
0x2a,
0x01,
0x01,
0x07,
0xf0,
0x08,
0xfa,
0xf5,
0x0e,
0x03,
0xf8,
0xf8,
0x05,
0x02,
0x09,
0xf7,
0xfc,
0x0e,
0xfd,
0xf8,
0xf9,
0xf8,
0x04,
0x17,
0x01,
0x02,
0x0f,
0xf5,
0xef,
0xfb,
0xfc,
0x05,
0xf0,
0xfb,
0x0d,
0xff,
0xff,
0xf7,
0x05,
0xf4,
0xf2,
0x02,
0xed,
0xe7,
0xfb,
0xe8,
0xf0,
0xfd,
0x03,
0x02,
0xf8,
0x04,
0x0a,
0x02,
0x01,
0xfe,
0x03,
0xff,
0x07,
0x03,
0xf9,
0x06,
0x10,
0x09,
0x01,
0x00,
0x09,
0x16,
0x05,
0x04,
0xf7,
0xfd,
0x09,
0xf9,
0xff,
0x03,
0xfe,
0x06,
0xfa,
0xfd,
0xf8,
0x13,
0x03,
0xf7,
0x0a,
0xf4,
0x07,
0xfa,
0x08,
0xee,
0xfd,
0x06,
0xe8,
0x06,
0xfc,
0xf5,
0x02,
0xf9,
0x05,
0x09,
0x04,
0xf1,
0xf8,
0xf4,
0xf2,
0xfd,
0xf4,
0xfe,
0xff,
0x05,
0xfb,
0xef,
0x03,
0x06,
0xfd,
0xfb,
0xf6,
0xfb,
0x06,
0x02,
0x02,
0xeb,
0x02,
0x0a,
0xeb,
0xff,
0x13,
0x0b,
0x00,
0xf3,
0x05,
0x03,
0x04,
0x07,
0xf0,
0xe7,
0xf8,
0x16,
0x10,
0x01,
0x07,
0x01,
0xfc,
0x04,
0xeb,
0x02,
0x09,
0xfc,
0xff,
0x00,
0xf8,
0x02,
0x03,
0x09,
0x03,
0xf4,
0x05,
0x02,
0xf7,
0xfd,
0x08,
0x17,
0x06,
0xf7,
0xf6,
0x02,
0xf6,
0x18,
0x02,
0x01,
0x0b,
0xf6,
0xfc,
0x08,
0xff,
0x03,
0x07,
0xfa,
0xfa,
0xfb,
0xfc,
0xf8,
0x09,
0xfe,
0xf6,
0x05,
0xf1,
0xf5,
0x0b,
0xff,
0x05,
0xf5,
0x00,
0x06,
0xed,
0xfb,
0x04,
0xfe,
0xfa,
0x0d,
0x0d,
0xff,
0x0d,
0xf8,
0xf1,
0x00,
0x03,
0x08,
0xf3,
0x03,
0x0c,
0x0a,
0x1b,
0x0b,
0xfe,
0x01,
0x01,
0xf8,
0xff,
0xfe,
0xfe,
0x03,
0xfd,
0x09,
0x03,
0xfb,
0xfe,
0xfc,
0xf5,
0xf7,
0xf7,
0xc9,
0xcc,
0x05,
0x04,
0x0d,
0xf6,
0xf9,
0x0e,
0xf9,
0xfc,
0x0d,
0x03,
0x00,
0x07,
0x0a,
0x06,
0x03,
0xff,
0xfd,
0xfd,
0xf9,
0xf9,
0xfc,
0xfe,
0x01,
0x02,
0x01,
0x03,
0x03,
0x06,
0xfd,
0x02,
0x05,
0x02,
0xee,
0xf4,
0x0b,
0xf8,
0xf4,
0x08,
0x0c,
0x09,
0xd2,
0xcd,
0xd5,
0xe1,
0x01,
0xff,
0x06,
0x05,
0xf0,
0x0b,
0x07,
0xfa,
0xee,
0x08,
0xf4,
0xf6,
0x17,
0xff,
0x04,
0x10,
0xfe,
0x02,
0x02,
0x0a,
0x13,
0x04,
0xe9,
0x17,
0x09,
0xff,
0xfe,
0x0e,
0x0c,
0x06,
0xfe,
0xfc,
0xfa,
0x02,
0xfe,
0x04,
0xfc,
0xff,
0x01,
0xfe,
0x00,
0x03,
0xfb,
0x06,
0xfd,
0xfb,
0x00,
0x05,
0xf9,
0x0d,
0xf5,
0x00,
0x04,
0xe6,
0xfb,
0x09,
0xee,
0x06,
0x08,
0x08,
0xff,
0xfd,
0x01,
0x04,
0xfb,
0x01,
0x01,
0xfd,
0x01,
0x03,
0xfd,
0xff,
0x04,
0xff,
0xf9,
0xfb,
0x00,
0x00,
0x18,
0x0d,
0x06,
0x06,
0x06,
0xfc,
0x09,
0x01,
0xff,
0x0a,
0xfd,
0x00,
0x07,
0x02,
0xf3,
0x10,
0x0a,
0x01,
0xfa,
0x06,
0xfd,
0x01,
0x03,
0x02,
0x09,
0x04,
0xf7,
0x0e,
0xf9,
0xee,
0x05,
0xfa,
0xf7,
0x02,
0x02,
0xff,
0x0b,
0xf8,
0xf8,
0xfe,
0xfc,
0xff,
0xfe,
0xff,
0xff,
0x00,
0xf8,
0xff,
0x14,
0x09,
0x05,
0x02,
0xfe,
0xff,
0x00,
0x02,
0x08,
0xfc,
0xff,
0x03,
0x04,
0xfc,
0xff,
0xfc,
0xfa,
0x01,
0xfe,
0x06,
0x05,
0x10,
0xfe,
0x08,
0x0a,
0x03,
0xff,
0xfd,
0xe1,
0x08,
0x02,
0xf1,
0x17,
0x11,
0xf3,
0xf9,
0xfd,
0x04,
0x0e,
0xf8,
0xf5,
0x07,
0x06,
0x02,
0x05,
0xfe,
0xf8,
0xf7,
0x04,
0x09,
0x03,
0xfd,
0xf0,
0xfc,
0xfa,
0xec,
0x08,
0x0a,
0xf7,
0xfd,
0x0d,
0x05,
0xf9,
0xee,
0x01,
0xfd,
0xfa,
0xfc,
0xf4,
0xfd,
0x01,
0xfe,
0xfb,
0xfc,
0xfa,
0xfd,
0x0c,
0xfc,
0xeb,
0x06,
0xf5,
0xec,
0x02,
0x05,
0x08,
0x08,
0x0f,
0xff,
0x0e,
0x09,
0xf8,
0xf5,
0x0a,
0x05,
0xf3,
0xeb,
0x04,
0xff,
0x0f,
0x03,
0xf0,
0xee,
0xed,
0x07,
0x06,
0x2a,
0x14,
0x05,
0xf6,
0xf6,
0xff,
0x05,
0xff,
0xf4,
0xfd,
0xf5,
0x02,
0xef,
0xfc,
0xf6,
0x05,
0xf9,
0x04,
0x0c,
0x11,
0xfb,
0xfc,
0x00,
0xfa,
0xf2,
0xfa,
0x09,
0x05,
0x0f,
0x10,
0x0e,
0x09,
0xfa,
0xf6,
0xf3,
0xfc,
0xf1,
0x05,
0x0a,
0xea,
0xf1,
0xf7,
0xed,
0xf5,
0x07,
0xfb,
0xfb,
0x0c,
0xf6,
0xf7,
0x03,
0xff,
0xf3,
0xfc,
0xfc,
0x05,
0x08,
0x09,
0x0f,
0xf9,
0x05,
0x09,
0xf7,
0xfc,
0xf6,
0xf8,
0x0b,
0xf7,
0x1f,
0x0e,
0xf9,
0x05,
0xf0,
0x04,
0x03,
0xf8,
0x0c,
0x08,
0xf9,
0xf3,
0x06,
0x01,
0x05,
0x05,
0xfb,
0x01,
0x05,
0xf9,
0x17,
0xfa,
0xfe,
0xfe,
0x02,
0x02,
0x03,
0x02,
0xfe,
0xf7,
0x01,
0x11,
0x09,
0xff,
0x03,
0xfa,
0xfc,
0xfa,
0x0f,
0xf8,
0xfe,
0x0a,
0xe9,
0xf4,
0x04,
0xf3,
0x06,
0x02,
0x03,
0xfd,
0xff,
0xfd,
0x00,
0x07,
0x0a,
0xfc,
0xfe,
0xfd,
0xf9,
0x06,
0x02,
0x04,
0xed,
0xf4,
0x0c,
0x02,
0xfb,
0x05,
0xf3,
0xf6,
0xf7,
0xf8,
0x0b,
0x0e,
0x0c,
0xff,
0xfd,
0xfa,
0x05,
0xfd,
0x03,
0xfd,
0x00,
0x02,
0xfa,
0x14,
0x23,
0x32,
0x28,
0x05,
0x01,
0xf3,
0x08,
0x06,
0xfa,
0xfe,
0xf7,
0xf1,
0xfb,
0x01,
0x0a,
0xff,
0x01,
0x07,
0xfe,
0xfb,
0x0a,
0xfc,
0xf8,
0x00,
0x03,
0xfe,
0xfb,
0x01,
0xfd,
0xfa,
0xfe,
0x01,
0x01,
0x06,
0x09,
0x06,
0xff,
0x03,
0x07,
0x00,
0xf0,
0x00,
0x00,
0x33,
0x36,
0x1b,
0x1c,
0x0a,
0x02,
0xf4,
0x05,
0xfd,
0xf8,
0x08,
0x11,
0x0f,
0xed,
0x0f,
0x0d,
0xe8,
0x09,
0x01,
0xe6,
0x00,
0x09,
0x02,
0x17,
0x10,
0xf9,
0xf4,
0x14,
0xfb,
0x00,
0x10,
0x08,
0x17,
0x0b,
0xff,
0xff,
0xfd,
0x02,
0x02,
0x03,
0x07,
0x05,
0x04,
0xf9,
0xfb,
0x04,
0x05,
0x08,
0x01,
0x0a,
0x08,
0x06,
0x0d,
0x08,
0x04,
0x06,
0x10,
0xf2,
0x03,
0x11,
0x01,
0x0c,
0x03,
0x01,
0x08,
0x04,
0xfc,
0x07,
0x0a,
0xfc,
0xfb,
0x02,
0xf9,
0x0a,
0x05,
0x04,
0x05,
0xf8,
0xfd,
0x15,
0xff,
0x02,
0x04,
0xf1,
0xf5,
0xfe,
0xf6,
0xff,
0x07,
0x00,
0x06,
0x0c,
0x00,
0x00,
0x01,
0x02,
0x01,
0x05,
0x05,
0xfe,
0x00,
0xf4,
0xfb,
0xf3,
0x01,
0x09,
0x16,
0xf4,
0xfc,
0x12,
0x05,
0x13,
0x1f,
0x05,
0xfe,
0x0f,
0xfd,
0x03,
0x03,
0xfd,
0xff,
0x05,
0xfd,
0xff,
0x07,
0x09,
0x03,
0x05,
0x0b,
0x03,
0xff,
0x00,
0x01,
0x03,
0x02,
0x01,
0xfd,
0xfd,
0x00,
0xfd,
0xfe,
0x04,
0x03,
0xfa,
0x00,
0x1f,
0xfb,
0x19,
0xfe,
0x09,
0x09,
0x06,
0x03,
0xff,
0xff,
0x02,
0xf9,
0xfa,
0x0a,
0x00,
0xfe,
0xfc,
0xfa,
0x08,
0xff,
0x08,
0xfd,
0x0d,
0x10,
0xf3,
0xfb,
0x00,
0xfb,
0xfa,
0x01,
0x09,
0x02,
0xfc,
0xf6,
0xf9,
0xf6,
0xf5,
0x11,
0xfe,
0xfb,
0x0d,
0xf1,
0x07,
0x09,
0xfc,
0xec,
0xf7,
0xfc,
0xf6,
0xf7,
0x05,
0x00,
0x07,
0xf7,
0x05,
0xff,
0xef,
0x04,
0x07,
0x00,
0x0d,
0xfe,
0xff,
0x00,
0xf7,
0xf8,
0xfb,
0x0c,
0x07,
0xf4,
0x05,
0xec,
0x0b,
0x0d,
0xf8,
0xfb,
0xf8,
0xfa,
0x02,
0xf7,
0x01,
0x01,
0xfe,
0xfe,
0x01,
0xf3,
0x07,
0x0a,
0xfd,
0xf1,
0x06,
0xf9,
0xf9,
0xfe,
0xfa,
0x0e,
0x0c,
0xf5,
0x07,
0x09,
0x02,
0xf7,
0xf5,
0xfa,
0xf8,
0x03,
0xf8,
0xff,
0x00,
0x04,
0x07,
0xfb,
0x00,
0x06,
0x07,
0xff,
0xec,
0xfc,
0xe5,
0xe5,
0xf0,
0xf3,
0xfa,
0xfd,
0xfd,
0xf8,
0xf2,
0xfb,
0xfe,
0xf9,
0xfe,
0x05,
0x04,
0x03,
0x09,
0xfa,
0xfc,
0x02,
0xef,
0xef,
0x06,
0xfe,
0x00,
0xef,
0xfc,
0x01,
0x07,
0x0a,
0x11,
0xe9,
0x06,
0x0f,
0x10,
0x00,
0xf9,
0x04,
0xfe,
0x04,
0x02,
0x08,
0xfe,
0xef,
0x01,
0x09,
0x0d,
0xfd,
0x0c,
0x17,
0xfd,
0xf7,
0xfe,
0x01,
0xf4,
0xfa,
0x0d,
0xf4,
0xf5,
0xf3,
0xf7,
0x00,
0xfe,
0x12,
0xfd,
0x01,
0x0d,
0x08,
0xea,
0xc5,
0x0c,
0x09,
0xe2,
0x0e,
0x24,
0x16,
0xfd,
0xfb,
0xff,
0xfe,
0x07,
0xfe,
0xfc,
0x0b,
0x07,
0x05,
0x09,
0xfd,
0xf7,
0x04,
0xfb,
0xf6,
0x02,
0xfc,
0xf1,
0xfd,
0xe8,
0xd9,
0x03,
0xf8,
0xfa,
0xf8,
0xfc,
0x09,
0xfe,
0xfd,
0x05,
0x0f,
0x0c,
0xeb,
0x7b,
0x47,
0x0f,
0x2a,
0x36,
0x0c,
0x5b,
0x79,
0x4e,
0x74,
0x09,
0xed,
0x53,
0x92,
0x00};
