/* SPDX-License-Identifier: GPL-2.0 */
/*
 * Copyright (c) 2022 MediaTek Inc.
 *
 * Author: Ming-Hsuan Chiang <ming-hsuan.chiang@mediatek.com>
 *
 */

char fdvt_kernel_bias_loop31_1_frame01_7sp[] = {
0xfc,
0xff,
0x03,
0x09,
0x0f,
0xfb,
0xed,
0x0d,
0xfe,
0xf8,
0x09,
0x06,
0x0d,
0x07,
0x0b,
0x02,
0xfa,
0xfb,
0xff,
0xf6,
0xfa,
0x00,
0x04,
0xf9,
0xfc,
0x02,
0x07,
0x0b,
0x01,
0xfe,
0x01,
0x01,
0x02,
0x06,
0xfb,
0xfd,
0x03,
0xf1,
0x04,
0x0c,
0x08,
0x0e,
0x0c,
0x0b,
0x01,
0x03,
0xfa,
0xf5,
0xef,
0xf9,
0xfc,
0xff,
0x09,
0x12,
0xfd,
0x03,
0xff,
0xfe,
0x06,
0xfe,
0x02,
0x08,
0x02,
0x1b,
0xea,
0xfb,
0xfe,
0xf7,
0xff,
0xfe,
0x07,
0x2b,
0x12,
0x09,
0x00,
0xff,
0x01,
0x00,
0xf8,
0xff,
0x02,
0xf1,
0x05,
0xf9,
0x00,
0xf3,
0xeb,
0xf5,
0x07,
0x13,
0xee,
0xf9,
0x0f,
0xfd,
0x08,
0x07,
0x06,
0x08,
0x01,
0x02,
0x02,
0x0a,
0xef,
0xfb,
0x09,
0x06,
0x03,
0x08,
0x0c,
0x04,
0xfa,
0xfe,
0xf6,
0xeb,
0x02,
0xfa,
0xf0,
0x00,
0x26,
0x06,
0xf3,
0x0c,
0x18,
0x08,
0xfb,
0xf7,
0x00,
0xfa,
0x02,
0x0f,
0xec,
0x18,
0xfc,
0xfe,
0x13,
0x04,
0xeb,
0x17,
0xfb,
0xf2,
0x0a,
0xfd,
0xfa,
0x0d,
0xf2,
0x05,
0x05,
0xf8,
0x08,
0x01,
0xf2,
0x0d,
0xf8,
0xfa,
0x0b,
0xf5,
0x09,
0x0a,
0x09,
0xfa,
0xfe,
0x00,
0x04,
0xff,
0x07,
0x03,
0x02,
0x0a,
0x0d,
0xf3,
0x00,
0x00,
0xff,
0xed,
0xfd,
0xf4,
0xff,
0x0e,
0x03,
0xfa,
0x0e,
0xfb,
0x05,
0x08,
0xff,
0x02,
0xf5,
0xff,
0x03,
0xf3,
0x03,
0x00,
0xfd,
0xfc,
0x11,
0x08,
0x04,
0x04,
0x05,
0xfd,
0xfe,
0x04,
0xfd,
0xff,
0x0b,
0x02,
0xf1,
0x06,
0xfb,
0x00,
0x05,
0xff,
0xf5,
0xfd,
0x02,
0x03,
0x05,
0xf9,
0xf4,
0xf4,
0x02,
0xf6,
0xf2,
0xfd,
0xfe,
0x07,
0xff,
0xf6,
0xf9,
0xfa,
0x00,
0xf4,
0x12,
0xfb,
0xf5,
0x01,
0xff,
0xfe,
0x03,
0x15,
0xfc,
0xfe,
0x03,
0xfc,
0x02,
0xf9,
0xf9,
0xfd,
0xfc,
0xf8,
0xec,
0xff,
0x06,
0xf5,
0xf5,
0x00,
0xf3,
0xf9,
0x01,
0xfc,
0xea,
0xff,
0x0e,
0xfe,
0xf9,
0x06,
0x21,
0x05,
0xfe,
0x01,
0xfe,
0xf5,
0x05,
0xf9,
0xe3,
0xf0,
0x01,
0x0b,
0x08,
0xfd,
0xf8,
0xfe,
0x0f,
0xf4,
0xfb,
0xf5,
0x04,
0xff,
0x01,
0xfe,
0x07,
0xf8,
0x01,
0x05,
0xed,
0x00,
0x0e,
0xff,
0x07,
0x05,
0x35,
0x28,
0x04,
0x0e,
0x01,
0xfe,
0x03,
0x02,
0xfc,
0xfc,
0x00,
0x1e,
0x1f,
0xf2,
0x07,
0x1b,
0xd9,
0xdd,
0xf8,
0x03,
0x06,
0x0f,
0xfe,
0xfb,
0x12,
0xf4,
0xfa,
0x17,
0xf7,
0x01,
0xfd,
0xfc,
0x02,
0xf9,
0xfa,
0x02,
0x01,
0x1a,
0x16,
0x41,
0x35,
0xfb,
0x0c,
0x09,
0xf9,
0xfd,
0xfe,
0xfa,
0xfb,
0xf7,
0xff,
0x10,
0xf6,
0xfd,
0x0a,
0xf3,
0xee,
0x00,
0x03,
0x08,
0x04,
0x00,
0x0a,
0x04,
0x03,
0xfd,
0x0d,
0x03,
0x02,
0x0e,
0xf3,
0xf6,
0xfa,
0xfc,
0x03,
0xf1,
0xf5,
0x06,
0xfe,
0x07,
0x0a,
0xf7,
0xfa,
0x05,
0x02,
0x07,
0x0a,
0xf8,
0x0b,
0x04,
0x00,
0x0a,
0xfc,
0xf5,
0xff,
0x02,
0x0c,
0xfd,
0xfc,
0xfc,
0x00,
0xfd,
0x02,
0xff,
0xf0,
0x01,
0x14,
0xf1,
0xf7,
0x04,
0x0d,
0xfb,
0x0a,
0xff,
0xfc,
0xff,
0xf0,
0xfc,
0xf7,
0xf9,
0xf7,
0xfe,
0x0e,
0xf8,
0xf4,
0xfe,
0x02,
0x03,
0x06,
0xfc,
0xfe,
0x03,
0xf8,
0x07,
0xfc,
0x01,
0x0a,
0xf6,
0xf9,
0x11,
0xf8,
0xf5,
0xfa,
0xff,
0xf9,
0x0a,
0x0b,
0x04,
0xfe,
0x04,
0xfc,
0xff,
0xff,
0xfd,
0x02,
0x00,
0xfb,
0xfa,
0x1f,
0x10,
0xf0,
0xed,
0x07,
0x04,
0x07,
0x07,
0xf3,
0xfe,
0x0a,
0xf1,
0xf2,
0xff,
0xe8,
0xf4,
0xff,
0xfc,
0xfb,
0x01,
0x03,
0xf9,
0x0a,
0x0e,
0x00,
0x03,
0x05,
0xed,
0x05,
0x01,
0xe9,
0xdf,
0xff,
0x00,
0xe7,
0xef,
0x09,
0xf9,
0xfd,
0xf5,
0x03,
0xfe,
0x00,
0x0a,
0x04,
0x00,
0xf8,
0xe1,
0xed,
0xf8,
0xc9,
0x05,
0xfe,
0xe9,
0x07,
0xf7,
0xfa,
0x06,
0x06,
0x08,
0x05,
0xe8,
0xff,
0x09,
0xef,
0xfa,
0x08,
0xf6,
0xeb,
0xf5,
0xf8,
0xff,
0x06,
0xfb,
0xff,
0x02,
0x04,
0xf8,
0xf0,
0x02,
0x0a,
0xfc,
0x05,
0x04,
0xf5,
0xf7,
0x00,
0xfd,
0xf6,
0xfc,
0xf5,
0xfc,
0x03,
0xfc,
0x05,
0x00,
0xff,
0x01,
0xf7,
0xf7,
0xf6,
0xfb,
0xf2,
0x00,
0x04,
0xf1,
0x05,
0x13,
0x04,
0xf3,
0x06,
0xfe,
0xef,
0x20,
0xfd,
0x0b,
0x18,
0xed,
0x02,
0x09,
0x06,
0x0e,
0xfd,
0x05,
0xf8,
0x01,
0xf1,
0xf6,
0x0e,
0x02,
0x03,
0xee,
0x0f,
0x11,
0xfd,
0xfd,
0xf0,
0xfe,
0xfa,
0xf4,
0x05,
0x08,
0x09,
0xf3,
0x02,
0x00,
0xf7,
0x00,
0x0c,
0xf5,
0xf7,
0xff,
0x06,
0x0a,
0x06,
0x09,
0x10,
0xfd,
0xff,
0x08,
0x05,
0x04,
0xfa,
0x09,
0x04,
0xf7,
0x08,
0xfd,
0x09,
0xfd,
0xf9,
0x08,
0xf8,
0xfc,
0x00,
0x0b,
0x04,
0xfd,
0x03,
0x06,
0xfb,
0xfd,
0xfd,
0x06,
0xf9,
0xeb,
0xf8,
0xf3,
0x04,
0x09,
0xfe,
0x03,
0x09,
0x06,
0xf6,
0xfe,
0x07,
0x07,
0x05,
0x03,
0xef,
0xf9,
0x0b,
0xfc,
0x03,
0x01,
0xf2,
0x0c,
0x05,
0x00,
0x0e,
0xfc,
0xf9,
0x02,
0xff,
0xfa,
0x02,
0xf9,
0xf2,
0x05,
0x00,
0x05,
0xfd,
0xf5,
0xfa,
0x06,
0xff,
0xfa,
0x02,
0xfe,
0x02,
0xfa,
0x00,
0xf5,
0xf7,
0x04,
0x04,
0xf2,
0xf5,
0x00,
0x05,
0x01,
0xff,
0xff,
0xf8,
0x04,
0x00,
0x0f,
0x00,
0x0c,
0xfd,
0x00,
0x08,
0x07,
0xf7,
0xfc,
0xe8,
0xf3,
0x0d,
0x04,
0x00,
0x08,
0xff,
0xfe,
0x07,
0x08,
0x01,
0x03,
0x01,
0xff,
0x02,
0x03,
0xfd,
0xd9,
0xcc,
0xdb,
0xfc,
0x15,
0xff,
0x03,
0x0b,
0xfc,
0xff,
0x01,
0x08,
0xd4,
0xca,
0x21,
0x11,
0xe6,
0x1b,
0x1d,
0x0c,
0x01,
0xfd,
0xf4,
0x02,
0x02,
0xfc,
0x06,
0x01,
0x06,
0x0e,
0x01,
0xff,
0xfa,
0xfc,
0xff,
0xfb,
0xfe,
0x05,
0xf6,
0xec,
0xc4,
0xd3,
0x01,
0x04,
0x03,
0xfe,
0x02,
0x06,
0xfc,
0xfa,
0x00,
0x08,
0xf6,
0xf7,
0xfa,
0xf2,
0xf4,
0x02,
0x02,
0x06,
0x0d,
0x0b,
0x04,
0x01,
0x02,
0x04,
0x01,
0x0a,
0x00,
0xf1,
0x07,
0xec,
0xf4,
0x11,
0xfc,
0x08,
0xff,
0xec,
0x0c,
0x0a,
0x08,
0x17,
0x08,
0xfe,
0xfb,
0x09,
0x0f,
0x03,
0xfe,
0xfc,
0x07,
0xfd,
0x08,
0x06,
0xf5,
0x0a,
0x08,
0xf8,
0x0b,
0x08,
0x06,
0x0b,
0x04,
0x07,
0x08,
0xfd,
0x00,
0x02,
0xf1,
0xf9,
0x0a,
0x09,
0x06,
0xfd,
0x01,
0xf8,
0xfd,
0x02,
0x0d,
0xee,
0x04,
0x06,
0xf7,
0xff,
0xfe,
0xf2,
0x08,
0xf8,
0xfe,
0x1f,
0x00,
0xf9,
0x0b,
0xfc,
0xfb,
0xfa,
0xfd,
0xff,
0x03,
0x02,
0x02,
0xf8,
0xfb,
0xf6,
0x07,
0xfe,
0x11,
0xec,
0x02,
0xfa,
0xf6,
0x09,
0xfc,
0xfa,
0x02,
0xeb,
0xdd,
0xf1,
0x14,
0xfd,
0xf1,
0x1e,
0x20,
0xfe,
0x00,
0xfb,
0x00,
0xf8,
0xf7,
0x07,
0xf8,
0xf4,
0x1b,
0x10,
0x08,
0xfb,
0xfa,
0xf8,
0x05,
0x07,
0x04,
0x1a,
0xf2,
0xe8,
0xd7,
0xf1,
0xfe,
0xfe,
0xfe,
0xfb,
0x01,
0x02,
0xff,
0xfd,
0x01,
0x03,
0xff,
0xf7,
0xf9,
0xf4,
0xff,
0x04,
0xff,
0xfe,
0x10,
0x00,
0xfd,
0x05,
0x02,
0xfb,
0x07,
0xfe,
0xfe,
0xf6,
0xf5,
0xef,
0x01,
0xff,
0xeb,
0x09,
0xf4,
0xe6,
0x0e,
0x06,
0xfd,
0x0e,
0xf7,
0xff,
0x13,
0x03,
0x03,
0x06,
0xf7,
0xfa,
0x04,
0xf9,
0xf7,
0x00,
0x00,
0x03,
0xfd,
0xf9,
0xf8,
0xff,
0xfe,
0x02,
0x03,
0xfc,
0x01,
0xee,
0xf9,
0x14,
0xf8,
0xf4,
0x09,
0x03,
0x08,
0xee,
0x05,
0x0c,
0xfe,
0x0a,
0x03,
0xed,
0x0a,
0x06,
0xfb,
0x05,
0xf1,
0x01,
0x10,
0xf7,
0x0f,
0x0a,
0xff,
0x01,
0xf1,
0xfb,
0x02,
0x05,
0x06,
0x05,
0xff,
0xf1,
0xff,
0xf8,
0xf4,
0x06,
0xf9,
0xfe,
0x04,
0x04,
0x0b,
0xf7,
0x04,
0x07,
0xf5,
0x03,
0x07,
0xfe,
0xf9,
0x05,
0x08,
0x0c,
0x03,
0x05,
0xfb,
0x01,
0x03,
0x0a,
0x00,
0x07,
0xff,
0x01,
0xf8,
0x0c,
0xfa,
0xff,
0x00,
0xfd,
0xf6,
0xfe,
0xf6,
0x00,
0x00,
0x0b,
0x0a,
0x01,
0x02,
0xf4,
0x01,
0x05,
0x09,
0xf8,
0xf9,
0xf6,
0xfc,
0x05,
0x0c,
0x03,
0xf6,
0xf7,
0xf5,
0xfb,
0xfe,
0x00,
0xfe,
0x0c,
0x0c,
0x06,
0xfe,
0xf5,
0xf7,
0xfe,
0xf6,
0xfa,
0x0b,
0xfb,
0xfc,
0x0b,
0x0f,
0x02,
0x0a,
0x0e,
0xfd,
0x0c,
0x17,
0xfe,
0x05,
0xfd,
0xf8,
0xf0,
0x04,
0xf5,
0xfd,
0xfe,
0x03,
0xfb,
0x08,
0x0d,
0x00,
0x02,
0x05,
0xfe,
0xfe,
0x09,
0xfe,
0xf9,
0x06,
0x04,
0x00,
0x06,
0xfc,
0x07,
0x0c,
0xfd,
0x00,
0x09,
0xf1,
0xfe,
0xfe,
0x13,
0x29,
0x1e,
0xfe,
0x07,
0xf6,
0xe7,
0xe7,
0x06,
0x0d,
0x0a,
0x03,
0x10,
0xef,
0x09,
0x1a,
0xe0,
0x00,
0x10,
0xe2,
0x00,
0x00,
0x00,
0x00,
0x00,
0x00,
0x00,
0x00,
0x00,
0x00,
0x00,
0x00,
0x00,
0x00,
0x00,
0x00};
