/* SPDX-License-Identifier: GPL-2.0 */
/*
 * Copyright (c) 2022 MediaTek Inc.
 *
 * Author: Ming-Hsuan Chiang <ming-hsuan.chiang@mediatek.com>
 *
 */

char fdvt_kernel_bias_loop34_0_frame01_7sp[] = {
0xfc,
0x15,
0x09,
0x0f,
0xfe,
0xf6,
0xfa,
0x04,
0xec,
0xd9,
0xfd,
0x14,
0xfd,
0xff,
0x08,
0xf1,
0x1b,
0x07,
0x06,
0xf8,
0x0a,
0xf4,
0xfb,
0xfd,
0x09,
0xfd,
0x0f,
0xf8,
0x04,
0xee,
0x06,
0xfc,
0xf9,
0xf0,
0xff,
0xe3,
0x03,
0x09,
0x67,
0x28,
0x06,
0xe1,
0x02,
0xf4,
0xfb,
0xe9,
0x06,
0xf1,
0xfd,
0x0e,
0xf5,
0xfc,
0xf5,
0x01,
0xfc,
0xfd,
0x26,
0x06,
0x22,
0x13,
0xf8,
0xf8,
0xfd,
0xef,
0xee,
0x02,
0xf5,
0x11,
0xf5,
0xee,
0xf7,
0xfd,
0xf5,
0xff,
0xf2,
0xf2,
0x06,
0x0e,
0xf4,
0xec,
0x14,
0x3c,
0x06,
0x21,
0x0d,
0x02,
0xe7,
0xd3,
0x0c,
0x0e,
0x0c,
0x11,
0xfd,
0x30,
0x1d,
0xfc,
0xf4,
0xe9,
0xdb,
0xf0,
0x01,
0xfe,
0xfd,
0x94,
0xe6,
0x0a,
0xf2,
0xee,
0x06,
0x00,
0xf9,
0xe3,
0x02,
0x14,
0xf8,
0x02,
0xec,
0x02,
0xf6,
0x07,
0xf9,
0xfe,
0x08,
0xe6,
0x04,
0xfb,
0xf5,
0xee,
0xee,
0x00,
0xe6,
0xf0,
0xf2,
0x0a,
0x0a,
0x02,
0x1b,
0x12,
0x00,
0xf9,
0xf8,
0x08,
0x17,
0x03,
0xfe,
0x23,
0x0d,
0x11,
0xef,
0xcc,
0x11,
0x04,
0x1e,
0x00,
0xf5,
0xfd,
0xf8,
0x03,
0xf0,
0xff,
0x01,
0x00,
0x23,
0x11,
0xeb,
0x02,
0xe2,
0xfe,
0xeb,
0xe8,
0xfc,
0xfe,
0xf4,
0xe9,
0x12,
0x01,
0x08,
0xf6,
0x04,
0xf2,
0x13,
0x00,
0xfe,
0xfa,
0xf2,
0xfe,
0xf9,
0x09,
0xf7,
0xe3,
0xf2,
0x33,
0x15,
0x0d,
0xe8,
0xf4,
0x0c,
0x2b,
0xed,
0xff,
0xfe,
0x29,
0x0b,
0x10,
0x16,
0xfb,
0x07,
0x0a,
0x10,
0x05,
0x2f,
0x13,
0xf9,
0x1f,
0x33,
0x00,
0x02,
0x24,
0xf4,
0xed,
0x01,
0x07,
0x11,
0x1b,
0x19,
0xf6,
0xfd,
0x00,
0x00,
0xf5,
0x16,
0xfa,
0xf4,
0x04,
0x09,
0x08,
0x17,
0xdd,
0x14,
0x06,
0x00,
0x01,
0x0f,
0xfe,
0xed,
0x15,
0xee,
0x04,
0x03,
0xf8,
0xe4,
0x07,
0x00,
0xf0,
0xf2,
0x00,
0xf0,
0xfc,
0xfb,
0x01,
0x13,
0x0b,
0xf0,
0xfd,
0x0c,
0xda,
0xfc,
0xe3,
0xfa,
0xfb,
0x0a,
0xec,
0x0e,
0xfb,
0x0e,
0x10,
0xee,
0xf3,
0x0f,
0x05,
0x25,
0x04,
0xfa,
0x07,
0xe3,
0xec,
0x14,
0xe5,
0xfc,
0xf2,
0xf1,
0xd6,
0x0c,
0x16,
0xdd,
0x0b,
0x07,
0x0b,
0xf1,
0x09,
0x08,
0xf6,
0xf4,
0x06,
0xe8,
0xf7,
0xe8,
0xfe,
0xdf,
0xff,
0x18,
0x00,
0xe3,
0x2c,
0xfa,
0x28,
0xfe,
0xfd,
0xfc,
0xe7,
0xf0,
0xfa,
0xf9,
0xde,
0x09,
0x16,
0x16,
0xf7,
0xe3,
0xf7,
0x01,
0xf2,
0xeb,
0xef,
0xf2,
0xf2,
0x1c,
0xf2,
0x07,
0x2b,
0x03,
0xfe,
0x0c,
0xff,
0x03,
0xfd,
0x00,
0xe7,
0x0c,
0xed,
0x09,
0x41,
0x25,
0xee,
0xfe,
0x08,
0x06,
0xfb,
0x04,
0x00,
0x0e,
0xce,
0x13,
0xf3,
0xf0,
0x0a,
0xe8,
0x20,
0xf2,
0x15,
0xf4,
0x06,
0xfd,
0x0a,
0xfc,
0x02,
0x2c,
0x0f,
0x04,
0x02,
0xea,
0xe7,
0x05,
0xff,
0x07,
0xf9,
0xfd,
0x17,
0xfe,
0xfe,
0x0b,
0x06,
0x1e,
0x11,
0xef,
0x01,
0xd5,
0xf8,
0xec,
0x24,
0xe8,
0x02,
0xf1,
0xf3,
0x15,
0x14,
0xf7,
0x0b,
0xf5,
0x06,
0xf0,
0xd9,
0xfe,
0xf1,
0x08,
0xe8,
0xe4,
0xf3,
0xf4,
0xdf,
0xf9,
0xfb,
0x00,
0x00,
0xce,
0xf5,
0xf3,
0x05,
0xe4,
0x23,
0xf1,
0xdd,
0xee,
0xf2,
0xfa,
0xf4,
0x02,
0xe8,
0xef,
0xff,
0x11,
0x0e,
0xf4,
0x14,
0x00,
0xe0,
0xf2,
0x06,
0x01,
0x1b,
0x0f,
0x0b,
0xfa,
0x06,
0xf8,
0x01,
0x2f,
0x06,
0xe5,
0x01,
0xe6,
0xf7,
0x15,
0xef,
0x02,
0x01,
0xfe,
0xed,
0x0c,
0x14,
0x00,
0xf1,
0x0e,
0xfa,
0xf8,
0x14,
0xfc,
0xdd,
0xea,
0xec,
0x0f,
0xff,
0xfa,
0xf9,
0xf4,
0x19,
0x15,
0x03,
0xfe,
0xf9,
0xf3,
0x03,
0xfd,
0xda,
0xfd,
0xf2,
0x0d,
0xeb,
0x15,
0xfe,
0x18,
0x05,
0xf2,
0xff,
0xfe,
0xeb,
0x11,
0xfb,
0xf4,
0xfc,
0x00,
0xf8,
0x06,
0x0b,
0xec,
0x07,
0xfd,
0xfa,
0x07,
0x07,
0x02,
0x00,
0x05,
0x16,
0x06,
0x0b,
0x0a,
0xfd,
0x17,
0xfd,
0x07,
0xfb,
0xed,
0xf6,
0xf7,
0x04,
0xdd,
0xfb,
0x09,
0x19,
0x01,
0x02,
0xe4,
0x00,
0xed,
0x09,
0xf5,
0xfb,
0x0c,
0xf3,
0xdf,
0x0c,
0xf1,
0xf2,
0x02,
0xed,
0xf2,
0x11,
0xf2,
0x13,
0x0b,
0x03,
0x05,
0xee,
0x08,
0x08,
0xe4,
0x00,
0x14,
0x1b,
0xed,
0xf5,
0x02,
0xfa,
0xf8,
0xec,
0x22,
0x0d,
0x01,
0x09,
0x0e,
0xfe,
0xf9,
0x05,
0xf8,
0x02,
0x1a,
0xff,
0xde,
0x0a,
0xed,
0xff,
0x13,
0x06,
0x07,
0x24,
0xfe,
0x05,
0xf7,
0xfa,
0xfa,
0xf7,
0x08,
0x08,
0x04,
0x07,
0xff,
0x16,
0xc2,
0xf6,
0x05,
0xf5,
0xfe,
0xff,
0xe9,
0xf8,
0xf4,
0xff,
0x00,
0x0d,
0xfe,
0x26,
0x45,
0x0d,
0xf2,
0x05,
0xfe,
0xef,
0xf9,
0xec,
0xfb,
0xf0,
0xfd,
0x06,
0x0e,
0x00,
0xe6,
0x0c,
0x09,
0x0a,
0x0b,
0x02,
0xfd,
0x20,
0xf4,
0xff,
0xe3,
0xfa,
0x04,
0x11,
0xe7,
0x08,
0xf4,
0xfb,
0xf5,
0x01,
0xf9,
0xf3,
0xfc,
0xff,
0xfa,
0x0f,
0x05,
0xd9,
0xfc,
0xfc,
0x09,
0x00,
0xfb,
0x1b,
0xfd,
0x21,
0xee,
0xff,
0xf0,
0x0b,
0x0a,
0x07,
0x09,
0xfc,
0x05,
0xf9,
0x08,
0x08,
0x07,
0x00,
0x0b,
0xe5,
0xe8,
0xed,
0xe5,
0xd7,
0x0f,
0xee,
0xcb,
0x1e,
0xfe,
0xf8,
0x05,
0xea,
0x07,
0x1b,
0x23,
0xfb,
0xfa,
0xf6,
0x1e,
0xef,
0x01,
0xfb,
0xe4,
0xf3,
0x1d,
0x09,
0x07,
0xf6,
0x1b,
0xef,
0x1e,
0xff,
0x03,
0xe6,
0xe9,
0x18,
0x10,
0xf5,
0x1e,
0xe6,
0xf9,
0x11,
0xfc,
0xdd,
0xfb,
0x13,
0x24,
0xfb,
0x08,
0x0d,
0x0d,
0x1f,
0x07,
0xe6,
0xd0,
0x12,
0x0a,
0x00,
0x03,
0xf9,
0x06,
0x22,
0xe8,
0xe2,
0x07,
0xe9,
0xfe,
0x00,
0xf6,
0xfd,
0xff,
0x19,
0x11,
0x01,
0xee,
0x0b,
0xf3,
0x0e,
0xe8,
0xfd,
0xf6,
0xf9,
0x15,
0xfc,
0xf4,
0xe1,
0x16,
0x12,
0xe8,
0xfa,
0xfc,
0xf5,
0x04,
0x01,
0x02,
0xf7,
0xf2,
0x03,
0x1c,
0x10,
0x05,
0xde,
0x03,
0xeb,
0x09,
0xf4,
0x01,
0x07,
0x09,
0x0a,
0x18,
0xf6,
0xd8,
0x15,
0xdf,
0xdb,
0xde,
0xed,
0x14,
0x0a,
0xfe,
0xf9,
0xfa,
0xef,
0x0b,
0xfc,
0x29,
0xf3,
0x14,
0x07,
0x1e,
0xfa,
0x02,
0xde,
0xfb,
0xf8,
0x13,
0xfa,
0xfb,
0x07,
0xee,
0x0e,
0xff,
0x02,
0x08,
0x22,
0xfa,
0x08,
0x15,
0xec,
0x03,
0x16,
0x06,
0xfe,
0xef,
0xf5,
0x15,
0x03,
0xfa,
0x06,
0x14,
0xec,
0xee,
0xf2,
0x08,
0xed,
0xfb,
0x1b,
0xf6,
0x0b,
0xf3,
0xfe,
0x10,
0xff,
0x05,
0x17,
0xeb,
0xfb,
0xf7,
0xd3,
0xfd,
0x03,
0x05,
0x0c,
0xff,
0xf2,
0x02,
0xfb,
0x08,
0x0f,
0x13,
0xed,
0x02,
0x16,
0xd2,
0x17,
0xf5,
0x0c,
0x02,
0xf2,
0xff,
0xf5,
0x0d,
0xf5,
0x02,
0xfd,
0x07,
0x13,
0xf3,
0xd8,
0x12,
0xf1,
0x20,
0xd7,
0xe2,
0x04,
0x0c,
0x06,
0x01,
0x02,
0x20,
0x06,
0xf5,
0xff,
0xf6,
0x0b,
0xe8,
0xec,
0x14,
0x02,
0x10,
0xf3,
0x0e,
0x05,
0x02,
0x04,
0x0e,
0xe7,
0xf6,
0xf9,
0x03,
0xe5,
0xf2,
0xf4,
0x01,
0xe7,
0xf6,
0x0f,
0x0d,
0xf2,
0x2d,
0xf5,
0xfc,
0xfa,
0x07,
0xf8,
0xd7,
0xe5,
0xfe,
0xc6,
0xf1,
0xe9,
0x0f,
0x01,
0x10,
0x06,
0xf3,
0xf6,
0xfe,
0x04,
0xf6,
0xf4,
0x07,
0xf9,
0xf4,
0x05,
0xef,
0x0f,
0xfb,
0xd3,
0xf4,
0xe3,
0xd3,
0xe2,
0x1b,
0xdd,
0x0c,
0xf2,
0xf9,
0xf9,
0xee,
0xf1,
0x0d,
0x1c,
0xff,
0xef,
0xf7,
0x36,
0x0e,
0xd4,
0x03,
0x0c,
0x0d,
0xf6,
0xf2,
0xc7,
0x08,
0xf3,
0x00,
0xee,
0xf6,
0xea,
0xfd,
0x10,
0x0b,
0xea,
0xe6,
0x02,
0xfb,
0xf3,
0xfb,
0xf1,
0xf9,
0x23,
0xfc,
0x04,
0x01,
0xf2,
0x0e,
0x28,
0x09,
0x19,
0xf5,
0x09,
0x0c,
0xdd,
0xde,
0x0b,
0x0a,
0x05,
0xfd,
0x15,
0xfb,
0xf1,
0xfd,
0xfb,
0x08,
0xf9,
0x0e,
0xe2,
0x03,
0xfa,
0xf8,
0x0a,
0x03,
0x2d,
0xf7,
0x05,
0x0a,
0xf6,
0x1a,
0xfa,
0x16,
0xfb,
0x11,
0xf8,
0xfb,
0x09,
0x0b,
0xf3,
0xf7,
0x0a,
0xf7,
0xf1,
0xf4,
0xfc,
0xf2,
0x16,
0xf7,
0x02,
0xfa,
0xe5,
0x0e,
0x03,
0xfc,
0xec,
0x02,
0x03,
0xff,
0x04,
0xf9,
0xff,
0xf1,
0x10,
0xfb,
0x0b,
0x06,
0x00,
0xf5,
0xfd,
0xe9,
0x0c,
0xe9,
0x09,
0x1f,
0xf7,
0x11,
0xf9,
0x14,
0xed,
0x0d,
0xe8,
0xfa,
0x0c,
0xf1,
0x08,
0x08,
0x11,
0x01,
0x0a,
0x01,
0x0f,
0x16,
0xfa,
0x0d,
0x01,
0xfc,
0x00,
0xa4,
0x1e,
0x0b,
0xf8,
0x0d,
0xf6,
0x0b,
0x09,
0xf7,
0x06,
0x06,
0x10,
0xf8,
0x0f,
0x0d,
0x05,
0xeb,
0xe3,
0xe2,
0x10,
0xfd,
0xf7,
0xf8,
0x00,
0xf1,
0x03,
0x12,
0xfb,
0xee,
0xd7,
0xf8,
0xf2,
0xef,
0xfa,
0xe4,
0xf9,
0x07,
0xf2,
0x01,
0xe3,
0x03,
0x05,
0x00,
0x1e,
0x14,
0xf0,
0xff,
0xf3,
0x00,
0xe6,
0x09,
0x01,
0x0d,
0x16,
0x09,
0xe7,
0x01,
0xda,
0xe9,
0xf8,
0x0c,
0x0e,
0xff,
0xf8,
0x0c,
0xeb,
0x06,
0x1c,
0xf2,
0xfb,
0x0a,
0xfc,
0x0d,
0xd6,
0xe3,
0x07,
0xe7,
0x0b,
0xef,
0x00,
0x1a,
0xf1,
0xed,
0xdf,
0xf8,
0xcf,
0x10,
0xee,
0x04,
0x07,
0xdf,
0x1c,
0x0c,
0x00,
0xf6,
0xf5,
0x02,
0xfd,
0xd9,
0xfd,
0x0b,
0xf5,
0x06,
0xf4,
0x07,
0xf9,
0xe1,
0x19,
0x0a,
0x18,
0xfc,
0x0f,
0x12,
0x03,
0xe5,
0xfa,
0x11,
0x0a,
0xff,
0x0e,
0xff,
0x01,
0xed,
0xea,
0x19,
0x07,
0xfa,
0x13,
0x02,
0x07,
0xf1,
0xf4,
0xd1,
0xfe,
0x01,
0xe9,
0x06,
0xf6,
0xf0,
0x14,
0xf8,
0xfa,
0x00,
0xff,
0x14,
0x04,
0xf6,
0xe9,
0x01,
0x0e,
0xfb,
0x03,
0xf7,
0xff,
0x23,
0x09,
0xfb,
0xf6,
0x04,
0x07,
0xfc,
0xf8,
0x06,
0x0d,
0xf4,
0x13,
0xfd,
0x09,
0x15,
0x05,
0x08,
0xe1,
0xfd,
0x14,
0x1c,
0xef,
0xff,
0x0c,
0x05,
0x05,
0xf7,
0x1d,
0x1b,
0xe3,
0x26,
0x17,
0xf5,
0x0c,
0x00,
0xf6,
0xfe,
0xe7,
0x0a,
0x1e,
0x00,
0xf4,
0xfd,
0xea,
0xf9,
0xf7,
0x0a,
0xff,
0xe8,
0x09,
0x02,
0xfc,
0x00,
0x04,
0xfe,
0xe9,
0x19,
0xe1,
0xeb,
0xe3,
0x0e,
0x07,
0x09,
0x2b,
0xfb,
0x08,
0x01,
0xf5,
0xef,
0x04,
0xf6,
0x0a,
0xee,
0xf4,
0xff,
0x04,
0xfd,
0x0c,
0xeb,
0x01,
0xeb,
0x0d,
0xfb,
0x05,
0xfd,
0x13,
0x00,
0xfa,
0x0b,
0x09,
0xf0,
0xec,
0xff,
0xd9,
0x00,
0xf9,
0xd7,
0x06,
0x00,
0x18,
0x10,
0x07,
0xfe,
0xff,
0xff,
0x19,
0x10,
0x06,
0x26,
0xf5,
0xe4,
0x24,
0x07,
0x01,
0xf6,
0xf7,
0x01,
0x1b,
0xe2,
0x04,
0xfd,
0x00,
0x03,
0x13,
0xfb,
0xec,
0xfb,
0x1c,
0xf3,
0xf9,
0x2d,
0xfb,
0x03,
0xff,
0x0b,
0x00,
0xf6,
0x0b,
0x20,
0x16,
0x10,
0xff,
0xff,
0x09,
0xe9,
0xf5,
0x12,
0x1a,
0xf5,
0x02,
0xf9,
0xfc,
0xf6,
0x03,
0x05,
0xf9,
0xf3,
0x02,
0xda,
0xf0,
0xe7,
0xfa,
0xe4,
0x02,
0x0d,
0x19,
0x01,
0xfc,
0x17,
0x0c,
0xfe,
0xf5,
0xed,
0xe9,
0xe8,
0xe7,
0xd8,
0x05,
0x05,
0x2a,
0x01,
0xec,
0x0d,
0xfb,
0x10,
0x02,
0x00,
0xed,
0x1f,
0xff,
0xeb,
0xeb,
0xe5,
0xec,
0xff,
0x0e,
0xeb,
0xf9,
0xd2,
0x01,
0x0f,
0xde,
0x08,
0xf9,
0xfc,
0xe0,
0xe4,
0x03,
0xe7,
0xf0,
0xfd,
0x34,
0xf9,
0x02,
0x15,
0xfe,
0x11,
0x19,
0xf6,
0x0a,
0x06,
0x1e,
0xfb,
0xfd,
0xde,
0x04,
0xed,
0x0d,
0x0c,
0x0c,
0x1c,
0x00,
0xeb,
0xfd,
0xe0,
0xf1,
0x04,
0x07,
0x19,
0xfa,
0xe9,
0x0f,
0x13,
0x07,
0xf6,
0xf1,
0xfc,
0xf6,
0x14,
0xe9,
0x13,
0xf3,
0x18,
0xd7,
0xdd,
0x0d,
0xe0,
0xea,
0xfb,
0xfc,
0x22,
0x00,
0x14,
0xfc,
0x3b,
0x01,
0x09,
0xd3,
0xf7,
0xd9,
0x0e,
0xf6,
0xed,
0xec,
0x03,
0xf9,
0xec,
0x03,
0x03,
0x07,
0xe0,
0xfd,
0x14,
0xf5,
0xe7,
0xfb,
0xfd,
0x07,
0x12,
0x0c,
0xfe,
0x0a,
0x0e,
0xfe,
0x02,
0x12,
0xeb,
0xf0,
0x21,
0xd6,
0x03,
0xfd,
0xf9,
0x06,
0x1d,
0xfa,
0x14,
0xd9,
0x11,
0xf1,
0x00,
0x05,
0xf9,
0xfc,
0x10,
0x04,
0xfc,
0x10,
0xfd,
0x21,
0x17,
0x0b,
0xff,
0xe0,
0xf9,
0x06,
0xf1,
0xf7,
0x02,
0x11,
0x14,
0xf4,
0x0d,
0x08,
0x00,
0xfa,
0xf9,
0xf0,
0xe7,
0x05,
0x09,
0x13,
0x0a,
0xfd,
0xf9,
0xf4,
0x9f,
0x02,
0x03,
0x0b,
0x30,
0x2a,
0x06,
0xfc,
0x06,
0x02,
0xf8,
0xfc,
0xee,
0x2a,
0x06,
0x0c,
0x1f,
0x0a,
0x0f,
0xfd,
0xa1,
0xf3,
0xfb,
0xf0,
0xff,
0x04,
0xfb,
0x02,
0x1c,
0xa1,
0x06,
0x02,
0x0e,
0xf7,
0xeb,
0xf8,
0x04,
0xf8,
0x2a,
0x04,
0xfe,
0x03,
0xf9,
0xfb,
0xf8,
0x0c,
0xe6,
0xfb,
0x0f,
0x05,
0x0d,
0xee,
0x25,
0x00,
0x05,
0xe8,
0xe1,
0x16,
0x0b,
0x00,
0x0c,
0xf4,
0xf8,
0xd5,
0x0e,
0xfe,
0x02,
0x03,
0x09,
0xee,
0xf9,
0xe7,
0x02,
0x03,
0x00,
0xfa,
0x0d,
0x0c,
0x08,
0x17,
0xf1,
0xfd,
0xfa,
0x00,
0xd8,
0x15,
0xec,
0x11,
0x13,
0xf6,
0x02,
0x04,
0xfa,
0xf2,
0x05,
0x0f,
0xf8,
0xfe,
0xfb,
0x0b,
0xed,
0x0c,
0x14,
0xeb,
0xf7,
0xf0,
0xef,
0x05,
0xf9,
0xf2,
0x0a,
0xf7,
0x04,
0xf0,
0xff,
0xf8,
0xf6,
0x08,
0xfd,
0xfd,
0x16,
0xfb,
0xfe,
0xe3,
0x0d,
0xf9,
0x1c,
0xf2,
0xfd,
0xe7,
0x19,
0xeb,
0xea,
0xcc,
0xe1,
0x0e,
0x17,
0x13,
0xec,
0xe4,
0xed,
0xfe,
0x16,
0x1a,
0xe6,
0xf0,
0xfe,
0xf8,
0x19,
0x04,
0x13,
0x1e,
0x05,
0x05,
0xf2,
0xeb,
0xf0,
0xd6,
0xe9,
0xed,
0x0f,
0x13,
0xef,
0xf7,
0x01,
0x17,
0xdb,
0xec,
0xed,
0xf0,
0xd6,
0x03,
0x07,
0x0b,
0xef,
0xf3,
0x03,
0xf7,
0x12,
0x11,
0x10,
0x05,
0x14,
0x07,
0xe9,
0xff,
0xf8,
0x05,
0xe3,
0x07,
0x04,
0x11,
0x05,
0x05,
0xf6,
0x02,
0x0b,
0xfb,
0xdd,
0xe8,
0xf6,
0x02,
0x16,
0x0c,
0xe2,
0x03,
0x00,
0x41,
0xed,
0x02,
0xfa,
0xfe,
0xd8,
0xf0,
0xf2,
0xe7,
0xfa,
0x08,
0x12,
0xf8,
0xf1,
0xea,
0xeb,
0xdc,
0x08,
0x09,
0x05,
0xfa,
0x0b,
0xe5,
0x0b,
0x25,
0xe9,
0x0c,
0xfd,
0x23,
0x51,
0x1e,
0x0e,
0xd7,
0xf7,
0x0f,
0x0a,
0xf8,
0x1a,
0x15,
0x0e,
0x01,
0xf3,
0xee,
0x18,
0xfa,
0x02,
0xd7,
0x05,
0xf7,
0xf1,
0x0a,
0xfd,
0x05,
0xf3,
0x11,
0xff,
0xf3,
0xec,
0x09,
0x04,
0x17,
0x06,
0x03,
0xfc,
0x1a,
0xf2,
0x00,
0x05,
0xeb,
0xf1,
0xf0,
0xff,
0x12,
0x00,
0xf1,
0x14,
0x3d,
0xe8,
0xf4,
0x1f,
0x2c,
0xfd,
0xfd,
0x01,
0xfc,
0x19,
0x04,
0xf1,
0x30,
0x00,
0x08,
0xee,
0xfb,
0x42,
0xf3,
0x0c,
0x14,
0xf2,
0x19,
0xf1,
0x05,
0x09,
0xec,
0x02,
0xfe,
0xed,
0xeb,
0x00,
0xfa,
0xfe,
0x01,
0xdc,
0xef,
0xf4,
0xf5,
0xf9,
0xfa,
0xf4,
0xda,
0xf5,
0xfa,
0xfb,
0xf0,
0xf8,
0xe9,
0xe9,
0x2c,
0x0e,
0xfb,
0xf1,
0xfe,
0xf1,
0x10,
0xfd,
0xec,
0xe2,
0x02,
0xf5,
0x04,
0x18,
0xee,
0xc7,
0x06,
0x15,
0xfc,
0xfb,
0xfd,
0xfc,
0x0a,
0x01,
0xea,
0x01,
0x0b,
0xfe,
0xec,
0x24,
0x01,
0xff,
0xfb,
0xec,
0x06,
0x09,
0x13,
0xef,
0x11,
0x0e,
0xcb,
0xee,
0xf4,
0xfc,
0xf1,
0xff,
0x07,
0xf5,
0x08,
0x2e,
0xea,
0x08,
0xf4,
0xf7,
0xf2,
0xf1,
0x07,
0x26,
0x15,
0x01,
0xe7,
0xed,
0xef,
0xf1,
0xf3,
0x13,
0xe8,
0xff,
0xf9,
0x11,
0x16,
0x1c,
0xea,
0x0b,
0x06,
0xe1,
0x09,
0x13,
0xf0,
0xdc,
0x03,
0xd7,
0xde,
0x1b,
0xf7,
0x03,
0xe5,
0x1a,
0xe8,
0xc8,
0xeb,
0xfc,
0x01,
0xe2,
0xd5,
0x0d,
0xf4,
0x07,
0x0d,
0xf4,
0xd1,
0x06,
0xfc,
0x1f,
0xec,
0xc6,
0xe9,
0xc5,
0x3f,
0x0f,
0x0d,
0x2d,
0x31,
0x0c,
0x36,
0x12,
0x02,
0xf9,
0x23,
0x1f,
0x03,
0x53,
0x1a,
0x15,
0xea,
0x2b,
0x39,
0xbf,
0x60,
0xd7,
0xfb};
