/* SPDX-License-Identifier: GPL-2.0 */
/*
 * Copyright (c) 2022 MediaTek Inc.
 *
 * Author: Ming-Hsuan Chiang <ming-hsuan.chiang@mediatek.com>
 *
 */

char fdvt_kernel_bias_loop29_1_frame01_7sp[] = {
0xd0,
0xe6,
0x08,
0x02,
0x09,
0x01,
0xd2,
0xf7,
0x01,
0xf1,
0x0e,
0x0a,
0x17,
0xee,
0x24,
0x2e,
0xd1,
0x8e,
0xdf,
0x20,
0x0b,
0x26,
0xff,
0xfd,
0x00,
0xff,
0xfb,
0xfd,
0xfe,
0xfb,
0xfd,
0x0e,
0x25,
0xe3,
0xcb,
0xe8,
0xfe,
0x02,
0x0a,
0x25,
0x2b,
0x23,
0x0b,
0x1d,
0x32,
0xee,
0x01,
0x1a,
0x1a,
0xe2,
0xf5,
0x04,
0xc1,
0xf0,
0x11,
0x44,
0xef,
0xe8,
0x07,
0xf1,
0xeb,
0xf1,
0xf7,
0xf3,
0x19,
0xea,
0xe1,
0x1d,
0xeb,
0xe3,
0x22,
0x02,
0x00,
0x23,
0x09,
0x15,
0x09,
0xfb,
0x00,
0xf0,
0xf1,
0xd6,
0xe2,
0xf8,
0x12,
0x24,
0x1c,
0x12,
0x21,
0x24,
0x14,
0x19,
0x1e,
0x24,
0x05,
0x37,
0x03,
0x00,
0x01,
0x0d,
0x09,
0xfd,
0x05,
0x04,
0xd7,
0xfa,
0x12,
0xe2,
0xff,
0x1e,
0xf0,
0x10,
0xe0,
0xe5,
0xff,
0x0a,
0xf7,
0x02,
0x01,
0xed,
0xf7,
0x11,
0x0f,
0x0d,
0x0d,
0x22,
0xf7,
0x14,
0x00,
0x04,
0x0b,
0x0a,
0x03,
0x0c,
0xff,
0x00,
0x00,
0xea,
0x07,
0xfd,
0xd9,
0xf3,
0x04,
0xf4,
0xe4,
0xf2,
0xf9,
0xff,
0xfd,
0x08,
0xfd,
0x02,
0xff,
0xfa,
0x02,
0x12,
0x04,
0x12,
0x0c,
0x01,
0xfe,
0xc9,
0xfa,
0x1e,
0x1a,
0x13,
0xff,
0x05,
0x03,
0x02,
0x0c,
0x0a,
0xfd,
0x01,
0xff,
0xf9,
0x04,
0x04,
0xe1,
0xfd,
0x00,
0xfa,
0x06,
0xfd,
0x05,
0x0d,
0xf6,
0xfc,
0x0c,
0xff,
0x03,
0x10,
0x0a,
0xe2,
0x10,
0x12,
0xee,
0xfd,
0xff,
0x2c,
0x02,
0xf8,
0x0e,
0xf6,
0xe3,
0xf3,
0xff,
0x09,
0x00,
0x00,
0x00,
0x00,
0x00,
0x00,
0x00,
0x00,
0x00,
0x00,
0x00,
0x00,
0x00,
0x00,
0x00,
0x00,
0x00,
0x00,
0x00,
0x00,
0x00,
0x00,
0x00,
0x00,
0x00,
0x00,
0x00,
0x00,
0x00,
0x00,
0x00,
0x00};
