/* SPDX-License-Identifier: GPL-2.0 */
/*
 * Copyright (c) 2022 MediaTek Inc.
 *
 * Author: Ming-Hsuan Chiang <ming-hsuan.chiang@mediatek.com>
 *
 */

char fdvt_kernel_bias_loop49_1_frame01_7sp[] = {
0x0a,
0x02,
0x01,
0x01,
0x04,
0x02,
0xfa,
0xfb,
0x0a,
0xfb,
0x06,
0x04,
0x02,
0xfd,
0x03,
0x00,
0xf6,
0xfe,
0xfa,
0xfe,
0xfd,
0xfb,
0xf7,
0xfd,
0xf4,
0xff,
0xf8,
0xfd,
0xfb,
0xfe,
0xf5,
0xfc,
0x03,
0x04,
0xe9,
0x1f,
0x03,
0x04,
0xea,
0x1f,
0x02,
0x00,
0xe8,
0x1f,
0x02,
0x00,
0xe9,
0x1f,
0x1b,
0x02,
0xf8,
0xf9,
0x04,
0xfd,
0xf8,
0xf8,
0x14,
0x04,
0xf4,
0xf5,
0xfb,
0xfe,
0xf3,
0xf6,
0xfe,
0xfc,
0x03,
0x03,
0x04,
0xfc,
0x06,
0x05,
0xfd,
0x03,
0x09,
0x06,
0x0a,
0x07,
0x0c,
0x08,
0x05,
0x01,
0x06,
0x03,
0x03,
0x03,
0x02,
0x02,
0x03,
0x02,
0x05,
0x03,
0x04,
0x00,
0x01,
0x02,
0xfd,
0xfe,
0x51,
0x24,
0x11,
0xfc,
0x50,
0x24,
0xf8,
0x04,
0x5a,
0x28,
0x0c,
0x00,
0x5a,
0x28,
0x05,
0x03,
0x0a,
0x08,
0x01,
0x04,
0x0c,
0x0a,
0x04,
0x02,
0x0d,
0x0a,
0x02,
0x04,
0x0f,
0x0c,
0x09,
0xff,
0xfd,
0xfd,
0x12,
0xfe,
0x09,
0x04,
0x06,
0xf9,
0xff,
0xfe,
0x10,
0xf9,
0x09,
0x04,
0x01,
0xff,
0x02,
0x04,
0x02,
0xff,
0x05,
0x03,
0x00,
0x02,
0x04,
0x05,
0x00,
0x00,
0x06,
0x04,
0x00,
0x01,
0xff,
0xff,
0x00,
0x01,
0xff,
0x01,
0xfe,
0xff,
0xfd,
0xfe,
0x01,
0x00,
0xfe,
0x00,
0xfc,
0x07,
0xfb,
0xfe,
0x04,
0x04,
0xfe,
0xfe,
0xfd,
0x01,
0xf9,
0xfe,
0x04,
0x01,
0xfe,
0xfe,
0x01,
0x04,
0x03,
0x0b,
0x01,
0x05,
0x04,
0x0b,
0x02,
0x08,
0x05,
0x0b,
0xff,
0x07,
0x05,
0x0a,
0x07,
0xf6,
0x00,
0x01,
0xf4,
0xfa,
0xfd,
0xff,
0x07,
0xf7,
0x05,
0x04,
0xf8,
0xf7,
0x01,
0x02,
0x03,
0x00,
0x00,
0x11,
0x03,
0xfe,
0x04,
0x14,
0x02,
0x01,
0x00,
0x11,
0x05,
0x04,
0x04,
0x14,
0x01,
0xfe,
0xf6,
0xff,
0xf4,
0xfe,
0x02,
0x08,
0x00,
0xfd,
0xf5,
0xff,
0xf6,
0xfe,
0x04,
0x08,
0x06,
0x06,
0xe2,
0xea,
0xf4,
0x06,
0xe4,
0xeb,
0x08,
0xf9,
0xe5,
0xea,
0xf6,
0xfa,
0xe4,
0xea,
0x06,
0x04,
0xf1,
0xf5,
0xff,
0x00,
0xf4,
0xf7,
0x00,
0x06,
0xf5,
0xf7,
0x00,
0x05,
0xf9,
0xf9,
0x00,
0xfe,
0x0f,
0x0b,
0x04,
0xfe,
0x08,
0x07,
0x01,
0x02,
0x0f,
0x0a,
0x03,
0x00,
0x07,
0x06,
0xf1,
0xf2,
0xe6,
0xef,
0x13,
0xf4,
0xef,
0xf2,
0xf4,
0xfa,
0xe1,
0xed,
0x17,
0xfe,
0xec,
0xf1,
0xf8,
0x02,
0x0a,
0x0d,
0x03,
0x03,
0x0f,
0x0f,
0xf6,
0x01,
0x0c,
0x0c,
0x04,
0x00,
0x10,
0x0e,
0x00,
0xfc,
0x21,
0x11,
0xf9,
0xfc,
0x1e,
0x0f,
0x02,
0xff,
0x28,
0x15,
0xfa,
0x00,
0x23,
0x13,
0xff,
0x22,
0xf7,
0xfc,
0xf7,
0x2c,
0xef,
0xf7,
0x08,
0x25,
0xf4,
0xf9,
0xf9,
0x26,
0xeb,
0xf4,
0xfe,
0x04,
0xf5,
0x02,
0xfa,
0x04,
0xf2,
0x00,
0x04,
0xfc,
0xea,
0xfc,
0xf9,
0xff,
0xe6,
0xfa,
0x04,
0x17,
0x0d,
0x28,
0x02,
0x17,
0x0e,
0x27,
0x06,
0x1b,
0x0c,
0x26,
0x03,
0x1c,
0x0c,
0x25,
0x03,
0x06,
0x02,
0xff,
0x09,
0xf9,
0xfe,
0xff,
0xfa,
0x06,
0x00,
0xfd,
0xfe,
0xf9,
0x00,
0xff,
0xff,
0xfd,
0xfa,
0xfb,
0x01,
0xfe,
0xfd,
0xfe,
0x00,
0xfe,
0xfc,
0xfd,
0x04,
0x00,
0x00,
0xff,
0x04,
0xff,
0x0a,
0xf1,
0x03,
0xfe,
0x0d,
0xf1,
0x02,
0x05,
0x0d,
0xf3,
0x02,
0x04,
0x0f,
0xf3,
0xe4,
0x07,
0x2b,
0x1a,
0xe6,
0x09,
0x21,
0x10,
0xe4,
0x01,
0x2a,
0x19,
0xe4,
0x00,
0x21,
0x0f,
0x04,
0xea,
0x37,
0x0e,
0x09,
0xec,
0x34,
0x0c,
0x06,
0xf4,
0x2e,
0x08,
0x0a,
0xf7,
0x2f,
0x08,
0xfe,
0xfd,
0x0c,
0xf3,
0xfc,
0xfd,
0x0a,
0xf2,
0xfe,
0x03,
0x0d,
0xf3,
0xfd,
0x02,
0x0b,
0xf3,
0xfb,
0x03,
0x0c,
0x06,
0x01,
0x05,
0xff,
0x00,
0xff,
0xfe,
0x0b,
0x05,
0x03,
0x03,
0xfa,
0xfe,
0x09,
0xfd,
0xf6,
0xf6,
0x01,
0xfc,
0xf1,
0xee,
0x09,
0xf8,
0xf9,
0xf9,
0x01,
0xf7,
0xf5,
0xf3,
0xf9,
0xfe,
0x00,
0x02,
0x00,
0xfc,
0xfd,
0xff,
0xf8,
0xfd,
0xfe,
0x00,
0xfd,
0xfc,
0xfc,
0xfe,
0x02,
0x06,
0xed,
0x20,
0x00,
0x06,
0xee,
0x21,
0x00,
0x01,
0xed,
0x1f,
0x01,
0x00,
0xed,
0x21,
0x17,
0x00,
0xfc,
0xf9,
0x03,
0xfa,
0xfd,
0xf9,
0x10,
0x03,
0xf8,
0xf4,
0xff,
0xfc,
0xf8,
0xf4,
0xfd,
0xfb,
0x00,
0x03,
0x03,
0xfc,
0x03,
0x06,
0xfd,
0x04,
0x02,
0x06,
0x08,
0x07,
0x05,
0x0a,
0x00,
0x04,
0x03,
0x04,
0x04,
0x06,
0x00,
0x02,
0xfe,
0xff,
0x01,
0x03,
0x03,
0xff,
0xff,
0x02,
0xf9,
0xfe,
0x32,
0x2b,
0x0d,
0xfc,
0x31,
0x2c,
0xf8,
0x04,
0x34,
0x2d,
0x0a,
0x02,
0x33,
0x2e,
0x01,
0x04,
0x0b,
0x10,
0x00,
0x04,
0x0d,
0x13,
0x02,
0x02,
0x0c,
0x12,
0x01,
0x04,
0x0e,
0x14,
0x0a,
0xff,
0x08,
0x07,
0x07,
0x00,
0x04,
0x05,
0x07,
0xfe,
0x0a,
0x0a,
0x07,
0xfd,
0x05,
0x06,
0x00,
0x01,
0x01,
0x06,
0x03,
0x00,
0x04,
0x06,
0x00,
0x02,
0x03,
0x08,
0x01,
0x01,
0x05,
0x08,
0x00,
0x01,
0x00,
0x00,
0x00,
0x00,
0x01,
0x01,
0xff,
0xff,
0x00,
0x00,
0x00,
0xff,
0x00,
0x01,
0xff,
0x07,
0xfe,
0xfc,
0x03,
0x05,
0xff,
0xfd,
0x02,
0x02,
0xfb,
0xfa,
0x01,
0x02,
0xfd,
0xfc,
0x03,
0x09,
0x06,
0x13,
0x01,
0x0a,
0x07,
0x13,
0x03,
0x09,
0x06,
0x11,
0xff,
0x09,
0x05,
0x10,
0x03,
0xf9,
0x01,
0x01,
0xfd,
0xfe,
0x00,
0x00,
0x06,
0x04,
0x09,
0x0c,
0x05,
0x05,
0x09,
0x0c,
0x00,
0x00,
0x03,
0x1d,
0x02,
0xfe,
0x04,
0x21,
0x00,
0x02,
0x03,
0x1b,
0x04,
0x04,
0x03,
0x1f,
0x02,
0xfd,
0xf7,
0xfd,
0xf3,
0xfe,
0x05,
0x0c,
0x01,
0xfc,
0xf7,
0xff,
0xf6,
0xfe,
0x07,
0x0e,
0xfe,
0x07,
0xec,
0xe1,
0xf7,
0x0a,
0xeb,
0xde,
0x02,
0xfa,
0xeb,
0xdd,
0xfb,
0xfc,
0xea,
0xdb,
0xff,
0x05,
0x03,
0xf8,
0x01,
0x01,
0x03,
0xfa,
0xfc,
0x0e,
0x07,
0xfb,
0x01,
0x0d,
0x07,
0xfd,
0xff,
0xff,
0x08,
0x0e,
0x03,
0xfe,
0x04,
0x0a,
0xff,
0x01,
0x0a,
0x0f,
0x02,
0x00,
0x05,
0x0b,
0xf7,
0xed,
0xf0,
0xe8,
0x0d,
0xee,
0xf3,
0xea,
0xf6,
0xfa,
0xee,
0xe8,
0x14,
0xfe,
0xf2,
0xea,
0xfd,
0x01,
0x0c,
0x15,
0x00,
0x03,
0x0d,
0x12,
0xfb,
0x01,
0x0a,
0x10,
0x00,
0x00,
0x0c,
0x0f,
0xff,
0xfe,
0x1a,
0x1c,
0xfc,
0xfe,
0x18,
0x1b,
0x00,
0xff,
0x1c,
0x20,
0xfd,
0xff,
0x19,
0x1e,
0x00,
0x1e,
0x07,
0x0b,
0xff,
0x28,
0x04,
0x07,
0x09,
0x29,
0x00,
0x01,
0xfd,
0x2c,
0xfc,
0xfc,
0x01,
0x03,
0x0a,
0x17,
0xfc,
0x03,
0x0a,
0x19,
0x02,
0xf3,
0x00,
0x0b,
0xf8,
0xf5,
0x01,
0x0c,
0x04,
0x29,
0x15,
0x41,
0x02,
0x2a,
0x16,
0x42,
0x04,
0x2e,
0x14,
0x41,
0x03,
0x2f,
0x16,
0x42,
0x04,
0x03,
0x00,
0xfe,
0x08,
0xf8,
0xfe,
0xfc,
0xf9,
0x05,
0xff,
0xfb,
0xfa,
0xfc,
0x01,
0xff,
0x00,
0xfc,
0xff,
0xfb,
0xff,
0xfc,
0x01,
0xfe,
0x02,
0xfe,
0x01,
0xfe,
0x00,
0x00,
0x03,
0x00,
0x04,
0x00,
0x06,
0xee,
0x02,
0xff,
0x08,
0xed,
0x02,
0x05,
0x07,
0xee,
0x01,
0x05,
0x08,
0xef,
0xf0,
0x09,
0x12,
0x18,
0xf4,
0x09,
0x0b,
0x09,
0xf0,
0x00,
0x12,
0x16,
0xf3,
0x01,
0x0c,
0x08,
0x04,
0xe3,
0x2c,
0x1e,
0x04,
0xe5,
0x2e,
0x1e,
0x05,
0xef,
0x27,
0x17,
0x07,
0xf0,
0x2a,
0x19,
0xff,
0xfd,
0x07,
0xee,
0xfc,
0xfc,
0x06,
0xed,
0xfe,
0x04,
0x07,
0xee,
0xfd,
0x04,
0x07,
0xee,
0xfc,
0x05,
0x03,
0x03,
0xf9,
0x08,
0xfe,
0x02,
0xff,
0xfb,
0x02,
0x02,
0xfa,
0xfe,
0xfb,
0xfd,
0x04,
0x06,
0x2c,
0x42,
0xfc,
0x06,
0x2c,
0x43,
0x03,
0xfe,
0x2c,
0x43,
0xfc,
0xfe,
0x2b,
0x43};
