/* SPDX-License-Identifier: GPL-2.0 */
/*
 * Copyright (c) 2022 MediaTek Inc.
 *
 * Author: Ming-Hsuan Chiang <ming-hsuan.chiang@mediatek.com>
 *
 */

char fdvt_kernel_bias_loop63_1_frame01_7sp[] = {
0xfd,
0xff,
0xe2,
0x02,
0xed,
0xe8,
0xf6,
0x02,
0x11,
0xfe,
0xe5,
0x05,
0xe9,
0xfa,
0xff,
0x1b,
0x19,
0x08,
0xed,
0xe8,
0x05,
0xeb,
0x02,
0xfd,
0x00,
0x04,
0x08,
0xf8,
0xfa,
0x04,
0x06,
0x19,
0xfb,
0x07,
0xfd,
0x00,
0xf0,
0x04,
0xf7,
0xfa,
0xef,
0xed,
0xfe,
0xf8,
0xf8,
0xfe,
0xfa,
0xfd,
0xe0,
0x14,
0x25,
0x03,
0x07,
0xf8,
0x0f,
0xfb,
0x06,
0x20,
0x01,
0xe4,
0xee,
0x10,
0xf3,
0xdb,
0x06,
0x08,
0xf7,
0x07,
0xfc,
0xf9,
0xf1,
0xf8,
0x0c,
0x01,
0xfb,
0xfa,
0xf1,
0x03,
0xd5,
0xfe,
0xff,
0x13,
0xf2,
0xfe,
0x0a,
0x07,
0xf6,
0x04,
0xee,
0xdf,
0xf7,
0xff,
0xf7,
0xf5,
0xfb,
0x00,
0xfb,
0x16,
0xfb,
0xf2,
0xfb,
0x13,
0x13,
0x07,
0xf3,
0x0b,
0x12,
0x08,
0x09,
0xee,
0x0d,
0x05,
0x09,
0x05,
0xf9,
0x16,
0xfc,
0xed,
0xe9,
0x16,
0xf7,
0x14,
0x05,
0x15,
0x05,
0x04,
0x06,
0x07,
0x0d,
0xf4,
0xd3,
0xfc,
0x01,
0x27,
0x15,
0xfc,
0xec,
0x16,
0xfc,
0x1e,
0xfd,
0xe7,
0x00,
0x08,
0xf2,
0x00,
0xea,
0xe2,
0x08,
0x09,
0x04,
0x0b,
0x17,
0xf4,
0xea,
0x0e,
0x0b,
0x21,
0xec,
0x17,
0x2f,
0x03,
0x11,
0xd9,
0x0d,
0x16,
0x02,
0xfe,
0xef,
0xe5,
0xfa,
0x05,
0xec,
0xe0,
0x1a,
0x02,
0xda,
0xff,
0x09,
0x04,
0x00,
0x0f,
0x03,
0xfd,
0xe6,
0x09,
0xea,
0x10,
0x0f,
0x11,
0x08,
0x05,
0xfe,
0xfc,
0xec,
0xef,
0x03,
0x13,
0xec,
0xf7,
0xfc,
0x01,
0x13,
0xf0,
0x21,
0xff,
0xf7,
0xee,
0x05,
0xf4,
0xe9,
0x03,
0xf7,
0x1f,
0xf1,
0x07,
0x04,
0xee,
0x0d,
0xf0,
0xed,
0x05,
0xe1,
0x06,
0xe2,
0xfd,
0xf9,
0xe4,
0x0f,
0xfc,
0x17,
0x03,
0x07,
0x12,
0xe9,
0x10,
0xf8,
0xe4,
0xef,
0x06,
0x0c,
0x00,
0xfe,
0xfd,
0xf9,
0x1b,
0xff,
0x0a,
0xfb,
0xf4,
0xf6,
0xd6,
0x0f,
0xfd,
0x0c,
0xf6,
0xf1,
0x07,
0xfd,
0xed,
0xfc,
0xe9,
0xfa,
0x0f,
0xdd,
0xfd,
0xe8,
0x05,
0xff,
0x1e,
0xe5,
0xe8,
0x16,
0xf1,
0x0e,
0xdc,
0x04,
0x0a,
0x23,
0xef,
0xb2,
0xd6,
0xd0,
0x08,
0xea,
0xf0,
0x03,
0x19,
0xfd,
0x0f,
0xfa,
0xfd,
0x16,
0xfe,
0x17,
0x05,
0x0d,
0xd6,
0xed,
0xee,
0x12,
0xe3,
0x0f,
0xe9,
0xfc,
0xf1,
0xf6,
0x02,
0xf5,
0x05,
0xe0,
0x07,
0xff,
0xf8,
0xdd,
0x05,
0xea,
0xfb,
0x15,
0x07,
0x2b,
0xff,
0xf6,
0x1c,
0xfd,
0x13,
0xfb,
0x07,
0x18,
0x00,
0x05,
0xf7,
0x07,
0xe2,
0x0a,
0xec,
0xff,
0x03,
0x0f,
0xf5,
0xf9,
0x18,
0x03,
0xff,
0x22,
0xfd,
0x0e,
0xd7,
0x17,
0x0a,
0xfd,
0xee,
0xf7,
0x03,
0x10,
0x0b,
0x01,
0xe6,
0xed,
0xfa,
0xfe,
0x0b,
0xee,
0x00,
0x12,
0xfc,
0xf9,
0xfb,
0xf5,
0x1c,
0x01,
0x11,
0x04,
0xf3,
0xfb,
0x07,
0x1c,
0xff,
0x0d,
0xe3,
0xf5,
0xea,
0x06,
0x13,
0xf8,
0xf2,
0x19,
0x10,
0x18,
0x04,
0x01,
0x00,
0xfe,
0xf6,
0xdc,
0x0d,
0x11,
0x15,
0xfd,
0xf6,
0x06,
0x04,
0xf8,
0xfb,
0xfa,
0xe3,
0xf7,
0x00,
0x2d,
0xe8,
0x0b,
0x12,
0x0b,
0xfa,
0x0b,
0xf5,
0x06,
0x07,
0xf8,
0xee,
0xf6,
0xf6,
0x1c,
0x03,
0x17,
0x22,
0xf1,
0xe2,
0x15,
0x00,
0x0d,
0xf0,
0x0a,
0x1d,
0xef,
0x08,
0xfd,
0x04,
0xee,
0x06,
0xf1,
0xf2,
0x06,
0xfb,
0x14,
0x06,
0x18,
0x12,
0xf1,
0x02,
0xf7,
0x12,
0xf0,
0x1b,
0xf8,
0x0b,
0x16,
0xc8,
0xf1,
0x1f,
0x07,
0x07,
0xfa,
0x0f,
0xed,
0x00,
0xf0,
0x03,
0xd2,
0xeb,
0x13,
0xff,
0xf2,
0x21,
0xfd,
0x1e,
0xf1,
0x04,
0xfe,
0xf5,
0x10,
0x1c,
0x10,
0x11,
0xfd,
0x12,
0x1b,
0x14,
0xe5,
0x0b,
0x2e,
0x04,
0xf6,
0x18,
0xfc,
0xea,
0xf0,
0xf6,
0xe0,
0x03,
0xe4,
0xe4,
0xe7,
0x05,
0xd1,
0x01,
0x11,
0xfa,
0x01,
0x0f,
0xeb,
0x05,
0x0f,
0x08,
0x02,
0x0e,
0xf0,
0x07,
0xeb,
0xee,
0xf1,
0xf3,
0xd8,
0xfc,
0xfa,
0x11,
0xfd,
0x21,
0x06,
0xfe,
0x02,
0xfa,
0xeb,
0x02,
0xdc,
0x05,
0xe0,
0xf3,
0xdf,
0x13,
0xea,
0x01,
0x0f,
0x1d,
0x11,
0xf6,
0xf7,
0xfb,
0xff,
0x0d,
0x0d,
0x02,
0xf5,
0xf9,
0xfe,
0xea,
0xf9,
0x04,
0x0f,
0xf8,
0x02,
0x01,
0xf6,
0xf8,
0x2e,
0xeb,
0xe8,
0x1a,
0xe3,
0xfa,
0xf8,
0xfc,
0x02,
0xff,
0xfc,
0xe2,
0xfb,
0x03,
0x00,
0x10,
0x09,
0x03,
0x17,
0x08,
0x15,
0xf8,
0xeb,
0xe6,
0xf0,
0x07,
0xfc,
0x00,
0x08,
0x00,
0xee,
0x04,
0x04,
0x0b,
0x0b,
0x05,
0x02,
0xfc,
0x00,
0xee,
0x0f,
0x00,
0x02,
0xf9,
0xf6,
0x11,
0xea,
0x01,
0xf9,
0xe6,
0xf3,
0x01,
0xf8,
0xe5,
0xff,
0xf4,
0x04,
0x0a,
0x18,
0x01,
0xe3,
0x13,
0x07,
0xe7,
0xfa,
0x04,
0x08,
0x06,
0xf7,
0xf4,
0x05,
0x04,
0x02,
0x13,
0xba,
0x09,
0xf4,
0xf9,
0x02,
0xe5,
0xd0,
0x1f,
0x26,
0x08,
0x20,
0xf6,
0x03,
0xe3,
0xfe,
0xe8,
0xf9,
0x3c,
0x1a,
0xdf,
0xe0,
0xcc,
0xed,
0xf1,
0x10,
0xf5,
0x01,
0x1c,
0x04,
0x00,
0x05,
0x01,
0x0b,
0x03,
0x15,
0xf3,
0xf5,
0x00,
0xc8,
0xdf,
0x1d,
0xdb,
0xd8,
0xe7,
0xfb,
0xff,
0x08,
0x02,
0x02,
0x49,
0x1a,
0xe5,
0xe4,
0xf1,
0x21,
0x03,
0x08,
0xfe,
0xfa,
0xe4,
0x03,
0xec,
0xee,
0xf3,
0xfb,
0xdf,
0xf3,
0x0b,
0x0a,
0xfb,
0x07,
0x01,
0x24,
0x06,
0x06,
0xf7,
0x00,
0x01,
0x01,
0xff,
0x02,
0x05,
0x05,
0x1b,
0x1e,
0x0f,
0x03,
0xdf,
0x0f,
0x14,
0xfc,
0x0d,
0x02,
0xf0,
0x0d,
0xfb,
0x0f,
0x09,
0x02,
0x0a,
0xfa,
0x01,
0xe1,
0xed,
0xf0,
0x10,
0xfa,
0xce,
0xf9,
0xf2,
0xfe,
0xfa,
0x07,
0x0a,
0x0d,
0xf5,
0x25,
0x00,
0xed,
0xfc,
0xf8,
0x1f,
0xee,
0x17,
0xfe,
0x09,
0xf0,
0xee,
0x02,
0xf3,
0x07,
0xda,
0xed,
0xe5,
0x0b,
0x00,
0x09,
0xf9,
0x01,
0xf0,
0x1e,
0xfe,
0x02,
0x0b,
0xff,
0xf4,
0x43,
0xd7,
0xcb,
0xe0,
0x1a,
0x9a,
0x16,
0x02,
0x0d,
0x08,
0xfa,
0xf8,
0x0a,
0xf6,
0x31,
0xc2,
0xe8,
0xfd,
0xe0,
0xe4,
0xf2,
0x19,
0xfa,
0xfb,
0xea,
0xef,
0x0d,
0x17,
0xef,
0xe6,
0xfb,
0x0a,
0xf3,
0x20,
0xf4,
0xff,
0x00,
0x24,
0xf8,
0xfb,
0xf2,
0xed,
0xf6,
0xf5,
0xe9,
0xf9,
0xfd,
0x04,
0xff,
0x10,
0xfe,
0xf7,
0xf1,
0x12,
0xf5,
0xef,
0xfd,
0xfd,
0x21,
0x00,
0xf0,
0xfa,
0x06,
0xff,
0xff,
0xfc,
0xf2,
0xe9,
0xe3,
0xef,
0xee,
0x30,
0xe5,
0x08,
0xff,
0x0f,
0xe1,
0x04,
0xfc,
0x04,
0x1a,
0xf9,
0xf2,
0xee,
0x03,
0xf8,
0x04,
0xe7,
0xf2,
0x11,
0x0e,
0xfd,
0xea,
0x02,
0x19,
0xef,
0x08,
0x12,
0x0a,
0xfa,
0xf4,
0xee,
0xf7,
0x16,
0xea,
0x00,
0xf1,
0xf6,
0x0c,
0xfe,
0x05,
0x13,
0x15,
0xff,
0x11,
0xdc,
0xf9,
0xfb,
0x1b,
0xf0,
0xf2,
0xed,
0xf8,
0xfd,
0x02,
0x00,
0x0d,
0xef,
0x09,
0xf6,
0xd3,
0xd7,
0xfd,
0x03,
0xfe,
0xf8,
0xfc,
0x19,
0xe8,
0xd9,
0x05,
0x21,
0xfb,
0xf9,
0xf7,
0xfe,
0xff,
0xf5,
0x08,
0xfc,
0xe7,
0xed,
0xf6,
0x00,
0x13,
0xf1,
0xc4,
0x04,
0xf6,
0xfd,
0xed,
0xef,
0xfd,
0x0f,
0x04,
0x12,
0x10,
0x0f,
0xf1,
0x01,
0xfa,
0x09,
0x12,
0xf7,
0xff,
0xf5,
0xf0,
0x09,
0x0e,
0x08,
0x22,
0x20,
0x12,
0x17,
0x16,
0x02,
0x08,
0xf1,
0x0e,
0xf7,
0x0b,
0x04,
0xf8,
0xe4,
0xf4,
0x1a,
0x06,
0xf0,
0xe6,
0xff,
0x0b,
0xf2,
0xe7,
0x1f,
0xfc,
0x02,
0xf6,
0x03,
0x1c,
0x13,
0x33,
0x14,
0x05,
0x0b,
0x08,
0xed,
0x0c,
0x19,
0xff,
0x03,
0x00,
0xe8,
0xf2,
0xf3,
0x17,
0xf4,
0x10,
0x1a,
0x02,
0xed,
0x00,
0xf8,
0xf3,
0x03,
0xdd,
0x04,
0xfa,
0x1b,
0x06,
0x09,
0xf4,
0xf6,
0xda,
0x07,
0xf5,
0x01,
0x0f,
0x00,
0x19,
0xff,
0xf8,
0x04,
0x0d,
0xfd,
0xec,
0x03,
0x0d,
0x07,
0x04,
0x02,
0xf1,
0x08,
0xfe,
0xfa,
0x12,
0xee,
0x0c,
0x11,
0x06,
0xe9,
0x1a,
0x17,
0x0c,
0x05,
0x10,
0xf3,
0xf7,
0x05,
0xe2,
0xef,
0x03,
0x0b,
0x0a,
0x04,
0x0e,
0xea,
0xf9,
0x08,
0x09,
0x00,
0xfd,
0xf4,
0x19,
0xe3,
0x00,
0xe8,
0xf8,
0x08,
0x0a,
0x04,
0x0f,
0xf7,
0xf6,
0xfe,
0xe2,
0xfc,
0xef,
0x01,
0x02,
0xfd,
0x04,
0x06,
0xeb,
0xf9,
0xf5,
0x06,
0x07,
0xec,
0xf9,
0xfc,
0x02,
0x0a,
0x00,
0xf6,
0x02,
0x0e,
0x00,
0x04,
0xdb,
0xf4,
0xf1,
0xfe,
0x13,
0xee,
0xf4,
0x05,
0xf1,
0xdb,
0x08,
0xf8,
0xef,
0xf7,
0xf6,
0x0b,
0x06,
0xf8,
0xf9,
0xf9,
0x1b,
0xe6,
0xe6,
0xe8,
0x0f,
0x0b,
0x32,
0xfc,
0xf3,
0x2a,
0x09,
0xe3,
0x05,
0x06,
0x00,
0xfe,
0x03,
0x02,
0x21,
0x90,
0x09,
0x03,
0x04,
0x08,
0xee,
0x1c,
0xf0,
0x15,
0xea,
0x12,
0xf1,
0xfc,
0xfb,
0xf1,
0x03,
0x01,
0xfe,
0xeb,
0x04,
0x21,
0x10,
0x00,
0xe8,
0x13,
0x2e,
0xfa,
0x04,
0xf8,
0x0a,
0x10,
0xfe,
0xfe,
0x14,
0x0f,
0x0c,
0x18,
0xe3,
0xdd,
0xfd,
0xf5,
0x01,
0xfc,
0xfe,
0x0f,
0x04,
0xfd,
0xfc,
0xe7,
0xfc,
0x02,
0xf4,
0xfc,
0x26,
0xed,
0xe8,
0xf8,
0x06,
0x0b,
0x02,
0x05,
0x06,
0xe5,
0xda,
0xf8,
0xf3,
0xf5,
0xed,
0x03,
0xf5,
0x19,
0x01,
0xfb,
0xf7,
0xdb,
0x03,
0x08,
0x0a,
0xfb,
0x21,
0xf5,
0xfa,
0xee,
0x0e,
0x02,
0xf6,
0x25,
0x06,
0x01,
0xf5,
0x02,
0x11,
0x04,
0x01,
0xf4,
0x0c,
0x02,
0xfb,
0x15,
0x0b,
0x02,
0x07,
0x07,
0xf1,
0xf6,
0x0e,
0xfe,
0xf2,
0xf5,
0xfc,
0xf4,
0xee,
0x07,
0x13,
0xfd,
0xf5,
0xe4,
0xef,
0xeb,
0x02,
0x03,
0x0a,
0x0d,
0x08,
0x04,
0x19,
0x06,
0x00,
0x0e,
0xfb,
0xec,
0x00,
0x1a,
0xff,
0xf4,
0xf3,
0x19,
0x14,
0x07,
0xf8,
0xeb,
0x1a,
0x01,
0x18,
0x00,
0xe6,
0xe6,
0xdb,
0x18,
0x3a,
0xf1,
0xf4,
0x06,
0xdf,
0xe3,
0x13,
0xff,
0x79,
0xee,
0xa1,
0x05,
0xde,
0x02,
0x0d,
0x06,
0x23,
0xe1,
0x00,
0xf6,
0x00,
0x14,
0x0d,
0xe5,
0x05,
0xfb,
0x06,
0xfd,
0xf7,
0x1b,
0xf3,
0xe0,
0x1d,
0x09,
0x00,
0x04,
0x16,
0x11,
0x0a,
0xf9,
0x0e,
0x1a,
0xf1,
0x13,
0xe5,
0xff,
0x07,
0x08,
0xfc,
0xf1,
0xf4,
0xfa,
0xdf,
0x08,
0xef,
0xe4,
0x1a,
0xf2,
0x13,
0x0e,
0xfd,
0x08,
0x05,
0x15,
0x11,
0xf4,
0x03,
0xfc,
0x00,
0xef,
0xfb,
0x0e,
0xfa,
0x11,
0x0f,
0xef,
0xfa,
0x02,
0xe0,
0xc8,
0x00,
0x12,
0x04,
0x07,
0xf4,
0xda,
0xf6,
0xd7,
0xff,
0xfe,
0xf2,
0x1f,
0x10,
0x1a,
0x03,
0xfc,
0xfa,
0xd4,
0xf5,
0xf7,
0xf5,
0x09,
0x0f,
0x07,
0x0e,
0x03,
0x04,
0x05,
0xe4,
0x33,
0xe4,
0xf5,
0x06,
0xec,
0xea,
0xf6,
0x0d,
0x05,
0xf4,
0xf3,
0x03,
0xfb,
0x01,
0xf4,
0xe6,
0x06,
0xd1,
0xf3,
0xe7,
0xfc,
0x13,
0x08,
0xe9,
0x0b,
0xeb,
0x0d,
0x01,
0xf9,
0x21,
0x1c,
0x15,
0xff,
0x08,
0x21,
0x14,
0xee,
0x05,
0x00,
0x0c,
0x02,
0x06,
0xe2,
0xec,
0x0c,
0xf9,
0xe4,
0xf5,
0x14,
0xf3,
0x21,
0xf0,
0x30,
0x11,
0x07,
0x01,
0x08,
0x10,
0x0f,
0x15,
0xfe,
0xe5,
0x0f,
0x07,
0x02,
0x10,
0x0f,
0x03,
0xf0,
0x21,
0x09,
0xf9,
0xe8,
0xf3,
0xf0,
0x04,
0x03,
0x03,
0x25,
0xf7,
0xe7,
0x00,
0xfe,
0x08,
0x12,
0x16,
0x02,
0xfd,
0x0f,
0xe7,
0x0b,
0xf5,
0x02,
0xfb,
0xf2,
0x0d,
0x05,
0x0a,
0xf7,
0xf7,
0x26,
0x06,
0xf6,
0xe4,
0x0e,
0xff,
0xfb,
0x01,
0xfc,
0x05,
0xef,
0xf2,
0xf9,
0xe7,
0x07,
0xe3,
0xf9,
0x00,
0x0c,
0x1a,
0xfa,
0xe8,
0x25,
0x0a,
0xfe,
0x1f,
0xfe,
0x03,
0x18,
0xe3,
0x01,
0x0a,
0x0c,
0x05,
0x02,
0xe0,
0xfe,
0x03,
0x0d,
0x02,
0x07,
0x0e,
0x03,
0x09,
0xf4,
0xd4,
0xe7,
0x06,
0x03,
0x01,
0x15,
0xf9,
0xfe,
0xf0,
0x0d,
0x02,
0xfe,
0x09,
0x02,
0x05,
0x05,
0xed,
0xe1,
0x09,
0xf2,
0x06,
0xe7,
0x0b,
0xe8,
0xee,
0x01,
0x09,
0xee,
0xf0,
0x01,
0xfc,
0xf3,
0x11,
0xfc,
0xfd,
0x10,
0x23,
0xf1,
0xef,
0xdd,
0xf3,
0xf8,
0xf9,
0x0f,
0x1a,
0xff,
0x02,
0x05,
0x04,
0x08,
0xfd,
0xfa,
0xff,
0x01,
0x13,
0xff,
0x04,
0xfa,
0x00,
0xff,
0x0c,
0x05,
0xf8,
0xf8,
0x1c,
0x04,
0xed,
0xea,
0xf0,
0x0b,
0x1f,
0x09,
0x09,
0xef,
0xf7,
0x03,
0x0b,
0x08,
0xe6,
0x04,
0x01,
0x0d,
0xed,
0xf4,
0xfb,
0x06,
0x00,
0x02,
0xf4,
0x12,
0xf9,
0xf5,
0x13,
0xfd,
0xfe,
0xf7,
0xf8,
0xee,
0xf6,
0x12,
0xfa,
0x06,
0x0b,
0xf8,
0xff,
0xfd,
0x0b,
0x14,
0x0e,
0xf5,
0xeb,
0x02,
0xef,
0x03,
0x05,
0xdf,
0xf8,
0xec,
0x15,
0x04,
0x0d,
0xfe,
0x07,
0xfa,
0xfa,
0xf8,
0xec,
0x03,
0xf3,
0xe7,
0xf1,
0xf0,
0xfb,
0x07,
0xf6,
0x0f,
0x0c,
0xed,
0xfa,
0x20,
0xf6,
0x03,
0xed,
0x09,
0xe5,
0xf2,
0x05,
0x05,
0xff,
0x1f,
0x09,
0x10,
0x1a,
0x0b,
0x08,
0xf1,
0xf6,
0xfc,
0xdc,
0xeb,
0xf8,
0xfa,
0xf7,
0xe7,
0x40,
0xef,
0x17,
0xe7,
0x16,
0x12,
0x00,
0xf2,
0xce,
0xca,
0xf4,
0xe5,
0x17,
0x05,
0xf0,
0xdb,
0xff,
0x04,
0x22,
0x12,
0x0a,
0x06,
0xea,
0xf6,
0xe5,
0x0b,
0xfd,
0x01,
0x16,
0x0d,
0x04,
0xdf,
0x0e,
0xea,
0xf3,
0x04,
0x07,
0x0b,
0xfe,
0xf0,
0xe2,
0xfa,
0xf4,
0xf0,
0xf5,
0x01,
0xfb,
0x0c,
0x09,
0x00,
0xff,
0x03,
0x01,
0xf6,
0xd8,
0x01,
0xfd,
0xe0,
0xf8,
0xf7,
0x03,
0xf8,
0x05,
0xfe,
0x12,
0x14,
0x05,
0x11,
0x04,
0xf3,
0x13,
0x04,
0xfe,
0xf0,
0xf3,
0x0c,
0xfd,
0x00,
0xfc,
0x0d,
0x0b,
0xfd,
0xeb,
0x07,
0x04,
0x0c,
0xe7,
0xe9,
0x00,
0x02,
0xd5,
0xff,
0xe8,
0x13,
0xe4,
0xcf,
0x04,
0xd1,
0x0a,
0x11,
0xca,
0xe1,
0xdd,
0x32,
0x06,
0xc8,
0x09,
0xee,
0xe2,
0xff,
0x18,
0xf6,
0x01,
0xe8,
0xed,
0x0f,
0x08,
0x14,
0xf3,
0x18,
0xed,
0xfd,
0x11,
0x0b,
0x13,
0xef,
0xd9,
0xfb,
0xd6,
0x05,
0x0d,
0x19,
0xed,
0xfc,
0xea,
0x03,
0x06,
0xea,
0xe7,
0xfe,
0xe4,
0x06,
0x09,
0xf1,
0x12,
0x04,
0xec,
0x0b,
0x10,
0xdd,
0x06,
0xfe,
0xe5,
0xf3,
0x08,
0xf6,
0x12,
0xfa,
0x11,
0xea,
0xe4,
0xfe,
0xf9,
0xfd,
0x08,
0xe5,
0x1c,
0x14,
0xf2,
0xe8,
0x15,
0xe0,
0x02,
0x0d,
0xf5,
0xce,
0xff,
0x0e,
0x00,
0x1c,
0x03,
0xf6,
0xf5,
0x05,
0x35,
0x0f,
0xfa,
0x03,
0x0e,
0x02,
0xff,
0xfb,
0x00,
0x0a,
0xec,
0x0c,
0xe9,
0xf7,
0x2e,
0xfa,
0x02,
0x1d,
0xf3,
0xf0,
0xed,
0x08,
0x23,
0xd1,
0xe0,
0xf6,
0xfa,
0xfd,
0x1c,
0x2e,
0x06,
0xf7,
0xf2,
0xf7,
0x15,
0x1e,
0x0f,
0x0e,
0xec,
0xcd,
0xf6,
0x20,
0xee,
0x05,
0x0d,
0xc2,
0xef,
0x14,
0xe5,
0xfc,
0x00,
0xfb,
0xe6,
0xf6,
0x06,
0xf2,
0x0a,
0x13,
0xfe,
0x09,
0x25,
0x07,
0xfa,
0xfd,
0xd5,
0xfa,
0x0d,
0xf8,
0x02,
0x03,
0xe9,
0x19,
0xf0,
0xec,
0x01,
0x2c,
0x05,
0x2d,
0x17,
0x05,
0x08,
0x26,
0xee,
0xfd,
0x25,
0x12,
0x1a,
0xe9,
0xd6,
0xdd,
0xfa,
0x1f,
0xfd,
0x17,
0x21,
0x04,
0xdf,
0x09,
0x04,
0x01,
0x08,
0x02,
0xf5,
0xf8,
0x12,
0x11,
0xd5,
0x04,
0x23,
0x31,
0x1b,
0x16,
0xdc,
0x21,
0x01,
0x1d,
0x0f,
0x07,
0x16,
0x04,
0xe2,
0x26,
0xfa,
0x12,
0x16,
0x1e,
0x14,
0x10,
0x2b,
0x0b,
0xf6,
0xf7,
0xfe,
0x08,
0xfc,
0xef,
0x03,
0xe0,
0xe0,
0xff,
0x37,
0xd8,
0xf2,
0xee,
0xee,
0x00,
0x01,
0x07,
0x1e,
0x24,
0xf6,
0x14,
0x12,
0x25,
0x1e,
0x0d,
0x0a,
0x4f,
0x1f,
0xe3,
0xf5,
0xf5,
0x04,
0x58,
0x08,
0x05,
0xd8,
0x70,
0x18,
0x15,
0x09,
0x1d,
0xd5,
0xf4,
0x06,
0xf4,
0xfb,
0xfa};
