/* SPDX-License-Identifier: GPL-2.0 */
/*
 * Copyright (c) 2022 MediaTek Inc.
 *
 * Author: Ming-Hsuan Chiang <ming-hsuan.chiang@mediatek.com>
 *
 */

char fdvt_kernel_bias_loop30_1_frame01_7sp[] = {
0xfc,
0xf7,
0x03,
0x03,
0xf0,
0xfc,
0x15,
0xec,
0xfe,
0xfa,
0xe9,
0xed,
0xe6,
0x01,
0x07,
0xe2,
0x0c,
0x09,
0xe0,
0xef,
0x18,
0x01,
0x06,
0x0b,
0xfd,
0x12,
0x0a,
0xfa,
0x02,
0xf9,
0xf9,
0x09,
0x00,
0xf1,
0xe7,
0x05,
0x17,
0x17,
0xf6,
0xfe,
0x09,
0x13,
0xfe,
0xff,
0x06,
0x02,
0xfb,
0x00,
0xfe,
0x00,
0xff,
0x07,
0x06,
0x02,
0xfe,
0x13,
0xf1,
0xfa,
0xfc,
0x09,
0x0c,
0xfd,
0x06,
0x00,
0x0a,
0x04,
0x09,
0xee,
0x1a,
0xfb,
0x02,
0x14,
0xff,
0x0e,
0x02,
0xfd,
0x0b,
0x15,
0x0a,
0xfe,
0xf4,
0x0a,
0xf8,
0xf7,
0xfc,
0xfc,
0xf6,
0xfd,
0x07,
0xfc,
0x06,
0x05,
0x07,
0xf3,
0x19,
0xee,
0xfb,
0x05,
0xf8,
0xf2,
0x08,
0xfc,
0xf7,
0x06,
0x07,
0x0a,
0x16,
0x0d,
0x12,
0x06,
0xff,
0xfc,
0xfc,
0x01,
0x00,
0xf9,
0xc5,
0x0d,
0x0a,
0x38,
0xfa,
0xe4,
0xe2,
0xe9,
0x00,
0x04,
0x09,
0x06,
0xea,
0xf4,
0xda,
0xfa,
0xee,
0x00,
0x09,
0x04,
0xf1,
0x00,
0x01,
0xe7,
0xfd,
0x03,
0xda,
0x03,
0x1a,
0x17,
0xf0,
0x18,
0x0e,
0x0d,
0x2d,
0xf1,
0x3d,
0x17,
0xdf,
0x16,
0xe6,
0xe1,
0x21,
0xf3,
0x09,
0x36,
0xf0,
0xf5,
0x30,
0x08,
0x21,
0x20,
0x2d,
0xeb,
0xfc,
0x0d,
0xe4,
0xdb,
0xf2,
0xea,
0xfe,
0x0d,
0xfd,
0xf3,
0x0f,
0x1a,
0x28,
0xed,
0xf4,
0x04,
0xf8,
0xf4,
0xf5,
0xf3,
0xeb,
0xed,
0xf5,
0x04,
0xf6,
0xfb,
0x00,
0x17,
0x14,
0xf7,
0xe9,
0xf7,
0xfa,
0x1c,
0x23,
0x19,
0x13,
0x22,
0xfa,
0xff,
0x03,
0xfd,
0x03,
0x04,
0x05,
0x04,
0x05,
0x06,
0x08,
0x0d,
0xf9,
0xf8,
0xff,
0xfb,
0x06,
0xff,
0x01,
0x0d,
0x0f,
0xea,
0x02,
0xf7,
0xcc,
0xe4,
0x04,
0xdf,
0xf1,
0xfd,
0x00,
0x03,
0xff,
0xf7,
0x0c,
0x01,
0xf6,
0x10,
0x05,
0xfa,
0x0b,
0x06,
0x02,
0x02,
0xfb,
0xfa,
0xfe,
0xfd,
0xf4,
0x03,
0xfa,
0x00,
0x00,
0x04,
0x01,
0x06,
0xfc,
0x0a,
0x10,
0xfd,
0xd7,
0x26,
0x39,
0xff,
0xfd,
0xfa,
0x00,
0x04,
0x04,
0x08,
0x0c,
0xf4,
0x06,
0xee,
0xfa,
0x0d,
0xf7,
0x07,
0x0e,
0xf8,
0xfb,
0xfe,
0x00,
0x00,
0xf9,
0x04,
0x01,
0x00,
0xfe,
0xfc,
0xfa,
0x01,
0xf9,
0xf8,
0x03,
0x02,
0xfd,
0xfb,
0xff,
0x04,
0xfe,
0x03,
0x04,
0x00,
0x03,
0xff,
0xf8,
0xfa,
0xfe,
0xfb,
0xfc,
0xff,
0xfe,
0xfb,
0xf6,
0xfb,
0xfa,
0xf6,
0xfc,
0x11,
0x05,
0x0a,
0xfe,
0xfa,
0x04,
0xea,
0xe3,
0xee,
0xee,
0xe2,
0x1d,
0x19,
0x1c,
0xe6,
0xe6,
0xe4,
0x06,
0x0a,
0x03,
0x11,
0x12,
0x11,
0xfc,
0xff,
0x10,
0xe6,
0x0b,
0xf4,
0x03,
0xfd,
0xf6,
0x0e,
0xf4,
0xf8,
0xed,
0xfb,
0x0f,
0x07,
0xfb,
0x02,
0xfe,
0x09,
0x00,
0x00,
0x04,
0xff,
0xfe,
0x02,
0xfb,
0xff,
0x00,
0xfd,
0x02,
0x08,
0xfe,
0xf3,
0xfe,
0x02,
0xf6,
0xfb,
0x09,
0xfe,
0xf6,
0x03,
0xef,
0xec,
0xfd,
0xf5,
0x0f,
0x0d,
0x06,
0x04,
0x01,
0xfe,
0x01,
0x0d,
0x33,
0xe0,
0xeb,
0x2b,
0xf6,
0x09,
0xc3,
0x07,
0x01,
0xff,
0x06,
0x01,
0x05,
0x12,
0xf3,
0xf4,
0xf4,
0xf5,
0x06,
0xf9,
0x00,
0xfb,
0x0c,
0xf2,
0x03,
0x02,
0xf5,
0x01,
0xf3,
0xf7,
0xfc,
0xf8,
0x05,
0xfd,
0xf7,
0x11,
0xf9,
0x02,
0x13,
0xfa,
0xfb,
0xfc,
0xff,
0x04,
0x00,
0xf4,
0x17,
0x0b,
0xf3,
0x07,
0xf3,
0xed,
0xf0,
0x02,
0xfe,
0xf7,
0x02,
0x07,
0x02,
0x07,
0xf8,
0xf6,
0x01,
0x05,
0xf9,
0xf1,
0xff,
0x14,
0x1d,
0x14,
0x0c,
0x05,
0x11,
0xea,
0xe4,
0xf5,
0x0a,
0x0d,
0xf4,
0xff,
0xfb,
0x01,
0x0d,
0x16,
0x0f,
0x13,
0x07,
0x14,
0x20,
0x19,
0xf6,
0xf7,
0x06,
0x08,
0x09,
0x0d,
0x04,
0x15,
0x04,
0x02,
0x19,
0x12,
0x15,
0x0d,
0x00,
0x08,
0x04,
0x00,
0xf7,
0x02,
0xff,
0xf7,
0xf5,
0xe2,
0x09,
0xae,
0x9d,
0xfb,
0xcd,
0xbf,
0x03,
0xfb,
0x15,
0x10,
0xfe,
0xfa,
0x0f,
0x0b,
0x00,
0x09,
0x0a,
0x02,
0x05,
0x05,
0xfd,
0xfd,
0xfa,
0x00,
0xf7,
0x00,
0x07,
0x02,
0x03,
0x10,
0x11,
0x04,
0x08,
0x00,
0x02,
0x1d,
0x1c,
0x0e,
0x04,
0x22,
0x14,
0xff,
0xfd,
0x03,
0x0e,
0x0a,
0x14,
0x0f,
0x03,
0x0e,
0x01,
0xfa,
0x19,
0x11,
0xfd,
0x05,
0x09,
0xfb,
0x01,
0x06,
0xfb,
0x0b,
0x1a,
0xf9,
0x06,
0xfb,
0xfa,
0x09,
0xfc,
0x1a,
0x04,
0xf6,
0xf9,
0x19,
0xeb,
0x0d,
0x0b,
0x04,
0xfc,
0x0d,
0xff,
0xf2,
0x01,
0xfa,
0xed,
0x03,
0x02,
0xf7,
0xfd,
0xfd,
0x08,
0x0e,
0x04,
0xfd,
0xfd,
0xfb,
0x02,
0x04,
0x03,
0x00,
0x03,
0xfc,
0xfa,
0x02,
0x00,
0xff,
0xfe,
0xff,
0x00,
0xfe,
0x00,
0x0e,
0x0f,
0x07,
0xf8,
0x0a,
0xf5,
0xfb,
0xf2,
0xf8,
0xf6,
0xff,
0x08,
0xf3,
0x07,
0x0b,
0xe3,
0x15,
0xf4,
0x0a,
0x07,
0xf9,
0x06,
0x05,
0xe2,
0xe4,
0xf3,
0x02,
0xff,
0x0e,
0xf9,
0xfd,
0x05,
0x01,
0xfd,
0xf5,
0xfe,
0xf8,
0x01,
0xfd,
0x02,
0x0c,
0xdf,
0x12,
0x05,
0xfc,
0xfd,
0xfb,
0x00,
0xfd,
0xfd,
0x06,
0x04,
0xef,
0xf6,
0xe8,
0xec,
0xfe,
0xf3,
0x09,
0xfa,
0x02,
0xfd,
0x02,
0x13,
0x07,
0xf2,
0xa1,
0x22,
0x19,
0x02,
0x02,
0xfe,
0xf8,
0xf8,
0x05,
0x09,
0x16,
0x17,
0x04,
0x0e,
0xfd,
0xfc,
0xfb,
0x05,
0xff,
0xff,
0x0e,
0x00,
0x0a,
0xfb,
0x03,
0x00,
0x04,
0xfe,
0x02,
0x02,
0x08,
0x09,
0x03,
0x03,
0x07,
0x07,
0x17,
0x17,
0xfa,
0x17,
0x11,
0xc4,
0x22,
0x0b,
0xff,
0xd9,
0x21,
0xeb,
0xf6,
0xf8,
0xf7,
0xe2,
0xd5,
0x0d,
0xf9,
0xf1,
0xef,
0x02,
0x1d,
0x1a,
0x0a,
0xdf,
0xf8,
0x15,
0x03,
0xfa,
0xec,
0xf8,
0xfd,
0xfd,
0xff,
0x01,
0x01,
0xf9,
0xfa,
0xfc,
0xf7,
0xfe,
0xf3,
0xff,
0xfa,
0xfb,
0x00,
0x13,
0x0b,
0xfb,
0x0b,
0x04,
0xf9,
0x07,
0x00,
0xef,
0x0a,
0xfd,
0xf1,
0x0e,
0xf2,
0x0d,
0x0d,
0x14,
0x12,
0xff,
0x05,
0x0e,
0xe6,
0x0a,
0xf8,
0xfc,
0x0d,
0xf6,
0x0c,
0xe6,
0xbc,
0xfe,
0xfd,
0xf5,
0x09,
0xfc,
0xe9,
0xfa,
0x09,
0xf3,
0xed,
0x0f,
0xfc,
0xef,
0x0e,
0x02,
0xf3,
0x0a,
0x08,
0x02,
0x09,
0x02,
0xf5,
0xf9,
0xfb,
0x09,
0x06,
0x06,
0xe7,
0xf2,
0xfa,
0x23,
0x1d,
0x01,
0xef,
0xe5,
0xf6,
0xee,
0x00,
0xf6,
0x07,
0x01,
0x00,
0xf9,
0x07,
0x03,
0x0a,
0x0b,
0x1a,
0x01,
0x2a,
0xfe,
0xf6,
0x0f,
0xf5,
0x07,
0x06,
0xfd,
0x06,
0x02,
0xf8,
0xfa,
0x05,
0xe8,
0x09,
0x05,
0xd3,
0x05,
0xe6,
0x03,
0xfc,
0xea,
0x0e,
0x0d,
0xe4,
0x0a,
0x02,
0x04,
0x05,
0x03,
0x00,
0xfe,
0xf2,
0xf1,
0xf5,
0x01,
0xfa,
0x00,
0x0e,
0x00,
0xfb,
0xfd,
0x06,
0x07,
0xfe,
0xfe,
0xfd,
0x05,
0x03,
0xfb,
0xfd,
0xfc,
0xfc,
0x03,
0xfd,
0xf4,
0xf8,
0x02,
0xf8,
0xfb,
0x08,
0x10,
0x0c,
0xf9,
0x02,
0xf4,
0xf9,
0xfb,
0xfd,
0x0e,
0xfe,
0xf3,
0x16,
0xf5,
0x02,
0x1a,
0xf3,
0xff,
0x0a,
0xef,
0xf6,
0xfa,
0x05,
0xe8,
0xf2,
0xe9,
0xfc,
0x12,
0xee,
0xf7,
0x0f,
0xf7,
0x05,
0xff,
0xfd,
0x02,
0xfb,
0xfb,
0x01,
0xfa,
0xff,
0xd9,
0x15,
0x16,
0x03,
0x0f,
0x1f,
0x0b,
0x06,
0x1d,
0x18,
0xfa,
0xee,
0xf8,
0xed,
0xef,
0xfd,
0xf0,
0x05,
0xff,
0xfb,
0xf6,
0x1f,
0x14,
0x03,
0xc4,
0xce,
0x01,
0x2a,
0x2c,
0x0f,
0x00,
0x02,
0x05,
0x04,
0xfe,
0x04,
0x10,
0x0b,
0x0c,
0x04,
0xf7,
0xfc,
0x06,
0xff,
0xdf,
0x19,
0xf6,
0xfe,
0x11,
0xff,
0x01,
0xfd,
0x06,
0xff,
0xf8,
0x06,
0xfa,
0xff,
0x07,
0xfc,
0xfe,
0xff,
0x05,
0x07,
0xf9,
0x07,
0x0a,
0xf7,
0xf9,
0x12,
0x05,
0xf6,
0x06,
0x03,
0x05,
0x00,
0xfc,
0x00,
0xfe,
0xfb,
0xff,
0x04,
0x00,
0xfb,
0xfa,
0x02,
0x01,
0xfe,
0xfa,
0x01,
0xfe,
0xfb,
0x01,
0xf6,
0x0f,
0xe3,
0xcd,
0xeb,
0x0b,
0x12,
0xe8,
0xf7,
0xf9,
0xc2,
0xd4,
0xd1,
0xf3,
0x0d,
0x04,
0x2d,
0x43,
0x39,
0x01,
0x02,
0xfa,
0xff,
0xfe,
0xfb,
0x0a,
0xfc,
0x00,
0x02,
0xfe,
0xfb,
0xf6,
0xf3,
0x07,
0x00,
0xf4,
0x0f,
0x01,
0x06,
0xf8,
0xfe,
0x02,
0x02,
0xf4,
0xee,
0x08,
0xfd,
0xf4,
0xfe,
0xf9,
0x10,
0xf4,
0xfc,
0x06,
0x06,
0xf8,
0x07,
0x0a,
0xf4,
0x01,
0x08,
0xf0,
0xf8,
0x00,
0xff,
0x07,
0x0a,
0x09,
0x07,
0xf2,
0xf4,
0xfc,
0x08,
0x03,
0x04,
0x03,
0x0a,
0xfa,
0x04,
0xf7,
0x11,
0x04,
0x01,
0x04,
0x03,
0x00,
0x0d,
0xf3,
0xf3,
0xf6,
0xf8,
0xf8,
0xeb,
0x01,
0x0b,
0xf2,
0xf7,
0x03,
0xf9,
0xfa,
0x06,
0x00,
0x00,
0x00,
0x00,
0x00,
0x00,
0x00,
0x00,
0x00,
0x00,
0x00,
0x00,
0x00,
0x00,
0x00,
0x00};
