/* SPDX-License-Identifier: GPL-2.0 */
/*
 * Copyright (c) 2022 MediaTek Inc.
 *
 * Author: Ming-Hsuan Chiang <ming-hsuan.chiang@mediatek.com>
 *
 */

char fdvt_kernel_bias_loop83_0_frame01_7sp[] = {
0xe9,
0x0d,
0x05,
0x0d,
0xfd,
0xff,
0xf3,
0xef,
0xf6,
0x0e,
0x03,
0x0f,
0xfb,
0x02,
0xec,
0xef,
0xfb,
0xfa,
0x02,
0xfe,
0x02,
0x05,
0x0a,
0xf7,
0xf0,
0xf7,
0x01,
0xfd,
0x04,
0x06,
0x0b,
0xfa,
0xc5,
0x05,
0x07,
0x06,
0xfe,
0x00,
0xf8,
0xfe,
0x1c,
0x06,
0x08,
0x06,
0x00,
0xff,
0xf7,
0xfb,
0x02,
0xfd,
0x03,
0xf9,
0x02,
0xff,
0x02,
0xfe,
0xff,
0xfc,
0x04,
0xfa,
0x03,
0xfe,
0x03,
0xfd,
0xe6,
0x03,
0xfc,
0x00,
0xfa,
0x02,
0x00,
0x00,
0xee,
0x02,
0xfc,
0xfe,
0xfa,
0x03,
0xff,
0x02,
0x04,
0x1a,
0x0a,
0x06,
0xfe,
0xf2,
0x00,
0xf9,
0xd4,
0x18,
0x06,
0x07,
0xfb,
0xf5,
0xfe,
0xf9,
0xdb,
0x01,
0x01,
0xff,
0x04,
0xfe,
0xfa,
0xfe,
0xe7,
0x02,
0x03,
0x00,
0x02,
0xfe,
0xfa,
0xfd,
0xd4,
0x04,
0x05,
0x04,
0xf6,
0x03,
0xf9,
0xfb,
0xd7,
0x03,
0x05,
0x01,
0xf8,
0x01,
0xfc,
0xf7,
0x06,
0xf7,
0xfe,
0x00,
0xf7,
0x0c,
0x04,
0x06,
0x04,
0xf6,
0xfe,
0x01,
0xf7,
0x0c,
0x04,
0x06,
0xf5,
0x00,
0x03,
0xf9,
0xff,
0x01,
0x02,
0xfe,
0xf5,
0x00,
0x02,
0xf9,
0x00,
0x01,
0x03,
0xfe,
0xeb,
0xf8,
0xfc,
0xf4,
0x08,
0xfb,
0x0e,
0x07,
0xf5,
0xf5,
0xfb,
0xf3,
0x09,
0xfc,
0x10,
0x07,
0xf2,
0xfb,
0xf5,
0x01,
0xff,
0x01,
0x03,
0x0c,
0xe9,
0xfc,
0xf6,
0x01,
0xfc,
0x03,
0x01,
0x0c,
0xec,
0x0c,
0xf5,
0x12,
0xf9,
0x01,
0xf8,
0xff,
0xe8,
0x09,
0xf4,
0x10,
0xf7,
0x00,
0xf7,
0xff,
0xfd,
0x08,
0xff,
0x08,
0xfd,
0xfa,
0xfa,
0xff,
0xfa,
0x08,
0x02,
0x05,
0x00,
0xf7,
0xfc,
0xfa,
0x23,
0x0a,
0x06,
0x04,
0x02,
0xf9,
0xfb,
0xf6,
0x23,
0x0a,
0x07,
0x05,
0x03,
0xf9,
0xfc,
0xf7,
0xcc,
0xee,
0xfe,
0xf6,
0xfd,
0xfc,
0x00,
0xfa,
0xd0,
0xe9,
0xfd,
0xf3,
0xfc,
0xff,
0x00,
0xff,
0xc3,
0x0b,
0x05,
0x0a,
0xf7,
0xfb,
0xfa,
0xf8,
0xc5,
0x0b,
0x03,
0x0a,
0xf7,
0xfb,
0xf8,
0xf9,
0x0a,
0xfb,
0xfd,
0xfd,
0xfe,
0x00,
0x04,
0x03,
0x03,
0xfd,
0xfe,
0xfe,
0xfc,
0x02,
0x00,
0x03,
0xfe,
0x03,
0xfd,
0xf9,
0xf9,
0xfd,
0xf6,
0x1c,
0x14,
0x04,
0xfe,
0xf9,
0xf8,
0xfd,
0xf7,
0x1b,
0xbe,
0xfd,
0x02,
0xff,
0x01,
0x01,
0xfe,
0xff,
0xc7,
0x03,
0x00,
0xfe,
0xff,
0xff,
0xff,
0x00,
0x1f,
0x0d,
0x06,
0x05,
0xfb,
0x03,
0xff,
0xfb,
0x1e,
0x0d,
0x05,
0x05,
0xfb,
0x04,
0xfb,
0xfe,
0xf5,
0x00,
0x01,
0x00,
0x00,
0xfe,
0xfc,
0x02,
0xf3,
0x01,
0x02,
0xfe,
0x02,
0xfc,
0xfc,
0x02,
0x07,
0x16,
0x07,
0x0e,
0xf4,
0xfb,
0xf7,
0xf2,
0x09,
0x15,
0x07,
0x0c,
0xf6,
0xfa,
0xf9,
0xf4,
0xdd,
0x07,
0xff,
0x04,
0x02,
0xf7,
0xfc,
0xf7,
0xdf,
0x02,
0xfa,
0x01,
0x00,
0xf6,
0x02,
0xf9,
0xfb,
0xfc,
0x03,
0xfd,
0x03,
0xfc,
0x02,
0xfb,
0xf4,
0xfd,
0x01,
0xfd,
0x01,
0xfc,
0x01,
0x00,
0x0b,
0x01,
0xff,
0x06,
0xfb,
0xfe,
0xf4,
0x07,
0xc6,
0x02,
0x00,
0x04,
0xfb,
0xfd,
0xf5,
0x08,
0xf7,
0xf8,
0xff,
0xfa,
0x06,
0xfe,
0x08,
0x02,
0xff,
0xfc,
0x01,
0xfc,
0x03,
0xfe,
0x05,
0x01,
0xf8,
0x00,
0x03,
0x01,
0xfd,
0x03,
0x00,
0xfa,
0xfc,
0x02,
0x03,
0x01,
0xfe,
0x00,
0x01,
0xf8,
0xed,
0x06,
0x02,
0x01,
0x01,
0xfd,
0x02,
0xfd,
0xe2,
0x04,
0x02,
0x00,
0x00,
0xfd,
0x02,
0xfe,
0xfb,
0xfd,
0x00,
0xf8,
0x02,
0xfd,
0x02,
0x07,
0xf6,
0xfd,
0xff,
0xf8,
0x03,
0xfc,
0x04,
0x09,
0x02,
0xeb,
0x45,
0xd1,
0x29,
0xf6,
0xe3,
0xe5,
0x01,
0xea,
0x43,
0xd5,
0x26,
0xf9,
0xe2,
0xe7,
0xe7,
0xe8,
0xff,
0xed,
0x0b,
0x05,
0x16,
0x1d,
0xee,
0xe7,
0x02,
0xee,
0x0b,
0x04,
0x15,
0x1d,
0xe2,
0x0e,
0x04,
0x0f,
0xfc,
0x03,
0xf2,
0xf1,
0xf8,
0x0e,
0x02,
0x10,
0xfc,
0x04,
0xed,
0xef,
0xfa,
0xf7,
0x02,
0xfe,
0x01,
0x07,
0x08,
0xf9,
0xf2,
0xf5,
0x00,
0xfe,
0x03,
0x08,
0x09,
0xfc,
0xca,
0x04,
0x07,
0x06,
0xfe,
0x00,
0xf9,
0xfe,
0x22,
0x05,
0x07,
0x06,
0x00,
0x00,
0xf7,
0xfb,
0x01,
0xfd,
0x03,
0xf9,
0x02,
0xfe,
0x03,
0xfe,
0xfe,
0xfc,
0x03,
0xf8,
0x04,
0xfe,
0x04,
0xfe,
0xee,
0x02,
0xfe,
0x00,
0xfc,
0x02,
0xfe,
0xff,
0xf2,
0x01,
0xfd,
0xfe,
0xfc,
0x03,
0xff,
0x00,
0xff,
0x19,
0x0a,
0x07,
0xfb,
0xf6,
0xfe,
0xf9,
0xd4,
0x17,
0x05,
0x07,
0xf8,
0xf7,
0xfe,
0xfb,
0xe9,
0x01,
0x01,
0xff,
0x05,
0xff,
0xfa,
0xfd,
0xf3,
0x01,
0x02,
0xff,
0x03,
0xfe,
0xfb,
0xfc,
0xd7,
0x04,
0x02,
0x06,
0xf8,
0x05,
0xf7,
0xfc,
0xd6,
0x03,
0x03,
0x04,
0xfb,
0x02,
0xfb,
0xf7,
0x08,
0xf7,
0xfd,
0x00,
0xf8,
0x0d,
0x03,
0x07,
0x07,
0xf5,
0xff,
0xff,
0xf8,
0x0c,
0x06,
0x07,
0xf4,
0x01,
0x04,
0xf9,
0xff,
0x00,
0x05,
0xfb,
0xf3,
0x00,
0x03,
0xf9,
0x00,
0x01,
0x04,
0xfc,
0xdc,
0xfa,
0xfe,
0xf7,
0x08,
0xfa,
0x0d,
0x04,
0xe2,
0xf7,
0xfe,
0xf5,
0x09,
0xfa,
0x0f,
0x05,
0xfa,
0xf9,
0xf5,
0x00,
0x00,
0x01,
0x04,
0x0d,
0xfc,
0xf9,
0xf4,
0x01,
0xfe,
0x04,
0x03,
0x0d,
0xf7,
0x0e,
0xf6,
0x16,
0xfc,
0x01,
0xf6,
0x01,
0xed,
0x0d,
0xf5,
0x16,
0xfa,
0x00,
0xf4,
0xfe,
0xfe,
0x05,
0xff,
0x05,
0xfd,
0xfa,
0xf8,
0xfe,
0xfa,
0x04,
0x00,
0x01,
0xfe,
0xf8,
0xfa,
0xfd,
0xe9,
0x09,
0x06,
0x03,
0x03,
0xf9,
0xfd,
0xf7,
0xe9,
0x0a,
0x06,
0x05,
0x03,
0xf9,
0xfd,
0xf8,
0xc8,
0xf0,
0xfd,
0xf8,
0xfa,
0xfd,
0x02,
0xfb,
0xcd,
0xee,
0xfc,
0xf7,
0xfa,
0xfe,
0x02,
0xfe,
0xc8,
0x0b,
0x03,
0x0b,
0xf6,
0xfc,
0xf9,
0xf9,
0xca,
0x0a,
0x02,
0x0b,
0xf6,
0xfd,
0xf8,
0xf9,
0xee,
0xfa,
0xfb,
0xfd,
0xfd,
0x01,
0x05,
0x05,
0xe1,
0xfc,
0xfc,
0xfd,
0xfb,
0x03,
0x02,
0x04,
0xfd,
0x03,
0xfc,
0xf9,
0xfa,
0xfc,
0xf8,
0x1b,
0x0b,
0x02,
0xfd,
0xf8,
0xf9,
0xfd,
0xf8,
0x1b,
0xab,
0xfa,
0xfc,
0xf8,
0x05,
0x04,
0x02,
0x04,
0xc3,
0x00,
0xff,
0xfb,
0x03,
0x00,
0x01,
0x01,
0xe4,
0x0b,
0x05,
0x03,
0xfd,
0x02,
0x00,
0xfb,
0xec,
0x0b,
0x05,
0x03,
0xfc,
0x03,
0xfd,
0xfe,
0xfc,
0x01,
0x01,
0xff,
0x00,
0xfc,
0xfe,
0x01,
0x01,
0x01,
0x02,
0xff,
0x02,
0xfc,
0xfc,
0x01,
0x0b,
0x15,
0x06,
0x0d,
0xf6,
0xfb,
0xf8,
0xf3,
0x0a,
0x16,
0x07,
0x0c,
0xf5,
0xfa,
0xf9,
0xf5,
0xe2,
0x08,
0xfe,
0x05,
0x02,
0xf8,
0xff,
0xf5,
0xe1,
0x02,
0xf9,
0x00,
0x01,
0xf6,
0x05,
0xf7,
0xf9,
0xfd,
0x00,
0xf5,
0x03,
0xfa,
0x05,
0xfd,
0xf6,
0xfc,
0x00,
0xf7,
0x01,
0xfb,
0x02,
0x00,
0x18,
0x02,
0x00,
0x06,
0xfb,
0xff,
0xf2,
0x07,
0xd2,
0x02,
0x01,
0x06,
0xfb,
0xff,
0xf3,
0x07,
0xf2,
0xf6,
0xfe,
0xfb,
0x09,
0xfe,
0x08,
0x02,
0xf9,
0xfb,
0xff,
0xfd,
0x04,
0xff,
0x05,
0x01,
0x11,
0x03,
0x03,
0x03,
0xfc,
0x03,
0xfd,
0xf8,
0x08,
0x04,
0x04,
0x02,
0xfd,
0xff,
0xff,
0xf6,
0xe7,
0x05,
0x02,
0x00,
0x04,
0xfd,
0x04,
0xfd,
0xe2,
0x03,
0x01,
0x00,
0x01,
0xfd,
0x02,
0x00,
0xfc,
0xfe,
0x01,
0xfa,
0x03,
0xfd,
0x04,
0x05,
0xf4,
0xfd,
0x01,
0xf9,
0x03,
0xfd,
0x04,
0x07,
0x02,
0xea,
0x43,
0xd1,
0x27,
0xf6,
0xe6,
0xe5,
0x01,
0xea,
0x41,
0xd4,
0x25,
0xf9,
0xe5,
0xe7,
0xe4,
0xe8,
0xff,
0xef,
0x0b,
0x04,
0x17,
0x1c,
0xec,
0xe8,
0x01,
0xf1,
0x0a,
0x02,
0x17,
0x1b,
0xd3,
0x0d,
0x04,
0x0c,
0xfa,
0xfd,
0xf2,
0xef,
0xfd,
0x0e,
0x03,
0x0d,
0xf8,
0xfd,
0xe9,
0xeb,
0xf0,
0xf7,
0x04,
0xfc,
0x06,
0x04,
0x0c,
0xf6,
0xef,
0xf4,
0x02,
0xfc,
0x07,
0x05,
0x0c,
0xf9,
0xff,
0x06,
0x09,
0x06,
0xff,
0xff,
0xf8,
0xfd,
0xfa,
0x07,
0x09,
0x05,
0x00,
0xfd,
0xf7,
0xfc,
0x00,
0xff,
0x03,
0xfa,
0x02,
0xff,
0x00,
0xff,
0xfe,
0xff,
0x04,
0xfc,
0x02,
0xfe,
0xff,
0xfd,
0x01,
0x01,
0xfa,
0x02,
0xf9,
0x02,
0xfd,
0x04,
0xfe,
0x00,
0xf9,
0x02,
0xf8,
0x04,
0xfb,
0x05,
0xe1,
0x1e,
0x0e,
0x06,
0x00,
0xf1,
0x00,
0xf8,
0xac,
0x1c,
0x0c,
0x08,
0xfb,
0xf3,
0xfd,
0xfa,
0xe6,
0x00,
0x00,
0xff,
0x03,
0xff,
0xfc,
0xff,
0x2a,
0x00,
0x01,
0x00,
0x03,
0xff,
0xfa,
0xff,
0xdc,
0x05,
0x02,
0x05,
0xf4,
0x02,
0xf6,
0xfb,
0xd8,
0x04,
0x03,
0x02,
0xf8,
0xfe,
0xf8,
0xf5,
0x03,
0xf6,
0xfc,
0x03,
0xf7,
0x0d,
0x04,
0x09,
0x09,
0xf3,
0x00,
0x02,
0xf9,
0x0b,
0x05,
0x06,
0xf3,
0x02,
0x04,
0xfb,
0xfe,
0x01,
0x02,
0xfa,
0xed,
0x01,
0x03,
0xfa,
0xfe,
0x02,
0x01,
0xfb,
0x06,
0xf3,
0xfc,
0xf4,
0x0a,
0xfd,
0x10,
0x07,
0x0e,
0xf2,
0xfc,
0xf3,
0x0b,
0xfb,
0x11,
0x07,
0xd6,
0xfa,
0xf3,
0x00,
0xff,
0x01,
0x02,
0x0f,
0xd9,
0xf9,
0xf3,
0x01,
0xfd,
0x03,
0x02,
0x10,
0xf0,
0x0b,
0xf5,
0x12,
0xfc,
0x02,
0xf7,
0x01,
0xed,
0x09,
0xf3,
0x11,
0xf4,
0x01,
0xf8,
0x01,
0xf4,
0x08,
0x00,
0x0a,
0xfa,
0xfa,
0xf8,
0xff,
0xf6,
0x09,
0x01,
0x08,
0xfe,
0xf6,
0xfa,
0xf7,
0x1a,
0x0b,
0x08,
0x02,
0x04,
0xf7,
0xfb,
0xf4,
0x1c,
0x0a,
0x09,
0x02,
0x06,
0xf7,
0xfc,
0xf4,
0xcf,
0xec,
0xf6,
0xf2,
0xfb,
0xfb,
0x03,
0xff,
0xce,
0xec,
0xf7,
0xf0,
0xfa,
0xfd,
0x02,
0x00,
0x17,
0x0d,
0x06,
0x09,
0xf5,
0xf9,
0xf5,
0xf5,
0x0b,
0x0c,
0x04,
0x09,
0xf3,
0xfb,
0xf4,
0xf7,
0xd5,
0xfc,
0xfc,
0xfe,
0xfd,
0x01,
0x04,
0x06,
0xd3,
0xfd,
0xfc,
0xff,
0xfb,
0x02,
0x00,
0x05,
0xfe,
0x04,
0xfd,
0xfc,
0xf8,
0xfe,
0xf4,
0x1b,
0x02,
0x03,
0xfd,
0xfd,
0xf7,
0xfe,
0xf5,
0x1b,
0xb6,
0x00,
0x01,
0xfb,
0xff,
0xfc,
0x01,
0x02,
0xcd,
0x00,
0x02,
0xfd,
0xff,
0xff,
0xff,
0x02,
0x09,
0x0e,
0x05,
0x06,
0xfc,
0x02,
0x02,
0xf8,
0xf9,
0x0d,
0x04,
0x05,
0xfb,
0x04,
0xfd,
0xfc,
0xfb,
0x00,
0x04,
0xfe,
0xfd,
0xfc,
0xfb,
0x01,
0xff,
0xff,
0x04,
0xfa,
0x00,
0xf8,
0xfe,
0x00,
0xcf,
0x13,
0x04,
0x0a,
0xf7,
0xfb,
0xfd,
0xf2,
0xd2,
0x12,
0x05,
0x08,
0xf9,
0xfc,
0xfe,
0xf3,
0xd9,
0x08,
0xfe,
0x07,
0x00,
0xf9,
0xfa,
0xf7,
0xe5,
0x03,
0xfa,
0x03,
0xfd,
0xf8,
0xfc,
0xf9,
0xfe,
0xfe,
0x01,
0xfd,
0x02,
0xfb,
0x04,
0xff,
0xfe,
0xfd,
0x00,
0xfc,
0x01,
0xfc,
0x01,
0x03,
0x05,
0x01,
0xfe,
0x06,
0xf6,
0xfe,
0xf5,
0x08,
0xf6,
0x01,
0x00,
0x04,
0xf8,
0xfc,
0xf5,
0x09,
0xed,
0xf9,
0x01,
0xf8,
0x08,
0xfc,
0x09,
0x00,
0xf8,
0xfc,
0x02,
0xfb,
0x06,
0xfc,
0x06,
0xfd,
0xdc,
0x04,
0x03,
0x03,
0xfc,
0x03,
0xfe,
0xf9,
0xe1,
0x06,
0x05,
0x01,
0xfe,
0xff,
0x00,
0xf4,
0xfb,
0x07,
0x02,
0x03,
0x02,
0xfd,
0x01,
0xfa,
0x06,
0x03,
0x00,
0x01,
0x01,
0xfe,
0x03,
0xfb,
0x08,
0x00,
0x00,
0xf8,
0x02,
0xfe,
0x00,
0x08,
0xf4,
0xfe,
0xff,
0xf7,
0x02,
0xfe,
0x02,
0x08,
0x06,
0xed,
0x46,
0xcb,
0x2c,
0xef,
0xe1,
0xe4,
0x06,
0xec,
0x44,
0xce,
0x29,
0xf1,
0xe0,
0xe6,
0xf5,
0xe2,
0x05,
0xe8,
0x0d,
0x01,
0x18,
0x1d,
0xf7,
0xe2,
0x07,
0xea,
0x0c,
0x00,
0x15,
0x1d,
0xd5,
0x0c,
0x04,
0x0d,
0xfa,
0xfe,
0xf1,
0xf0,
0x04,
0x0d,
0x04,
0x0e,
0xfa,
0xfe,
0xe8,
0xea,
0xf7,
0xf4,
0x01,
0xfe,
0x05,
0x07,
0x0b,
0xfa,
0xf5,
0xf3,
0xff,
0xfe,
0x05,
0x08,
0x0c,
0xfc,
0x07,
0x06,
0x09,
0x06,
0xfd,
0x00,
0xf8,
0xfb,
0x00,
0x07,
0x09,
0x05,
0xff,
0xff,
0xf7,
0xfb,
0xfb,
0x00,
0x04,
0xfa,
0x01,
0xfd,
0xff,
0xfe,
0xf9,
0x00,
0x05,
0xfa,
0x04,
0xfc,
0x00,
0xfd,
0xff,
0xff,
0xfb,
0x02,
0xf9,
0x03,
0xfd,
0x02,
0xfb,
0xfe,
0xfb,
0x03,
0xf9,
0x04,
0xfd,
0x02,
0xdd,
0x1b,
0x0c,
0x06,
0xfd,
0xf4,
0xfb,
0xfc,
0xa4,
0x1a,
0x09,
0x07,
0xf9,
0xf5,
0xfa,
0xff,
0xf1,
0xff,
0xff,
0xfd,
0x05,
0xff,
0xfd,
0xfe,
0x34,
0xff,
0x00,
0xfe,
0x05,
0xff,
0xfb,
0xfe,
0xdc,
0x03,
0x02,
0x04,
0xf7,
0x01,
0xf6,
0xfa,
0xd8,
0x03,
0x05,
0x02,
0xfb,
0xfd,
0xf9,
0xf6,
0xfd,
0xf6,
0xfc,
0x01,
0xf8,
0x0e,
0x05,
0x09,
0x01,
0xf3,
0xff,
0x00,
0xf9,
0x0d,
0x06,
0x07,
0xec,
0x03,
0x06,
0xfa,
0xff,
0x00,
0x03,
0xf8,
0xe5,
0x02,
0x04,
0xfb,
0xfe,
0x01,
0x01,
0xfa,
0xe3,
0xf3,
0xfe,
0xf5,
0x0b,
0xfc,
0x11,
0x07,
0xee,
0xf3,
0xfd,
0xf4,
0x0d,
0xfa,
0x13,
0x06,
0xfa,
0xf8,
0xf2,
0x00,
0x00,
0x02,
0x03,
0x10,
0xf9,
0xf8,
0xf2,
0x00,
0xfe,
0x04,
0x03,
0x10,
0xf8,
0x0c,
0xf3,
0x15,
0xfc,
0x03,
0xf7,
0x03,
0xf2,
0x0b,
0xf2,
0x15,
0xf7,
0x02,
0xf8,
0x02,
0x04,
0x08,
0x01,
0x0a,
0xfc,
0xfa,
0xf7,
0xfd,
0x07,
0x08,
0x02,
0x08,
0xff,
0xf6,
0xfa,
0xf7,
0xc5,
0x0b,
0x08,
0x03,
0x03,
0xf8,
0xfb,
0xf5,
0xc7,
0x0a,
0x09,
0x02,
0x05,
0xf7,
0xfc,
0xf5,
0xd1,
0xf0,
0xfd,
0xf3,
0xfc,
0xfc,
0x03,
0xff,
0xd2,
0xf2,
0xfc,
0xf2,
0xfa,
0xfb,
0x01,
0x01,
0x1d,
0x0d,
0x05,
0x0a,
0xf4,
0xfb,
0xf5,
0xf7,
0x0f,
0x0c,
0x04,
0x0a,
0xf3,
0xfd,
0xf4,
0xf8,
0xe2,
0xfa,
0xfa,
0xfd,
0xfd,
0x02,
0x06,
0x07,
0xdf,
0xfb,
0xfa,
0x00,
0xfb,
0x04,
0x02,
0x06,
0xfd,
0x03,
0xfc,
0xfc,
0xf9,
0xfe,
0xf6,
0x1a,
0xfd,
0x02,
0xfc,
0xfe,
0xf7,
0xfe,
0xf6,
0x1b,
0xb0,
0xfe,
0xff,
0xf7,
0x02,
0xfc,
0x04,
0x04,
0xc6,
0xff,
0x01,
0xfa,
0x01,
0xfe,
0x02,
0x03,
0x13,
0x0d,
0x06,
0x04,
0xfd,
0x01,
0x01,
0xf8,
0x03,
0x0d,
0x06,
0x04,
0xfc,
0x04,
0xfc,
0xfb,
0x0d,
0x00,
0x03,
0xfd,
0xfe,
0xfa,
0xfb,
0xff,
0x10,
0x00,
0x04,
0xfb,
0xff,
0xf9,
0xfb,
0x00,
0xd3,
0x13,
0x05,
0x09,
0xf6,
0xfc,
0xfd,
0xf4,
0xd3,
0x12,
0x04,
0x08,
0xf7,
0xfd,
0xfe,
0xf4,
0xd7,
0x08,
0xfb,
0x07,
0xfe,
0xfa,
0xfb,
0xf7,
0xe2,
0x04,
0xf9,
0x03,
0xfd,
0xf9,
0xfe,
0xf9,
0xf6,
0xfb,
0xfe,
0xf9,
0x03,
0xf9,
0x05,
0x00,
0xf7,
0xfa,
0xfe,
0xfa,
0x01,
0xfc,
0x01,
0x03,
0x05,
0x01,
0xff,
0x06,
0xf8,
0xff,
0xf5,
0x09,
0xf5,
0x01,
0x00,
0x04,
0xf9,
0xfd,
0xf5,
0x09,
0xea,
0xf7,
0x00,
0xf7,
0x09,
0xfc,
0x0a,
0x01,
0xf5,
0xfb,
0x02,
0xfb,
0x07,
0xfd,
0x06,
0xfe,
0xdd,
0x07,
0x04,
0x03,
0xf9,
0x02,
0xfc,
0xf8,
0xe1,
0x08,
0x05,
0x02,
0xfc,
0x00,
0xfe,
0xf6,
0xfe,
0x06,
0x02,
0x02,
0x03,
0xfd,
0x02,
0xfb,
0x0c,
0x03,
0x00,
0x01,
0x02,
0xfd,
0x03,
0xfc,
0x06,
0x00,
0xff,
0xf9,
0x01,
0xfe,
0x01,
0x07,
0xf0,
0xff,
0x00,
0xf8,
0x02,
0xfe,
0x03,
0x07,
0x06,
0xec,
0x45,
0xcd,
0x2a,
0xf1,
0xe2,
0xe4,
0x08,
0xec,
0x43,
0xd0,
0x27,
0xf3,
0xe2,
0xe7,
0xf1,
0xe2,
0x03,
0xea,
0x0c,
0x00,
0x17,
0x1d,
0xf4,
0xe3,
0x05,
0xec,
0x0b,
0x00,
0x15,
0x1d,
0xc0,
0x3c,
0xf9,
0x1c,
0xd4,
0xf3,
0xf7,
0xd9,
0xc1,
0x42,
0xfe,
0x19,
0xd5,
0xf0,
0xf6,
0xd4,
0xa8,
0x2a,
0xfb,
0x20,
0xcc,
0xfe,
0xf7,
0xe9,
0xb1,
0x2f,
0x01,
0x1e,
0xc9,
0xfd,
0xf7,
0xdf};
