/* SPDX-License-Identifier: GPL-2.0 */
/*
 * Copyright (c) 2022 MediaTek Inc.
 *
 * Author: Ming-Hsuan Chiang <ming-hsuan.chiang@mediatek.com>
 *
 */

char fdvt_kernel_bias_loop77_1_frame01_7sp[] = {
0x06,
0x01,
0x06,
0x03,
0x07,
0xff,
0x0a,
0x06,
0x06,
0x00,
0x06,
0x03,
0x06,
0xff,
0x09,
0x04,
0xfc,
0xff,
0xf4,
0xf7,
0xff,
0xff,
0xf6,
0xfa,
0xfb,
0xfe,
0xf2,
0xf7,
0xff,
0xfd,
0xf3,
0xf9,
0x01,
0x02,
0xe8,
0x0b,
0x04,
0x02,
0xea,
0x0b,
0x02,
0x01,
0xe8,
0x0a,
0x04,
0x01,
0xea,
0x0b,
0x0d,
0xfb,
0xf1,
0xf6,
0xfd,
0xfa,
0xef,
0xf3,
0x09,
0xfd,
0xec,
0xef,
0xfa,
0xfb,
0xeb,
0xef,
0x02,
0x00,
0x0b,
0x05,
0x06,
0xff,
0x09,
0x05,
0x01,
0x03,
0x0b,
0x05,
0x07,
0x02,
0x09,
0x05,
0x01,
0x02,
0xf3,
0xf8,
0x04,
0x02,
0xf7,
0xf9,
0x02,
0x01,
0xf2,
0xf9,
0x04,
0x02,
0xf5,
0xfa,
0xf7,
0xfd,
0x37,
0x26,
0x05,
0xfc,
0x30,
0x24,
0xf6,
0x00,
0x38,
0x26,
0x04,
0xfe,
0x2f,
0x24,
0x04,
0x03,
0x08,
0x06,
0x02,
0x02,
0x09,
0x06,
0x05,
0x02,
0x08,
0x06,
0x02,
0x02,
0x07,
0x05,
0x0f,
0xff,
0xf7,
0x00,
0x14,
0xff,
0x0a,
0x07,
0x0e,
0x01,
0xf9,
0x03,
0x14,
0x01,
0x0c,
0x09,
0x02,
0x00,
0xfe,
0xff,
0x02,
0xff,
0xff,
0xff,
0x01,
0x00,
0xfd,
0xff,
0x01,
0x00,
0xfe,
0xff,
0x02,
0x01,
0xfb,
0x00,
0x02,
0x01,
0xfa,
0xff,
0x01,
0x00,
0xfa,
0x00,
0x02,
0x00,
0xfa,
0xff,
0x01,
0x03,
0xfa,
0x00,
0x04,
0x02,
0xfc,
0x00,
0x00,
0xff,
0xfa,
0x02,
0x04,
0x00,
0xfd,
0x02,
0x00,
0x02,
0xfb,
0x01,
0x00,
0x03,
0xfb,
0x00,
0xff,
0x03,
0xfa,
0x00,
0xff,
0x03,
0xf9,
0x00,
0xfe,
0xf9,
0xf7,
0xfc,
0xfb,
0xfa,
0xf6,
0xf9,
0xfe,
0xfe,
0x00,
0x02,
0xff,
0xfe,
0xfd,
0xff,
0x02,
0x01,
0xf1,
0x06,
0x04,
0xff,
0xf1,
0x06,
0x03,
0x01,
0xf0,
0x05,
0x04,
0x00,
0xf0,
0x05,
0x02,
0xfe,
0x03,
0x04,
0xfd,
0xfe,
0xff,
0x03,
0x02,
0xfd,
0x03,
0x04,
0xfd,
0xfd,
0xff,
0x02,
0xfb,
0xfc,
0xe7,
0xf6,
0x08,
0xfd,
0xed,
0xf8,
0xf9,
0x06,
0xe8,
0xf5,
0x06,
0x07,
0xec,
0xf8,
0xfe,
0x06,
0x16,
0x03,
0x03,
0x05,
0x14,
0x04,
0xff,
0x06,
0x17,
0x02,
0x04,
0x06,
0x16,
0x03,
0xfe,
0xfe,
0x01,
0xff,
0xff,
0xfe,
0xfe,
0xfe,
0xff,
0xff,
0x01,
0x00,
0xff,
0xff,
0xfe,
0xfe,
0xfc,
0xf2,
0xed,
0xf3,
0x0c,
0xf3,
0xf3,
0xf6,
0xfd,
0xfa,
0xeb,
0xf2,
0x0e,
0xfa,
0xf1,
0xf6,
0xf9,
0x00,
0x00,
0x0c,
0xff,
0xff,
0x02,
0x0d,
0xf6,
0xfd,
0xff,
0x0b,
0xff,
0xfc,
0x01,
0x0c,
0x00,
0xfe,
0x00,
0xf8,
0xfb,
0xff,
0x00,
0xf8,
0x02,
0x00,
0x01,
0xf8,
0xfd,
0x00,
0x02,
0xf9,
0xff,
0x20,
0xf0,
0x05,
0xfd,
0x21,
0xeb,
0x03,
0x03,
0x21,
0xef,
0x01,
0xfe,
0x21,
0xe9,
0xff,
0x08,
0x05,
0xd3,
0xdb,
0xfa,
0x05,
0xd6,
0xdc,
0x09,
0xff,
0xd2,
0xdb,
0xf9,
0x01,
0xd6,
0xdc,
0x03,
0x16,
0x14,
0x29,
0xfd,
0x17,
0x13,
0x27,
0x03,
0x15,
0x17,
0x29,
0xfd,
0x15,
0x16,
0x27,
0x04,
0x01,
0x08,
0x05,
0x06,
0xfe,
0x07,
0x04,
0xfe,
0x02,
0x0b,
0x06,
0x00,
0xfd,
0x0b,
0x06,
0x02,
0xfe,
0xf6,
0xfb,
0xff,
0x00,
0xf8,
0xfb,
0x04,
0xff,
0xf6,
0xfb,
0x01,
0xff,
0xf8,
0xfc,
0x00,
0xff,
0x10,
0xfb,
0x01,
0xff,
0x0f,
0xf9,
0x00,
0x04,
0x12,
0xfa,
0x00,
0x04,
0x11,
0xf8,
0xf1,
0x01,
0x1f,
0x0e,
0xeb,
0x02,
0x1d,
0x0d,
0xf1,
0xfe,
0x1e,
0x0e,
0xea,
0xfe,
0x1c,
0x0d,
0x02,
0xf2,
0x25,
0x09,
0x05,
0xf2,
0x25,
0x09,
0x03,
0xf4,
0x22,
0x07,
0x05,
0xf4,
0x21,
0x06,
0xfd,
0xfe,
0x14,
0xfd,
0xfe,
0xfe,
0x12,
0xfb,
0xfd,
0x03,
0x14,
0xfd,
0xff,
0x03,
0x14,
0xfc,
0xf8,
0x00,
0x08,
0x04,
0xf2,
0xfe,
0x08,
0x05,
0xf9,
0xfe,
0x09,
0x05,
0xf2,
0x02,
0x0b,
0x0c,
0x04,
0xfd,
0x08,
0x06,
0x06,
0xfb,
0x09,
0x09,
0x04,
0xfe,
0x07,
0x06,
0x04,
0xfc,
0x08,
0x08,
0xfd,
0xfe,
0xf9,
0xf6,
0x00,
0xff,
0xf6,
0xf4,
0xfe,
0xfc,
0xf8,
0xf5,
0x00,
0xfc,
0xf5,
0xf2,
0x00,
0x01,
0xf0,
0x06,
0x01,
0x01,
0xf1,
0x08,
0x01,
0xff,
0xee,
0x04,
0x01,
0xff,
0xf0,
0x07,
0x0b,
0xef,
0xfa,
0xf8,
0x00,
0xee,
0xf9,
0xf2,
0x09,
0xf0,
0xf8,
0xf1,
0xff,
0xef,
0xf7,
0xed,
0x01,
0x00,
0x05,
0x06,
0x04,
0xfe,
0x06,
0x08,
0x02,
0x02,
0x04,
0x07,
0x05,
0x01,
0x05,
0x08,
0x01,
0x04,
0xfb,
0xf3,
0x04,
0x06,
0xfb,
0xf4,
0x01,
0x05,
0xfa,
0xf1,
0x05,
0x07,
0xfa,
0xf3,
0xfc,
0xf7,
0x2c,
0x46,
0x04,
0xf7,
0x29,
0x43,
0xfc,
0xfa,
0x2c,
0x45,
0x03,
0xfb,
0x29,
0x43,
0x03,
0x04,
0x00,
0x03,
0x03,
0x04,
0x01,
0x03,
0x04,
0x02,
0xff,
0x02,
0x02,
0x02,
0x00,
0x03,
0x08,
0x00,
0x05,
0x02,
0x08,
0x00,
0x09,
0x08,
0x08,
0x02,
0x06,
0x02,
0x08,
0x01,
0x0a,
0x09,
0x03,
0xff,
0xfe,
0x00,
0x02,
0xff,
0xfe,
0x00,
0x02,
0xfe,
0xfd,
0x00,
0x01,
0xff,
0xfe,
0x00,
0x03,
0x00,
0xfc,
0x00,
0x02,
0x00,
0xfc,
0x00,
0x03,
0xff,
0xfc,
0xff,
0x03,
0xff,
0xfc,
0x00,
0x00,
0x08,
0xf5,
0x01,
0x01,
0x06,
0xf5,
0x01,
0x01,
0x04,
0xf6,
0x00,
0x00,
0x03,
0xf6,
0x01,
0xff,
0x03,
0xfe,
0xff,
0x00,
0x03,
0xfe,
0xff,
0xff,
0x05,
0xff,
0x00,
0x00,
0x04,
0xff,
0xff,
0xfe,
0x0a,
0x04,
0xfd,
0xff,
0x0a,
0x02,
0xfd,
0xfe,
0x0c,
0x05,
0x03,
0x02,
0x0c,
0x02,
0x02,
0x04,
0x00,
0xf6,
0x09,
0x03,
0xff,
0xf6,
0x0b,
0x04,
0x00,
0xf5,
0x08,
0x04,
0xff,
0xf6,
0x0a,
0x02,
0xfc,
0x03,
0x06,
0x01,
0xfd,
0x01,
0x04,
0x02,
0xfc,
0x03,
0x08,
0x00,
0xfc,
0x00,
0x05,
0xe6,
0xf9,
0xf2,
0xed,
0x0f,
0xf8,
0xf9,
0xf7,
0xe5,
0xfc,
0xf3,
0xe7,
0x10,
0xff,
0xf8,
0xf2,
0x00,
0x08,
0x12,
0x04,
0x01,
0x09,
0x11,
0x06,
0x01,
0x09,
0x11,
0x04,
0x02,
0x09,
0x11,
0x05,
0xfe,
0xfe,
0xff,
0xff,
0xfe,
0xfe,
0xfe,
0xfe,
0xfe,
0xff,
0xff,
0x00,
0xfe,
0xff,
0xfe,
0xff,
0xfe,
0xf1,
0xf2,
0xf0,
0x0a,
0xf0,
0xf2,
0xf0,
0xfe,
0xf3,
0xf0,
0xf5,
0x0e,
0xf5,
0xf2,
0xf6,
0xfb,
0xfc,
0xff,
0x0d,
0xff,
0xfb,
0x00,
0x0b,
0xf9,
0xfb,
0xfe,
0x0b,
0xfd,
0xfa,
0xff,
0x0a,
0x00,
0xff,
0x01,
0xf7,
0xfd,
0x01,
0x02,
0xf8,
0x01,
0x01,
0x02,
0xf7,
0x00,
0x03,
0x02,
0xf8,
0xfe,
0x2f,
0x04,
0x25,
0xff,
0x30,
0x01,
0x21,
0x00,
0x30,
0x02,
0x19,
0xff,
0x31,
0xff,
0x14,
0x05,
0x05,
0xe6,
0xd0,
0xfd,
0x06,
0xe8,
0xd0,
0x04,
0xfe,
0xe7,
0xd1,
0xfd,
0xff,
0xea,
0xd1,
0x00,
0x21,
0x08,
0x29,
0xfe,
0x21,
0x08,
0x28,
0xff,
0x1d,
0x09,
0x29,
0xfe,
0x1e,
0x08,
0x28,
0x05,
0x03,
0x03,
0x05,
0x03,
0xff,
0x07,
0x06,
0xfe,
0x02,
0x07,
0x06,
0xff,
0x00,
0x09,
0x09,
0x02,
0x01,
0xf9,
0xf4,
0xff,
0x04,
0xf9,
0xf3,
0x05,
0x00,
0xfa,
0xf6,
0x02,
0x04,
0xfb,
0xf6,
0x01,
0x01,
0x0b,
0xfc,
0x01,
0x01,
0x0b,
0xfa,
0x01,
0x05,
0x0d,
0xfd,
0x01,
0x05,
0x0c,
0xfa,
0xf8,
0xfe,
0x0e,
0x0c,
0xf1,
0xfe,
0x0c,
0x0e,
0xf7,
0xf9,
0x0d,
0x0d,
0xf1,
0xf9,
0x0b,
0x0e,
0xfe,
0xed,
0x13,
0x05,
0x00,
0xed,
0x15,
0x05,
0x00,
0xec,
0x12,
0x04,
0x01,
0xec,
0x14,
0x04,
0xff,
0x01,
0x10,
0xfd,
0xfe,
0x01,
0x0f,
0xfb,
0xff,
0x06,
0x10,
0xfe,
0xfe,
0x06,
0x0f,
0xfc,
0xfb,
0xfe,
0x04,
0x03,
0xf1,
0xfe,
0x07,
0x09,
0xfa,
0xfe,
0x04,
0x00,
0xee,
0xfd,
0x09,
0x0b,
0x02,
0x07,
0x31,
0x49,
0xff,
0x07,
0x30,
0x48,
0x02,
0x03,
0x31,
0x49,
0xff,
0x02,
0x30,
0x48};
