/* SPDX-License-Identifier: GPL-2.0 */
/*
 * Copyright (c) 2022 MediaTek Inc.
 *
 * Author: Ming-Hsuan Chiang <ming-hsuan.chiang@mediatek.com>
 *
 */

char fdvt_kernel_bias_loop32_1_frame01_7sp[] = {
0x07,
0xfa,
0xe1,
0xfe,
0x08,
0xd8,
0xf1,
0xf6,
0xff,
0xed,
0xff,
0xfe,
0x02,
0x09,
0xf9,
0xf8,
0xfd,
0x0b,
0x00,
0x18,
0xea,
0x06,
0xf3,
0xf7,
0xfa,
0xfd,
0xe4,
0x00,
0x03,
0xf3,
0x08,
0x02,
0xfe,
0x1b,
0xfe,
0xf9,
0x00,
0xf6,
0xe6,
0xfb,
0xf3,
0x01,
0xe5,
0x00,
0xf8,
0xf8,
0x03,
0xf9,
0x08,
0x14,
0xfb,
0x0c,
0xf5,
0x0f,
0xec,
0xf4,
0xfd,
0xfa,
0xf2,
0xfe,
0x00,
0xf5,
0x0b,
0xf8,
0x0a,
0xf5,
0xf4,
0x02,
0x06,
0xf5,
0xef,
0x02,
0xef,
0xfe,
0xfe,
0x04,
0xed,
0x08,
0xe9,
0x0b,
0x07,
0xf0,
0x09,
0xfb,
0x06,
0xfe,
0xfe,
0x09,
0xee,
0x06,
0x0b,
0x0b,
0xe1,
0x06,
0xfa,
0x10,
0x03,
0xf6,
0xf5,
0x04,
0x08,
0xf7,
0x06,
0xe5,
0x03,
0x0a,
0x0d,
0x01,
0xfd,
0x09,
0xf9,
0x09,
0xfa,
0x0c,
0x03,
0x06,
0x01,
0x02,
0xff,
0x0b,
0xef,
0x0b,
0xf7,
0x02,
0x03,
0xf5,
0x06,
0x08,
0xe8,
0xf7,
0x00,
0x2e,
0x02,
0xff,
0x0c,
0x0f,
0x11,
0x04,
0x01,
0x04,
0xf2,
0x0c,
0xf8,
0xdc,
0xf6,
0x08,
0x00,
0x00,
0x01,
0xfc,
0xfe,
0xe8,
0xf6,
0xff,
0x0e,
0xff,
0x25,
0x18,
0xf8,
0xf7,
0x0c,
0xfd,
0xfa,
0xde,
0x05,
0xfc,
0xfb,
0xe5,
0xf8,
0xfe,
0xfd,
0x04,
0x06,
0xfb,
0x03,
0x05,
0x0a,
0x03,
0x10,
0x02,
0x0f,
0xf4,
0x02,
0xdd,
0xf5,
0xe7,
0x07,
0xf9,
0x01,
0xfb,
0x0b,
0xe1,
0xfc,
0xf8,
0x1c,
0x13,
0xff,
0x02,
0x0c,
0x00,
0x02,
0x0b,
0x02,
0x01,
0x04,
0xfe,
0x08,
0x0b,
0x0a,
0x1d,
0x03,
0xff,
0x0b,
0x0a,
0xfd,
0x02,
0xff,
0x13,
0xfa,
0x07,
0xd7,
0x0c,
0x05,
0xf5,
0xfb,
0x03,
0xfa,
0x0d,
0x03,
0xf4,
0x00,
0xe1,
0xf9,
0xee,
0xfa,
0xfb,
0xf7,
0x1b,
0x0b,
0xcc,
0x1d,
0xfd,
0x10,
0x09,
0xe7,
0x09,
0x00,
0xf1,
0x04,
0xf3,
0xf3,
0xf7,
0x0b,
0x02,
0xfc,
0xee,
0x00,
0x00,
0x00,
0x00,
0x00,
0x00,
0x00,
0x00,
0x00,
0x00,
0x00,
0x00,
0x00,
0x00,
0x00,
0x00};
