/* SPDX-License-Identifier: GPL-2.0 */
/*
 * Copyright (c) 2022 MediaTek Inc.
 *
 * Author: Ming-Hsuan Chiang <ming-hsuan.chiang@mediatek.com>
 *
 */

char fdvt_kernel_bias_loop50_1_frame01_7sp[] = {
0x0c,
0xea,
0x05,
0x02,
0x0a,
0xf0,
0x05,
0x00,
0x13,
0xf0,
0x03,
0x0b,
0x0c,
0xed,
0x0a,
0x0b,
0xfb,
0x00,
0x04,
0x0a,
0xfc,
0xf7,
0xf7,
0x00,
0xf6,
0xfe,
0x00,
0x08,
0xf7,
0xfc,
0xf5,
0x00,
0x03,
0x09,
0xe5,
0x54,
0x04,
0x07,
0xe2,
0x4e,
0x01,
0x00,
0xe3,
0x50,
0x03,
0xfe,
0xe2,
0x4b,
0x2a,
0x07,
0x0c,
0x02,
0x00,
0x00,
0x05,
0x06,
0x27,
0x0d,
0x08,
0x00,
0xf6,
0x05,
0xfe,
0x00,
0x03,
0xec,
0x0a,
0x0f,
0xf9,
0xf1,
0x0a,
0x12,
0x03,
0xfb,
0x14,
0x19,
0x08,
0x08,
0x15,
0x1c,
0x0a,
0x0a,
0x0b,
0x07,
0x03,
0x08,
0x02,
0x04,
0x0c,
0x04,
0x07,
0x03,
0x03,
0xff,
0xff,
0x02,
0xfd,
0xf6,
0x06,
0x15,
0x0a,
0xef,
0x12,
0x26,
0xeb,
0x0b,
0x0d,
0x13,
0x09,
0xff,
0x17,
0x1c,
0x08,
0x0f,
0x0c,
0x00,
0x00,
0x0a,
0x0a,
0x03,
0x06,
0xff,
0x0e,
0x02,
0x00,
0xff,
0x0b,
0x06,
0xff,
0x01,
0xf0,
0xf4,
0xf7,
0x00,
0xf4,
0xf8,
0xfb,
0xf3,
0xfd,
0xfd,
0xfe,
0xf3,
0x00,
0x00,
0x03,
0xfe,
0xfa,
0xff,
0x06,
0xfd,
0x01,
0x00,
0x02,
0x04,
0xfd,
0x02,
0x07,
0x03,
0x02,
0x03,
0x01,
0xfe,
0x01,
0x02,
0xfd,
0xfd,
0x01,
0x07,
0xfe,
0x04,
0xfc,
0x03,
0xf9,
0x04,
0x02,
0x08,
0xf9,
0x11,
0xfb,
0x06,
0x06,
0x0c,
0x06,
0x05,
0xf3,
0xfe,
0xfe,
0x05,
0x0a,
0x02,
0x05,
0x06,
0xfd,
0xf8,
0x01,
0x0c,
0xfd,
0xf2,
0x04,
0x14,
0xfb,
0x16,
0x07,
0x1b,
0xff,
0x14,
0x0b,
0x21,
0x0e,
0xf5,
0x09,
0x09,
0xf8,
0xf4,
0x06,
0x03,
0x08,
0x01,
0x05,
0xff,
0xfe,
0xfd,
0x02,
0xfe,
0x09,
0x01,
0x01,
0x06,
0xfb,
0xfd,
0xff,
0x08,
0x0e,
0x02,
0xfd,
0x05,
0xf7,
0x05,
0xfe,
0x0b,
0xff,
0x01,
0xf7,
0xfc,
0xfe,
0xf3,
0xec,
0xe6,
0xf7,
0xfe,
0x01,
0x06,
0x0a,
0x0a,
0xfb,
0xee,
0x07,
0x0d,
0xf5,
0xf4,
0xec,
0x14,
0xf9,
0xf7,
0x0b,
0xf9,
0xf7,
0xf5,
0xef,
0xf8,
0xf9,
0xf3,
0x0f,
0x10,
0xe3,
0xe2,
0xef,
0x01,
0xe9,
0xe7,
0x08,
0xfa,
0xdd,
0xde,
0xea,
0xfc,
0xe8,
0xe5,
0xfe,
0xfe,
0x0a,
0x0d,
0x09,
0x02,
0x06,
0x0a,
0xff,
0x09,
0x0e,
0x0f,
0x0b,
0x0a,
0x06,
0x0a,
0xf0,
0xf1,
0xd0,
0xe3,
0x04,
0xf8,
0xde,
0xea,
0xf9,
0xf3,
0xd0,
0xe2,
0x0d,
0x05,
0xdf,
0xe8,
0xff,
0x0e,
0x0d,
0x06,
0x02,
0x0b,
0xfb,
0x01,
0xf3,
0x01,
0xfe,
0xf9,
0x06,
0xf9,
0xf6,
0x01,
0xf3,
0xf5,
0x0e,
0x0c,
0x00,
0xf6,
0x0d,
0x0f,
0xf6,
0xfd,
0x1e,
0x1a,
0x00,
0x08,
0x20,
0x1f,
0xfd,
0x12,
0x03,
0x03,
0x06,
0x1f,
0xfc,
0xfc,
0x09,
0x37,
0xf6,
0xf9,
0xfc,
0x2e,
0xf0,
0xf2,
0xfb,
0xe0,
0x0a,
0x0f,
0x2a,
0xf9,
0x08,
0xfb,
0x12,
0x1c,
0x1a,
0x1d,
0x1c,
0x1b,
0x16,
0x14,
0x05,
0xf6,
0xf3,
0xee,
0xfe,
0xfd,
0xf7,
0xf2,
0x0a,
0xf1,
0xf5,
0x08,
0x01,
0xfc,
0xfb,
0x08,
0xfc,
0x08,
0x04,
0xfe,
0x10,
0xed,
0x03,
0xff,
0xec,
0x13,
0x02,
0xfc,
0xfc,
0xff,
0x04,
0x02,
0xfa,
0xfc,
0xfa,
0xfc,
0x00,
0xf6,
0xfc,
0xfd,
0xfb,
0xf8,
0xfb,
0xfc,
0xfc,
0xfd,
0x01,
0x01,
0x03,
0xff,
0x0c,
0xef,
0x00,
0xf8,
0x13,
0xf2,
0xff,
0xfd,
0x0d,
0xef,
0x01,
0x01,
0x10,
0xf0,
0x10,
0x13,
0x09,
0x15,
0x1b,
0x1d,
0xea,
0xf4,
0x19,
0xfb,
0xfc,
0x05,
0x1d,
0xf9,
0xe0,
0xe7,
0x04,
0xe5,
0x34,
0x1b,
0x06,
0xef,
0x2b,
0x18,
0x0a,
0x02,
0x25,
0x12,
0x08,
0xfd,
0x20,
0x13,
0x01,
0xfd,
0x09,
0xee,
0xfa,
0xf8,
0x0a,
0xed,
0x01,
0xfd,
0x0c,
0xec,
0xfe,
0x03,
0x0b,
0xeb,
0xff,
0x01,
0x15,
0x09,
0x13,
0x10,
0xf7,
0xf6,
0x07,
0xfe,
0x13,
0x07,
0x16,
0xfd,
0xf1,
0xf4,
0x00,
0x00,
0x00,
0x00,
0x00,
0x00,
0x00,
0x00,
0x00,
0x00,
0x00,
0x00,
0x00,
0x00,
0x00,
0x00};
