/* SPDX-License-Identifier: GPL-2.0 */
/*
 * Copyright (c) 2022 MediaTek Inc.
 *
 * Author: Ming-Hsuan Chiang <ming-hsuan.chiang@mediatek.com>
 *
 */

char fdvt_kernel_bias_loop35_0_frame01_7sp[] = {
0x09,
0x10,
0xe7,
0xf2,
0xd0,
0x1d,
0x15,
0x1c,
0xf3,
0xe7,
0x0a,
0x17,
0x19,
0x27,
0xee,
0x10,
0x0b,
0xff,
0xfc,
0x0c,
0xc2,
0xee,
0xfa,
0x16,
0x08,
0x1d,
0x0b,
0xf5,
0xe3,
0x0b,
0x08,
0x0c,
0x03,
0x37,
0xed,
0x04,
0xe5,
0x07,
0xd4,
0x01,
0x05,
0xed,
0x07,
0xed,
0xe6,
0x02,
0x29,
0xf8,
0xfc,
0xf9,
0xe9,
0x1c,
0xf6,
0x09,
0xfc,
0x09,
0xfe,
0xf0,
0xe7,
0x28,
0x1b,
0x13,
0xf4,
0x1c,
0x07,
0xfa,
0x08,
0x0c,
0xeb,
0xff,
0xf4,
0x06,
0xe1,
0xed,
0x23,
0x16,
0xff,
0x22,
0x24,
0x08,
0x17,
0xee,
0x02,
0xfb,
0x1b,
0x1d,
0xfd,
0xec,
0x28,
0xf8,
0x0f,
0xef,
0xea,
0x20,
0xdb,
0xbe,
0xff,
0x38,
0xd9,
0xcb,
0x06,
0x07,
0xe9,
0x11,
0xe8,
0x11,
0xee,
0xe7,
0x2a,
0xfe,
0xeb,
0xf5,
0xeb,
0xf1,
0xe5,
0xf0,
0xfa,
0xe2,
0xfd,
0x16,
0xde,
0xf5,
0xe9,
0x2a,
0xf7,
0x1d,
0x02,
0xfc,
0x1d,
0xe3,
0x00,
0xfe,
0x02,
0x24,
0xeb,
0xf8,
0xfe,
0x1e,
0x06,
0xdc,
0x03,
0x00,
0xda,
0xff,
0xf9,
0xeb,
0x07,
0xf1,
0xe8,
0xd7,
0x2e,
0xf4,
0xf0,
0xf4,
0x24,
0x05,
0xf0,
0xfa,
0xf8,
0xfb,
0xd7,
0xfc,
0x00,
0xfd,
0xeb,
0x06,
0x0c,
0xdf,
0x03,
0x1a,
0x0f,
0xf1,
0xf7,
0xeb,
0x1a,
0xf4,
0xf1,
0x02,
0xf6,
0x05,
0x02,
0xf4,
0xed,
0xf2,
0xd3,
0x05,
0xf9,
0x02,
0xf2,
0x04,
0xfd,
0xfc,
0xda,
0xfd,
0xf8,
0xca,
0x0f,
0xfd,
0xf7,
0xed,
0xf7,
0xd8,
0xd3,
0x19,
0xdb,
0xee,
0xff,
0xe4,
0xdf,
0xf4,
0x1f,
0x03,
0xf6,
0x0f,
0x19,
0x01,
0x08,
0x02,
0xed,
0x08,
0x41,
0xfb,
0x06,
0xe4,
0xf7,
0x12,
0x24,
0xe9,
0x1e,
0xea,
0xf9,
0xbf,
0xf2,
0xeb,
0xec,
0xe3,
0xc9,
0xed,
0x14,
0x07,
0x06,
0xf3,
0xf6,
0x24,
0xfa,
0xe3,
0xe3,
0xfa,
0xd5,
0x0a,
0xee,
0xfd,
0x02,
0xef,
0x03,
0xfa,
0xe6,
0x11,
0x1b,
0x09,
0xcf,
0x03,
0x32,
0xf2,
0x14,
0xf6,
0x0f,
0x07,
0x22,
0xf2,
0x03,
0x02,
0xf1,
0x01,
0x24,
0x1b,
0x11,
0xf5,
0x01,
0xeb,
0x18,
0x0e,
0x19,
0x09,
0xff,
0xfc,
0xf4,
0xfd,
0xea,
0x10,
0xec,
0xee,
0xd6,
0x20,
0x0c,
0x1e,
0x00,
0x07,
0x01,
0xef,
0x2f,
0xfc,
0xe4,
0x1b,
0xfd,
0x13,
0xe8,
0x01,
0xed,
0xe4,
0x05,
0xea,
0xee,
0xe7,
0xf3,
0xd1,
0x02,
0x1a,
0x01,
0xfc,
0x14,
0xe3,
0x00,
0xf5,
0x14,
0xfc,
0xf5,
0xe6,
0x19,
0x0a,
0xda,
0x1f,
0xf1,
0xf7,
0x00,
0xf5,
0x1a,
0x2f,
0xf1,
0x09,
0xf6,
0x05,
0xd9,
0x0d,
0x27,
0x1e,
0x05,
0xf6,
0xf9,
0xef,
0xfc,
0x4a,
0x06,
0x00,
0xfc,
0x07,
0xea,
0xe3,
0xd0,
0xf8,
0xe5,
0xf2,
0xcd,
0x1a,
0x01,
0xe2,
0xed,
0x10,
0x08,
0x00,
0xff,
0xf0,
0xe5,
0xde,
0x06,
0xde,
0xe2,
0xfc,
0xef,
0x0f,
0x0c,
0x31,
0x06,
0xfd,
0xf5,
0x01,
0xea,
0x36,
0xf2,
0xe7,
0x08,
0xf2,
0xd6,
0xf9,
0x02,
0xe1,
0xf2,
0xef,
0x06,
0x05,
0xe4,
0x11,
0xee,
0x21,
0xe0,
0x07,
0xe5,
0x0a,
0xfa,
0xed,
0x0b,
0xe8,
0xe6,
0x07,
0xfa,
0x15,
0x03,
0xe9,
0x02,
0xe1,
0xf2,
0x26,
0x0b,
0xdd,
0x03,
0xfd,
0x20,
0x03,
0x01,
0x12,
0x00,
0xe8,
0xef,
0xf9,
0x04,
0xfb,
0xe5,
0xf4,
0xf8,
0xeb,
0xd1,
0x08,
0xf8,
0x12,
0x22,
0xcf,
0x03,
0x0a,
0xf3,
0xe5,
0xcf,
0xbb,
0x2a,
0xf4,
0x36,
0x1f,
0xf0,
0xe9,
0x08,
0xda,
0xea,
0xeb,
0x2a,
0xb8,
0x17,
0x0f,
0xfa,
0xeb,
0x0d,
0x07,
0x1b,
0xe8,
0x04,
0x01,
0x0e,
0x21,
0x02,
0xd8,
0xe5,
0xf8,
0xf3,
0x01,
0xee,
0x10,
0xe6,
0xf1,
0xe6,
0xff,
0xe6,
0x22,
0x32,
0x02,
0xfb,
0x07,
0x1d,
0x1b,
0x03,
0x24,
0x0d,
0x10,
0x0a,
0xf8,
0xf5,
0x00,
0xe3,
0x0e,
0x08,
0x02,
0xe7,
0x0f,
0xe6,
0x0f,
0xd1,
0xfd,
0xc1,
0x30,
0x12,
0xed,
0xff,
0xe5,
0xfd,
0x26,
0xef,
0x0b,
0x08,
0x0b,
0x05,
0x04,
0xf1,
0x11,
0xd6,
0x2c,
0xed,
0x01,
0xfd,
0xea,
0x1d,
0xfa,
0x18,
0xe5,
0x0d,
0x18,
0x22,
0x0a,
0xe5,
0xfb,
0xef,
0x1b,
0xd0,
0xee,
0xfc,
0xb5,
0x04,
0xe3,
0xc6,
0x0e,
0x2b,
0x38,
0x11,
0xe2,
0xdb,
0x14,
0x10,
0x0c,
0xdc,
0x01,
0x12,
0xdc,
0x33,
0xef,
0x14,
0xec,
0x23,
0xd7,
0xfc,
0xd9,
0x18,
0x10,
0xf6,
0xed,
0x0a,
0xff,
0xf1,
0xfa,
0x0a,
0xda,
0x0b,
0x10,
0xfa,
0x06,
0xf2,
0x01,
0xfb,
0x07,
0x04,
0xdf,
0x08,
0x0d,
0xf1,
0xf6,
0x1f,
0x19,
0x10,
0x0d,
0x0c,
0xf8,
0x17,
0x03,
0x1f,
0x09,
0xeb,
0xf4,
0xfd,
0xda,
0x09,
0xb1,
0xec,
0x14,
0xfa,
0x07,
0xfa,
0x2a,
0x0f,
0x02,
0xfe,
0xf4,
0xf0,
0x08,
0xf4,
0x16,
0xd2,
0xef,
0xe6,
0xe2,
0xf2,
0xfc,
0x12,
0x12,
0x26,
0xfc,
0x14,
0xfb,
0xfa,
0xff,
0x2d,
0x13,
0xdd,
0x2a,
0x0a,
0xf6,
0xf8,
0x10,
0xe9,
0xe1,
0xf4,
0xe4,
0x18,
0x09,
0x00,
0xe4,
0xde,
0x04,
0x13,
0x0d,
0xfa,
0xde,
0x0f,
0x12,
0x1f,
0x0b,
0x19,
0xf1,
0xd0,
0xff,
0xe4,
0x02,
0x3a,
0xdd,
0x01,
0xd7,
0x30,
0x38,
0xfb,
0x0e,
0x17,
0xde,
0x17,
0x01,
0xed,
0xff,
0x06,
0xff,
0xea,
0xf0,
0xcf,
0xe0,
0xee,
0x27,
0xf5,
0xfc,
0x0e,
0x12,
0xfc,
0x06,
0xe8,
0x0c,
0x02,
0xde,
0xe1,
0xfd,
0xec,
0xe6,
0xff,
0xe6,
0xe4,
0xf2,
0xf1,
0x26,
0x1c,
0x19,
0xe5,
0xef,
0x04,
0xec,
0xf3,
0x0b,
0xe8,
0xea,
0xf5,
0xb7,
0xf2,
0x17,
0xe2,
0x3c,
0x0a,
0x17,
0xe7,
0x0a,
0x16,
0xf2,
0xed,
0xf5,
0xc8,
0xe7,
0x32,
0xe4,
0xe2,
0xc0,
0x29,
0x22,
0x19,
0xfd,
0xff,
0x09,
0xec,
0xf9,
0xf5,
0x05,
0x3f,
0xdf,
0x09,
0xf9,
0xf5,
0xef,
0xf2,
0x02,
0x01,
0xec,
0xf6,
0xfc,
0x06,
0xf4,
0xe8,
0x1a,
0x03,
0xe2,
0xde,
0xd0,
0x01,
0xff,
0x1e,
0x0a,
0x24,
0xfc,
0xf5,
0xf9,
0x10,
0x0d,
0xfc,
0xf7,
0xec,
0xf0,
0xea,
0x08,
0xf3,
0xee,
0x05,
0xfd,
0x13,
0xe6,
0xee,
0xea,
0xeb,
0xeb,
0xf3,
0x1a,
0x0a,
0xee,
0xf3,
0xfb,
0xbf,
0x1e,
0xff,
0xfd,
0x11,
0x0a,
0x11,
0x08,
0xfd,
0x08,
0x01,
0x08,
0x2c,
0x0b,
0xf4,
0x31,
0x0c,
0x2f,
0x02,
0x21,
0xf4,
0x15,
0x17,
0x15,
0x01,
0xf1,
0x08,
0x1e,
0xf0,
0xee,
0x0c,
0xfa,
0xfa,
0xeb,
0xf4,
0xf9,
0xff,
0xeb,
0xc6,
0xe6,
0xed,
0x0e,
0xce,
0xe2,
0x12,
0x12,
0xe0,
0xf9,
0x02,
0x14,
0x2d,
0x13,
0xfe,
0xd6,
0xe9,
0xda,
0xda,
0xf4,
0xe6,
0x22,
0x15,
0x05,
0xf2,
0xf0,
0xe9,
0xe5,
0xef,
0xf4,
0xe9,
0xf7,
0xeb,
0xf8,
0x0c,
0x1e,
0x04,
0xf1,
0x02,
0x15,
0xe7,
0xd1,
0xf0,
0x02,
0xee,
0x39,
0x13,
0xfc,
0xf1,
0xf8,
0xe6,
0xf4,
0xe0,
0xf9,
0x32,
0xe4,
0xfe,
0xed,
0xe1,
0xec,
0xfe,
0x0f,
0xea,
0x05,
0x05,
0xfe,
0xf7,
0x13,
0x23,
0xf9,
0xf8,
0xd7,
0x1a,
0x08,
0x25,
0xf3,
0x22,
0x03,
0x5d,
0xf5,
0xf1,
0x0f,
0xf3,
0x22,
0xef,
0xee,
0xf5,
0x0d,
0x22,
0xf0,
0x01,
0x37,
0x18,
0x0e,
0xfb,
0xe7,
0xfa,
0x2a,
0x04,
0xfb,
0x03,
0xf2,
0xe1,
0x13,
0xec,
0xf8,
0xf7,
0xff,
0xf4,
0x05,
0x0c,
0x08,
0xd4,
0x00,
0xd0,
0x21,
0xc5,
0xf1,
0x04,
0xad,
0xef,
0xd8,
0xf5,
0xfe,
0x1a,
0x11,
0x23,
0xcb,
0x12,
0x0f,
0xee,
0xd5,
0xdc,
0xe6,
0xf1,
0xcf,
0xf6,
0xfb,
0x09,
0xea,
0x08,
0x2d,
0x10,
0x1e,
0x24,
0x01,
0x2c,
0x0d,
0xf3,
0x05,
0x07,
0xf1,
0xfc,
0x0a,
0x0f,
0x10,
0xeb,
0xed,
0xcb,
0xf9,
0x01,
0x11,
0x1c,
0x28,
0xfa,
0xe4,
0x03,
0xf0,
0xfd,
0x10,
0xe4,
0xed,
0x02,
0x22,
0x06,
0x17,
0x13,
0xea,
0x0f,
0x50,
0x23,
0xff,
0x2a,
0x38,
0x09,
0x23,
0xfd,
0x3b,
0x1c,
0xee,
0x05,
0x08};
